{"Jim": 45398, "etable": 34849, "▁bell": 23291, "\\\"][\\\"": 57597, "和工作": 32524, "包括": 15312, "▁trains": 20782, "以": 3294, "▁necessity": 23311, "密": 5218, "▁violin": 46875, "▁wide": 4705, "教程": 40161, "potent": 43080, "▁Compare": 44659, "prepare": 44331, "pun": 54545, "▁winner": 10245, "▁anc": 15936, "洋溢": 39481, "ophren": 43302, "耸": 63550, "▁accompanied": 18308, "▁outperform": 18962, "▁flooding": 29936, "一滴": 53549, "т": 582, "zech": 24746, "不同的": 6435, "▁Card": 9481, "ivan": 22771, "lot": 29733, "▁hardship": 51344, "▁Practices": 59405, "她在": 19922, "▁flown": 44031, "行事": 51232, "▁frightening": 40033, "一股": 28929, "桔": 6993, "▁Zion": 35188, "人性的": 53083, "▁affordable": 11900, "借钱": 52262, "▁университе": 44053, "那天": 18653, "▁encryption": 26317, "▁Hogan": 57670, "▁AP": 11560, "針對": 17854, "▁Dra": 22345, "错的": 37699, "sweet": 57021, "neffective": 57209, "▁turb": 13785, "组成": 6728, "燃油": 33105, "▁say": 1441, "▁lungs": 31937, "▁aboard": 30238, "yo": 14955, "原来": 9382, "皮肤": 8265, "▁weekends": 23737, "▁Anonymous": 38906, "▁tiger": 51033, "having": 51316, "▁revelation": 32211, "重要意义": 57735, "anco": 38267, "▁logical": 15830, "以及其他": 44771, "▁plate": 8685, "▁bolster": 55899, "咪": 4199, "国内外": 23415, "▁rock": 5387, "▁Known": 48964, "urns": 10580, "▁variants": 23266, "新风": 49110, "▁fine": 4064, "▁carpet": 20652, "主动": 6187, "人民币": 8768, "而去": 34602, "盖上": 51927, "▁Georg": 11182, "大陸": 15466, "▁Ker": 33904, "首席执行官": 51176, "赛前": 58075, "▁analytically": 38246, "ACP": 51583, "▁obscure": 32332, "nprot": 55352, "▁heaven": 14965, "▁Based": 15349, "oleon": 51435, "叔叔": 28429, "▁cleaner": 24926, "atra": 37402, "成績": 16951, "▁Apply": 33512, "▁neck": 9884, "nusing": 7256, "▁roof": 11578, "会影响": 26876, "▁Som": 27500, "▁consultant": 21998, "▁preserving": 26404, "cently": 12583, "invalid": 33027, "▁iOS": 11347, "▁breathe": 24943, "OutputStream": 54660, "hered": 34237, "房间里": 50746, "nshow": 25379, "ference": 6933, "▁lonely": 27652, "▁ASC": 42166, "▁Chamber": 23848, "▁Indones": 20653, "县级": 28437, "孕育": 43494, "▁Flo": 14347, "拥堵": 43028, "▁bans": 45957, "愈发": 51254, "潔": 7881, "▁Това": 55562, "小龙虾": 58144, "omon": 26721, "ин": 44246, "▁Mond": 46338, "蛋": 10812, "▁TW": 43591, "▁Palestinians": 28689, "虽说": 35114, "小时内": 43061, "pak": 41461, "\\\"-": 31674, "人们": 4452, "青岛市": 56824, "#{": 36725, "ynchronous": 41395, "經驗": 17738, "vector": 9878, "商品房": 32992, "▁recalled": 26588, "養": 12968, "▁fights": 20593, "▁remarked": 47338, "]/": 39920, "▁stringent": 42862, "gt": 15653, "▁begin": 2895, "▁feud": 53139, "▁ceased": 51991, "精神病": 58231, "keeper": 22137, "比的": 49922, "▁filming": 30656, "reb": 58581, "▁gotten": 10103, "哗": 63385, "指定的": 26120, "nqu": 24352, "щата": 31085, "利用率": 48616, "坞": 4648, "rend": 12101, "蕾": 10671, "▁breakdown": 21474, "▁Appeal": 57362, "▁enthusiasts": 31176, "CLUDING": 45889, "oys": 20211, "nProperty": 43052, "▁herb": 30469, "ahah": 42079, "ape": 2454, "Street": 19803, "ared": 2407, "ci": 16494, "的感觉": 12659, "▁Chrom": 47836, "▁peacefully": 56143, "▁nothing": 2957, "背面": 50556, "▁candidate": 7567, "珠": 8449, "契机": 24904, "人也": 35844, "bq": 44904, "▁textbooks": 45522, "骗子": 44941, "▁permission": 10841, "ivariate": 32082, "内外": 21624, "给予": 8615, "▁zinc": 52444, "将": 5265, "umble": 17516, "↑": 1763, "▁Att": 7425, "石油": 19006, "月初": 17113, "▁под": 16321, "离职": 35531, "OWS": 44187, "cia": 46672, "icycle": 51622, "apper": 50417, "China": 37811, "nThen": 6384, "更": 6778, "邱": 11993, "荧": 62984, "滚动": 44115, "▁suck": 11151, "循环": 10883, "▁ionization": 30747, "正的": 58256, "▁sector": 7416, "orie": 26346, "▁decl": 4479, "项目的": 16295, "之王": 50059, "irling": 36416, "▁Replace": 51131, "高价": 53377, "▁Comics": 36201, "肖": 10028, "▁spirit": 5946, "▁agrees": 20449, "assoc": 27817, "不甘": 48878, "____________": 52189, "男孩子": 53384, "double": 12110, "怕": 5791, "▁points": 2607, "racell": 49532, "▁Within": 20017, "gu": 17855, "▁Failure": 47270, "▁tendency": 20575, "▁workplace": 20499, "▁Bald": 34281, "▁Got": 20610, "躯": 63106, "遂": 11918, "▁feeding": 17126, "rp": 35479, "▁bones": 19794, "社保": 21732, "á": 158, "内置": 49146, "▁contacting": 30745, "_\\": 15702, "▁driven": 10066, "巡": 5471, "lers": 11399, "▁triplet": 38474, "nTrans": 19403, "信息的": 26813, "▁parade": 27595, "fare": 20537, "▁Mun": 22922, "▁git": 25580, "这才是": 34938, "scene": 14358, "缠": 62257, "▁ор": 28076, "工作岗位": 54577, "▁proximity": 24191, "addy": 16472, "Execute": 42594, "▁Abb": 21310, "▁submissions": 26315, "lag": 28879, "twhile": 46804, "他家": 58405, "probe": 48445, "▁yen": 55305, "适度": 43821, "久了": 31135, "▁Ian": 25296, "nselect": 30385, "拜": 6172, "▁endpoint": 29870, "▁straight": 4607, "▁utilities": 28317, "agging": 34331, "人有": 40428, "ите": 31706, "医药": 14149, "aires": 39310, "▁bits": 11404, "▁steam": 16463, "其中包括": 33377, "ources": 2613, "志愿者": 9707, "股指": 42872, "▁Architect": 35264, "目前为止": 40644, "主管": 14187, "短短": 24268, "ining": 3784, "媽媽": 19357, "▁molecular": 14124, "▁exploded": 37746, "YA": 56518, "▁elongated": 55625, "技术的": 16265, "▁Hat": 24556, "▁Ли": 36647, "campaign": 50230, "▁sophomore": 31314, "▁issu": 49434, "畅销": 54224, "rers": 42190, "nThink": 35011, "▁mush": 22442, "打法": 54699, "iper": 29114, "▁swarm": 54925, "▁worm": 35528, "▁to": 592, "Mon": 19597, "▁riv": 11640, "▁millions": 9195, "Car": 18340, "▁isomorphic": 31061, "福州": 31773, "▁weave": 54292, "培训": 5695, "▁Sha": 21101, "▁skeptic": 42749, "ouis": 38936, "昆虫": 53475, "脓": 63531, "asset": 31040, "ntemperature": 33602, "合肥": 22834, "etra": 47908, "受理费": 22903, "▁embedded": 15040, "严禁": 33383, "纹": 9819, "▁mechanisms": 14756, "也正是": 52815, "學生": 15596, "好像": 8916, "▁Bayes": 57106, "UB": 20200, "▁Initial": 24652, "▁prov": 1218, "矛盾": 10194, "<|unused011|>": 156, "nform": 28230, "▁purported": 55658, "か": 2349, "▁transfer": 5135, "flo": 18327, "ringe": 21627, "▁invoked": 42251, "▁sust": 7201, "成立于": 35739, "зика": 36136, "结束了": 26695, "不是": 1787, "当然是": 41932, "难免": 26793, "чни": 23456, "til": 43486, "▁viability": 49945, "队员们": 41112, "▁Free": 6817, "此后": 24385, "▁graduates": 26581, "但这": 24000, "▁rebuild": 27078, "建設": 17281, "uties": 15776, "▁resistivity": 52353, "在与": 29838, "▁formal": 9111, "rapper": 16071, "▁Bark": 56649, "▁develops": 25802, "aml": 23570, "二的": 36386, "智力": 30601, "▁activism": 44802, "▁Even": 4933, "▁lefto": 32009, "留住": 54541, "詹姆斯": 26186, "▁winners": 17201, "%）": 25177, "▁items": 4363, "<0x86>": 439, "▁Cris": 31766, "表格": 36964, "unsafe": 55920, "的动力": 42165, "天鹅": 50117, "Miss": 30874, "聯": 10002, "东路": 53753, "Л": 543, "是可以": 20540, "▁pose": 14522, "Yeah": 26677, "关系到": 54513, "▁writings": 32122, "their": 34523, "介绍": 4603, "^*_{": 47103, "nVis": 24469, "没有任何": 17910, "通过了": 37135, "▁Yah": 57950, "Mzg": 13191, "apunov": 49623, "无私奉献": 58853, "风俗": 58109, "商务部": 49442, "oth": 1179, "▁Cherry": 41768, "▁referee": 34196, "二维码": 25188, "idget": 18548, "分层": 54999, "峻": 5388, "▁consideration": 11370, "的标准": 24776, "▁duck": 29089, "▁vortices": 50185, "陷": 12649, "▁none": 6859, "▁roles": 12026, "的身体": 35204, "寺": 5255, "▁Allan": 51987, "对这些": 50713, "▁facilities": 8945, "自救": 40998, "松弛": 57792, "▁Coal": 25488, "▁civic": 37257, "日后": 32484, "Aud": 39813, "▁Brands": 56802, "沪": 62034, "Views": 57397, "的味道": 28534, "▁flux": 7862, "之大": 40519, "Mot": 56910, "дове": 39791, "isa": 12230, "▁corporations": 18437, "ctors": 5905, "nergy": 8797, "▁calcium": 30386, "anda": 9150, "溜": 7781, "thora": 43702, "▁Admin": 42899, "ILS": 52405, "训": 11380, "危险": 9823, "日下午": 12649, "endar": 10264, "blocks": 33438, "ществу": 57201, "緣": 9714, "Е": 537, "考前": 54484, "埠": 4714, "nRyan": 52363, "astic": 3253, "▁Server": 12849, "▁persuade": 42598, "▁protagon": 30083, "有异议": 51262, "▁afterwards": 20419, "Dec": 13820, "买家": 42029, "▁goes": 3642, "TeV": 41707, "任性": 50507, "当事人的": 43078, "hesis": 26604, "▁High": 4842, "qquad": 8481, "beb": 17290, "Cause": 54234, "▁Tem": 9588, "▁former": 3777, "收入": 18321, "rr": 7652, "创新发展": 46934, "男女": 18956, "nOr": 12331, "coded": 51956, "社会组织": 44119, "▁BY": 15790, "巢": 5472, "▁POV": 56502, "式的": 14580, "▁dire": 3622, "Art": 14496, "▁eigenvalue": 23990, "忠诚": 27428, "▁Crystal": 29834, "▁Getty": 31383, "展望": 31557, "psy": 21814, "▁espresso": 57604, "▁pins": 29792, "大多数": 9045, "nAnyone": 29959, "elligent": 44258, "ffiti": 46970, "▁тери": 53539, "物业": 11239, "▁Whilst": 51063, "▁customary": 56634, "▁educated": 21117, "▁waves": 10991, "▁Gov": 20235, "约束": 22938, "<0x57>": 392, "控制器": 28615, "grand": 33248, "精密": 39992, "印尼": 17548, "腰部": 53711, "不稳定": 44433, "iners": 25561, "▁Kn": 14407, "▁中国": 27985, "▁Any": 5097, "这里有": 56732, "movie": 42221, "ob": 1099, "▁uniformly": 22029, "prehens": 31051, "pod": 34646, "<|Assistant|>": 4, "iversary": 12619, "sq": 2742, "targets": 57996, "pred": 10421, "▁outcome": 10925, "iber": 4660, "prin": 55965, "bs": 1518, "睦": 8921, "language": 7593, "▁pancakes": 55692, "▁lighter": 19083, "▁rendered": 23887, "一款": 22893, "▁Cyrus": 57239, "▁nursing": 18511, "▁handing": 39077, "▁antioxid": 38642, "休": 3322, "純": 9601, "Content": 10069, "理工大学": 42071, "ractable": 50840, "IDIA": 33154, "File": 5148, "oard": 23011, "Exp": 19517, "▁Bond": 20580, "Release": 32081, "nLine": 52726, "心中": 11161, "▁borders": 21412, "我县": 29056, "▁sedu": 42591, "gx": 29267, "低迷": 37462, "被害": 54486, "<|Human|>": 3, "部件": 15689, "newpage": 43115, "</p>": 55, "抱": 6137, "rape": 16805, "若": 10356, "▁inacc": 26001, "eros": 20213, "▁($": 3822, "键": 12512, "ieg": 46885, "Feb": 49731, "▁distributors": 49806, "▁authority": 9613, "在进行": 47652, "energies": 56231, "还需要": 19484, "lessly": 12835, "时段": 32421, "▁lawmakers": 23176, "▁luxurious": 32112, "npm": 29688, "▁jeans": 23084, "将进一步": 45561, "▁corrected": 21729, "▁DEC": 35180, "oss": 1900, "▁Route": 23381, "给别人": 48867, "npred": 36214, "ologists": 16403, "▁bilateral": 46221, "东西": 4298, "мор": 50682, "裴": 11055, "baij": 54364, "准时": 47626, "Plane": 55970, "▁Condition": 31027, "<|unused117|>": 262, "▁stories": 4894, "第一批": 36894, "()}": 51904, "▁locking": 30497, "▁Hands": 42912, "▁Suppose": 15963, "nar": 23426, "fin": 12966, "▁portfolio": 14825, "消费品": 53059, "▁Kaz": 31285, "▁session": 6684, "时会": 57853, "로": 13739, "▁SED": 45383, "▁confusing": 20177, "inery": 21875, "▁recognizes": 32216, "▁Updated": 41927, "实际上": 10416, "▁buyers": 16008, "▁plant": 5663, "▁convolutional": 24891, "▁rapp": 57238, "需求的": 35148, "一支": 24887, "欢迎": 9034, "nExper": 28018, "▁premier": 25036, "$:": 25156, "楼主": 57379, "撇": 6425, "aths": 34985, "▁propri": 20793, "▁diplomacy": 55486, "▁manuscripts": 57212, "naissance": 51679, "他与": 50297, "只能说": 53767, "市民": 16332, "BOOL": 57946, "Ey": 33668, "▁pollution": 19853, "招聘": 15220, "nbeing": 41130, "品德": 45123, "▁hyp": 6569, "擦": 6483, "<0x67>": 408, "▁laws": 6643, "▁blog": 2675, "<|unused102|>": 247, "▁thinking": 3956, "排行榜": 38586, "<0xA7>": 472, "Sl": 15129, "▁eighteen": 48065, "doch": 59393, "博": 3957, "湖人": 29333, "▁consum": 4859, "效": 6539, "▁distract": 41650, "繁琐": 57978, "困惑": 31698, "ndef": 6895, "termin": 23365, "的政治": 32832, "date": 2490, "▁exploitation": 33421, "楼的": 38599, "▁seq": 42800, "沧桑": 48073, "▁Anth": 15804, "▁carrot": 56510, "ruct": 1493, "浏": 62503, "▁Origin": 49863, "▁distortion": 25789, "▁embarrass": 15673, "▁Mario": 23558, "▁ii": 25773, "nMain": 27950, "▁sure": 1813, "对口": 50061, "▁giveaways": 58128, "▁Bel": 6503, "zig": 53157, "Enc": 16941, "責任": 19361, "簧": 9479, "Proto": 53919, "▁Scholarship": 49423, "<0xB7>": 488, "▁paths": 12769, "uture": 2420, "的角度": 21212, "lean": 14283, "atches": 47873, "▁distinctly": 53750, "▁deton": 55756, "教育": 15576, "自考": 45794, "minor": 55971, "IPP": 53793, "▁router": 20444, "▁Late": 30443, "supset": 52764, "▁discs": 32886, "▁Pastor": 44256, "{}\\\\": 40740, "巴马": 45188, "eeee": 46833, "~{\\\\": 24417, "_{|": 56247, "hpp": 26779, "▁intuitive": 24325, "要进一步": 51364, "俺": 3460, "芬芳": 58437, "▁saturation": 30021, "▁sung": 28319, "▁champ": 31445, "日生": 45628, "▁hey": 21551, "▁explanations": 24960, "▁Balt": 17586, "ford": 5714, "▁brilliantly": 55846, "▁COL": 31254, "批量": 49811, "最佳": 15862, "网页": 37099, "▁noises": 35312, "▁cur": 1411, "Lo": 17236, "ili": 3430, "▁Conn": 39312, "常务": 22449, "unts": 33198, "▁boo": 32118, "onia": 21396, "India": 52613, "lies": 26761, "▁preparation": 13535, "oj": 25026, "▁Joint": 28591, "▁phenomena": 20583, "得不到": 30109, "▁professor": 12018, "▁Util": 47562, "mp": 19688, "货币": 10282, "▁overse": 15416, "队": 12602, "owler": 54683, "▁inc": 1944, "above": 27870, "几乎是": 44782, "听话": 56061, "▁stiff": 18315, "更喜欢": 53713, "Ser": 7493, "▁emissions": 16217, "卑": 3949, "期限内": 46966, "好玩": 51253, "▁resilient": 42883, "量的": 6203, "▁}\\": 4809, "rag": 3528, "ues": 1281, "▁joining": 13062, "分配": 19748, "沙漠": 30895, "茅": 10379, "▁Ricky": 54924, "绿水": 50370, "同": 4081, "大多": 6627, "创建工作": 48175, "主任": 17296, "▁purchased": 9853, "小说": 13210, "▁week": 1681, "▁exploring": 15174, "▁virt": 5502, "▁works": 2872, "▁swiftly": 51529, "中小学生": 52102, "Multi": 25079, "▁fist": 34193, "▁tear": 18093, "▁booting": 49437, "nFriend": 49582, "可能是": 10651, "▁Liberal": 29443, "天生": 30851, "nconditions": 51683, "▁grape": 35700, "▁arter": 40077, "誰": 11257, "▁Claims": 58899, "▁technical": 7329, "受到影响": 51240, "sing": 3954, "拨打": 43417, "nStop": 47951, "total": 13023, "▁stat": 1712, "开关": 17127, "小伙伴们": 59153, "职员": 56264, "九年": 18205, "nuse": 9160, "▁memories": 12041, "Fab": 58290, "aps": 2218, "SI": 6623, "工作上": 56558, "▁quint": 41022, "ofs": 20057, "reg": 2560, "轴向": 59416, "<0x60>": 401, "▁Cap": 6393, "▁eliminates": 40399, "責": 11472, "▁sausage": 45058, "流水": 23481, "して": 47897, "▁confisc": 55200, "▁busy": 8041, "▁Sunset": 55143, "▁argues": 23808, "嗜": 4405, "点位": 49393, "▁como": 47178, "Locale": 58556, "▁advise": 20559, "的大量": 58443, "收益": 9924, "▁hundreds": 8458, "▁Applications": 30839, "▁gamble": 52328, "▁Lang": 29527, "NT": 3682, "›": 1689, "开": 5629, "▁Trying": 43049, "▁snapshots": 46222, "了三": 46307, "环境的": 31951, "▁alot": 24601, "ential": 1928, "▁breadth": 47386, "▁probes": 38872, "历史上": 20328, "dn": 26343, "▁multivariate": 52484, "▁reservations": 32328, "邮": 11990, "不僅": 39473, "tcase": 17402, "▁Try": 11631, "ngreat": 44014, "壞": 4828, "▁highly": 4686, "没人": 22098, "摇头": 34123, "alled": 17217, "階": 12661, "inda": 27164, "nSun": 31598, "▁Beatles": 39882, "founder": 28953, "关口": 49012, "▁refriger": 21873, "nRom": 58615, "_\\\\_\\\\": 45237, "▁climate": 8126, "▁Marine": 21143, "这在": 40248, "Commands": 51221, "uniform": 29257, "▁Sanchez": 41793, "撼": 6456, "▁return": 2110, "▁Loc": 18772, "▁Eventually": 26264, "akery": 37573, "的了": 40660, "封闭": 20584, "自负": 57120, "▁loaf": 51880, "▁convincing": 24696, "▁enhancement": 20981, "▁Hob": 28318, "▁Score": 29932, "理想的": 40361, "attention": 32728, "新年": 18989, "材料": 16685, "▁formula": 7900, "身旁": 54459, "▁strains": 31312, "▁discrimination": 17874, "reducible": 24592, "▁Pur": 18046, "▁concerts": 32194, "От": 59006, "riger": 19447, "Fre": 59320, "▁Craft": 25882, "av": 15663, "▁Bush": 9751, "▁Rick": 16224, "weights": 31400, "形式": 16121, "仿真": 53020, "静静": 30393, "預計": 19489, "urther": 2251, "▁SP": 11686, "undai": 42973, "▁ratings": 16280, "实际情况": 24181, "▁Rup": 45534, "同学们": 8764, "▁Client": 22138, "▁Ру": 29196, "▁rabbits": 58034, "endants": 29142, "阻碍": 29850, "香气": 38438, "竞价": 59318, "一批": 16454, "▁Indonesia": 25791, "Ns": 33347, "MDA": 39631, "sh": 15674, "keras": 58755, "演练": 19692, "ラ": 2495, "对此": 11256, "'''\\": 36649, "▁unemployed": 33555, "▁touched": 19333, "nSpecial": 30196, "文化的": 15952, "調": 11264, "▁prose": 43612, "这道": 42232, "气温": 18152, "▁pip": 23094, "isse": 32381, "▁integral": 10656, "的产品": 17623, "要加强": 34174, "贵阳": 48265, "▁donations": 19622, "▁Lew": 14160, "▁demol": 29171, "omal": 14860, "▁PC": 5589, "ć": 196, "高品质": 48002, "▁FX": 35194, "Storage": 20002, "ital": 1884, "主要用于": 49379, "加入": 15623, "nassoc": 44496, "▁bait": 38963, "▁nour": 37500, "分区": 36869, "越来越高": 58185, "▁awaiting": 34885, "GPS": 44879, "规模化": 52789, "▁footage": 18770, "missing": 39637, "ounds": 5123, "佐证": 49727, "DAY": 40558, "热水器": 57726, "▁година": 13155, "nother": 22428, "与此同时": 20122, "给了我": 45881, "hskip": 33054, "▁Nutrition": 39149, "▁breaks": 12398, "ur": 15407, "▁startup": 20379, "ajo": 49523, "▁possessions": 41772, "▁priorities": 22159, "▁RAID": 56132, "獎": 8373, "galactic": 51938, "▁Sydney": 17793, "大致": 17461, "Digital": 45715, "▁Lac": 40874, "▁electronic": 8659, "维生素": 15152, "▁Tunis": 51126, "▁emerging": 14864, "拎": 6158, "▁ages": 11179, "▁prim": 3714, "uparrow": 16433, "▁Notes": 24459, "人格": 27973, "新冠疫情": 40472, "▁rejecting": 51749, "▁mothers": 20214, "nRound": 48491, "▁език": 53538, "▁robots": 21224, "信用": 11175, "▁bees": 27486, "oppy": 29866, "▁honors": 31474, "认真": 6482, "▁trials": 16029, "▁din": 32577, "▁soil": 13600, "时尚": 13971, "真心": 18766, "nLet": 3754, "▁Uni": 58617, "▁poetry": 19243, "Insert": 37425, "▁coding": 17479, "▁grapes": 43430, "heses": 54338, "opath": 29633, "的小朋友": 58551, "亲属": 34796, "Rock": 38428, "▁bilinear": 54031, "▁existence": 7822, "bdc": 57389, "印刷": 18879, "GB": 6021, "我还是": 26105, "nWrite": 42103, "有的": 4299, "getName": 29472, "▁obtains": 30547, "▁forum": 5930, "▁сте": 47499, "偶尔": 18725, "▁flourish": 48945, "": 63145, "ロ": 2499, "水": 7427, "нг": 18956, "ncd": 54633, "▁releg": 44238, "醫": 12125, "▁http": 3133, "erner": 38556, "▁synt": 10913, "管理制度": 37475, "店的": 42536, "фа": 48925, "exit": 24883, "▁considerably": 19488, "▁films": 8461, "ç": 164, "▁Program": 6953, "增长的": 57921, "前任": 40374, "界定": 53224, "▁professors": 31553, "<reponame>": 31, "所需要的": 56923, "的气氛": 59188, "易于": 40150, "aspect": 42131, "▁cue": 45345, "icom": 57053, "<|unused082|>": 227, "▁attendees": 27996, "boy": 13723, "continuous": 38087, "▁ampl": 16381, "一般的": 26812, "漫画": 26642, "▁dimensionality": 45655, "他认为": 32475, "ador": 12400, "▁Braves": 55872, "▁NN": 25445, "的活动": 25560, "角逐": 41866, "▁MD": 17230, "▁VM": 22313, "▁Renaissance": 43351, "▁inertial": 50596, "分辨": 27781, "adi": 18485, "▁DON": 38726, "▁informative": 21803, "nLocation": 25846, "▁Harbour": 58625, "氧化": 17118, "发生了": 15620, "玉米": 15932, "icip": 6283, "ftp": 47804, "▁eclectic": 52230, "▁върху": 52977, "核心价值观": 47766, "用人": 22193, "▁infil": 41743, "lived": 37836, "支付的": 41226, "'/": 37372, "▁flowing": 23383, "千年": 22605, "▁Ng": 54634, "题材": 19844, "若有": 39153, "残留": 40600, "毕业生": 15320, "英语": 8230, "ceptive": 34837, "▁endorsed": 30553, "▁embracing": 41996, "nRobert": 34980, "▁Northeast": 39065, "▁Naturally": 44539, "职": 9992, "早盘": 50806, "土地": 17140, "▁performs": 16331, "▁profiling": 52142, "▁same": 1368, "這次": 46762, "▁Jul": 9754, "Circle": 53237, "和对": 31724, "的时间里": 58448, "▁perturbative": 32930, "文章": 17426, "亲戚": 24832, "effects": 49693, "flow": 5767, "▁bol": 17276, "▁Belt": 36712, "▁Scandinav": 52856, "▁volume": 6035, "bucket": 23100, "▁$<$": 47213, "▁Lines": 42554, "变得": 7084, "交响": 53984, "<0x53>": 388, "▁atomic": 16089, "▁Morgan": 19155, "▁pp": 24842, "▁receptor": 38318, "所以我们": 31917, "ilated": 43825, "tc": 12591, "理赔": 40804, "主干": 48528, "▁deserved": 30548, "▁Ts": 31044, "保证金": 43592, "风吹": 32777, "rophy": 30090, "▁ly": 13995, "县人民法院": 34676, "纳德": 52991, "UTC": 44098, "三等奖": 41249, "昼": 6681, "丽的": 26995, "ген": 44369, "▁timescale": 40384, "▁penetrate": 48052, "▁immersed": 46490, "火": 8022, "▁collected": 9968, "▁recept": 16580, "偉": 3504, "▁Olympic": 17929, "直至": 17542, "排在": 40443, "▁grease": 44733, "流": 7593, "我说": 10395, "md": 6040, "我开始": 45025, "感謝": 59353, "我们认为": 41644, "▁embrace": 18796, "▁invariably": 55365, "▁client": 5485, "▁Interview": 40991, "怀着": 45199, "лите": 47673, "▁tre": 2892, "▁recovery": 9447, "▁generated": 5668, "(`": 25520, "▁recycled": 34091, "发布公告": 57873, "▁lawyer": 12226, "漾": 7874, "▁proper": 1874, "▁exploding": 58969, "年末": 39861, "bur": 18783, "▁Wow": 30089, "▁system": 1328, "▁timely": 21409, "▁versa": 30219, "地区的": 18056, "▁verification": 22259, "akov": 38320, "党员": 6155, "▁Listing": 54501, "举报": 18590, "▁sacrificed": 53427, "▁cust": 17679, "尽可能": 21256, "热水": 24019, "▁{@": 24098, "Canvas": 56100, "▁stalls": 53805, "操场": 53251, "就容易": 57627, "。": 2306, "的人群": 30291, "旺": 6636, "▁nurturing": 58470, "▁freshman": 24295, "Statement": 29759, "硬币": 48928, "nLevel": 55504, "sto": 16174, ")+(": 52357, "graphs": 48684, "▁execute": 15822, "二次": 19708, "▁psychology": 22744, "起来的": 24716, "curr": 44372, "了一点": 46070, "▁quad": 10446, "uma": 11959, "attery": 27139, "▁redistribute": 56386, "▁understanding": 5111, "▁Commander": 35990, "▁steps": 5126, "Submit": 41633, "▁births": 50996, "在山": 53021, "▁sanctuary": 42713, "cap": 5273, "________": 3733, "▁frank": 20570, "▁tug": 55193, "▁televised": 59231, "者": 9959, "\\\"\\": 1350, "▁sh": 741, "nOriginally": 17049, "ctx": 14431, "▁Islands": 23574, "▁classical": 9007, "Man": 18439, "▁criterion": 22719, "▁Pine": 38322, "▁emphasized": 32753, "阶段性": 43865, "▁song": 3925, "▁standout": 50157, "▁laugh": 8499, "▁Burl": 59330, "▁Advis": 25245, "▁Den": 7643, "▁amazing": 4630, "maker": 20646, "der": 1389, "私立": 50191, "▁Dayton": 37235, "▁survivors": 27474, "▁braking": 49167, "丰富的": 13847, "shtml": 17475, "大方": 33451, "▁instructional": 47829, "Listen": 48120, "▁Dance": 25362, "▁heavier": 26835, "entry": 13154, "otal": 6300, "naround": 46599, "▁recall": 8249, "▁Laden": 42293, "▁involving": 10694, "治国": 58411, "餘": 12977, "垄": 4673, "我做": 58409, "律师事务所": 19557, "喜": 4357, "PP": 7317, "▁temper": 27448, "▁систе": 44405, "▁Sheet": 46577, "观看": 17756, "的学习": 15531, "Win": 27516, "你现在": 46930, "Compile": 57718, "▁appar": 17607, "压迫": 38477, "▁enjoyable": 18931, "▁);": 58946, "med": 17352, "传染": 19693, "安装在": 35764, "的我": 24344, "坚定的": 43309, "▁punching": 56107, "陰": 12644, "入职": 40336, "examples": 29774, "▁far": 2126, "▁Around": 29410, "ault": 2245, "▁span": 12417, "为啥": 35863, "▁zu": 54250, "小平": 36638, "▁Healing": 54029, "orig": 12157, "▁Va": 34014, "▁handheld": 47715, "支气管": 52222, "IC": 19656, "}'": 10477, "▁unrest": 46918, "▁also": 962, "adeon": 55241, "▁densities": 17027, "阳性": 34512, "▁forth": 9406, "站点": 33599, "rol": 1824, "nPerson": 23304, "▁erad": 41983, "▁bids": 44799, "▁daily": 5200, "▁kids": 3612, "Generic": 24296, "站起来": 42985, "和非": 53500, "▁endurance": 38898, "抗生素": 47600, "▁seize": 46361, "▁container": 12093, "結束": 16710, "耀": 9955, "▁likely": 3008, "三种": 21651, "▁humble": 25641, "ter": 15571, "▁spun": 45802, "▁hobby": 23926, "妙": 4945, "提倡": 34243, "结构和": 57800, "▁founders": 38103, "牢牢": 39465, "他想": 40096, "饮用水": 51096, "Us": 10535, "▁talks": 10132, "见证": 20153, "othy": 22868, "陪你": 53738, "Pub": 54180, "▁спе": 41156, "謂": 11303, "▁maintain": 4356, "▁Toyota": 27539, "民进": 52462, "ката": 17275, "▁steward": 52390, "https": 1998, "步入": 32870, "▁Missing": 51477, "ь": 592, "network": 15265, "▁Fal": 19802, "updated": 27803, "\\\">\\": 2782, "▁half": 2832, "▁Moses": 30455, "▁Guys": 43688, "冬至": 52776, "振奋": 55517, "凶": 3745, "fires": 51549, "▁assuming": 10859, "arnish": 42151, "奪": 4918, "▁aspect": 5364, "▁plausible": 30086, "替": 6788, "一般在": 45682, "阳区": 54360, "活得": 46884, "我有": 22880, "民事诉讼": 15304, "▁Mau": 51239, "▁manifest": 15835, "总分": 57974, "ent": 15440, "nesty": 42017, "相助": 56395, "▁SEM": 56001, "▁caregivers": 55511, "▁ver": 3373, "从一个": 41556, "cline": 14671, "▁dozen": 15134, "分手": 17302, "豫": 11442, "买的": 27983, "很久": 19934, "HER": 48266, "砌": 9001, "isticated": 16517, "|_": 24326, "placed": 29227, "physical": 26976, "▁both": 1480, "▁assistant": 14135, "在中国": 12185, "▁Perry": 23669, "▁Schools": 23922, "▁reper": 33893, "punct": 47128, "▁minerals": 30345, "所述的": 7797, "atile": 12644, "keep": 12899, "vectors": 28091, "▁warp": 50131, "`;\\": 50626, "加了": 56168, "汽车": 4162, "▁ineffective": 40455, "▁denomin": 33135, "▁layout": 13638, "▁Micro": 18714, "鉴": 60901, "▁Erik": 43532, ">(": 11118, "▁sticking": 23614, "人次": 29899, "igslist": 46319, "芝加哥": 55742, "发表了": 47906, "▁Similarly": 18233, "五行": 39647, "тъ": 33649, "otechnology": 40454, "▁Vita": 53138, "兵": 3660, "▁turtles": 56572, "meas": 48513, ")^{\\\\": 14791, "墙体": 57752, "每年的": 37914, "IB": 12341, "孵化": 30357, "▁или": 21864, "prototype": 25160, "'];\\": 24717, "orange": 37140, "▁Lost": 25974, "▁Dana": 43065, "▁captive": 52140, "屏": 5313, "sqrt": 3169, "▁genuine": 15469, "Async": 18922, "<0xD4>": 517, "▁matters": 9225, "Because": 25498, "MzUy": 32584, "ör": 35734, "alker": 37868, "Ge": 19212, "Mo": 18432, "seven": 47911, "aku": 25329, "改装": 55061, "件事": 16933, "▁FUN": 43235, "方式": 15945, "铝": 62192, "olitan": 19448, "▁judging": 30480, "▁subjected": 28676, "职场": 22236, "▁areas": 3838, "python": 11157, "seys": 32355, "▁opioid": 57644, "<|unused024|>": 169, "filled": 23271, "▁timed": 40461, "▁Packages": 52084, "▁orientation": 13624, "芙蓉": 48613, "▁Shim": 54472, "▁QB": 25456, "▁unchanged": 26689, "▁RAW": 55165, "触摸": 33069, "▁Wo": 30494, "▁remembers": 35265, "日本": 15246, "nDevelop": 42518, "<0xF3>": 548, "起初": 39442, "▁compens": 9998, "▁neutron": 17454, "norder": 36679, "胆固醇": 43771, "综上": 21527, "▁Customs": 51604, "心肌": 42659, "的身影": 34692, "▁correlate": 56753, "来做": 38287, "▁rather": 2840, "code": 4139, "ationally": 20681, "是要": 14467, "难得": 26231, "城市的": 19416, "+-+-+-+-": 54654, "身影": 36341, "作为一名": 30256, "大厦": 30139, "潜力": 21167, "▁seminal": 58901, "▁caffe": 33595, "nSummary": 34231, "捞出": 55230, "usepackage": 31203, "▁stats": 16866, "song": 26875, "raise": 10366, "煤炭": 22970, "并通过": 30245, "不合": 37183, "hammer": 49301, "▁Quebec": 32075, "大自然": 36915, "更强": 41640, "mitting": 13945, "Ph": 18381, "会在": 10589, "▁astron": 17802, "承办": 26649, "generate": 31649, "asts": 9632, "onential": 15391, "▁та": 17746, "铃": 12497, "▁Social": 8684, "SE": 4190, "panies": 22401, "最喜欢": 44445, "作的": 37174, "▁Newsletter": 40992, "▁forest": 12431, "acent": 13301, "大概": 16266, "iral": 9730, "nUpdate": 30997, "▁през": 10405, "呈现出": 31666, "compact": 34568, "背影": 48929, "▁offending": 56575, "▁Orthodox": 32370, "fw": 32343, "▁Note": 6650, "хи": 23964, "verting": 40937, "▁adequ": 29704, "璋": 8543, "贪": 11547, "▁Chel": 20698, "▁accepted": 9209, "▁obsc": 19214, "▁whisk": 31884, "happy": 48041, "uggestions": 46060, "obert": 24238, "CMS": 49344, "▁insight": 11281, "half": 18446, "豆": 11424, "而现在": 50456, "每每": 50764, "▁sandwiches": 39170, "▁shovel": 48295, "opa": 47140, "▁precious": 16759, "供应商": 21711, "issors": 46449, "PGA": 44505, "▁sterile": 58565, "▁deploy": 11463, "nesota": 13650, "▁CONT": 36239, "▁viol": 3625, "▁xxx": 44850, "膜": 10168, "不时": 25770, "▁UTC": 44402, "设法": 47296, "千": 3936, "讓人": 57705, "nexample": 43746, "bered": 12545, "asm": 11465, "时报": 33626, "United": 42734, "nobserved": 50055, "▁whining": 55019, "希望通过": 44787, "▁trajectories": 19846, "nRepublic": 52331, "机床": 46782, "▁roots": 13440, "自私": 39506, "▁customization": 44226, "▁picturesque": 53548, "旗下的": 44354, "igion": 28012, "}<\\\\": 55560, "的观点": 46170, "茄子": 57253, "▁youths": 56716, "▁chap": 17098, "星": 6661, "暴露": 20585, "origin": 31041, "读了": 37806, "缘": 9847, "nBlue": 48019, "▁depos": 17145, "keeping": 24391, "}$}": 25104, "▁analyze": 13477, "不到": 4872, "▁compositions": 35232, "已成为": 25729, "set": 16823, "▁River": 7990, "好自己的": 48310, "▁ow": 9274, "▁avoid": 3970, "研发的": 55741, "▁Administ": 10879, "下午": 16417, "是个": 8023, "rica": 34268, "_*$": 42826, "▁kidd": 48542, "擅": 6462, "freq": 41135, "Logic": 50048, "▁quicker": 25824, "▁helicity": 52960, "ilo": 35978, "▁glowing": 41008, "▁speak": 3760, "把手": 32599, "▁clothing": 12648, "这下": 51258, "高了": 48184, "Encoding": 46054, "agar": 57295, "▁NULL": 8987, "nReferences": 29905, "▁wrt": 48618, "▁hi": 22519, "▁shades": 27057, "回家的": 42908, "athing": 39451, "nstd": 58720, "▁Harrison": 28855, "connected": 14063, "▁Fully": 56566, "<|unused056|>": 201, "▁Global": 11492, "▁introduce": 8367, ")}": 2573, "boot": 10901, "▁ceremony": 15465, "窒息": 56242, "nCategory": 58696, "基本都是": 55896, "亿元人民币": 55535, "Given": 35592, "▁boyfriend": 14710, "▁agriculture": 22218, "Func": 28466, "我了": 44861, "dense": 51714, "▁Window": 32140, "▁As": 1509, "关键时刻": 50877, "▁historians": 41412, "教学": 4334, "▁geometrical": 44260, "椎": 7076, "颐": 63771, "垃圾": 17840, "▁walk": 2929, "henomen": 58685, "▁administered": 31206, "atural": 11163, "feel": 19191, "挥": 60621, "$$\\": 4343, "▁collect": 3857, "法律效力": 53457, "▁kilomet": 24117, "дно": 20305, "好朋友": 39753, "可不是": 46296, "宜昌": 50672, "cler": 35823, "片段": 35943, "空間": 16035, "高峰": 19098, "▁visa": 23997, "▁Thats": 56599, "normal": 7509, "idis": 46008, "▁sup": 1102, "ttp": 2779, "▁shr": 13578, "Namespace": 48943, "▁dessert": 28120, "Ps": 5158, "}\\\\;": 29156, "▁silver": 11946, "▁Schema": 58367, "▁Generate": 53514, "▁DS": 24682, "irectional": 42334, "cultural": 48279, "▁shru": 54473, "Review": 28980, "坚强的": 57766, "晚": 6698, "циона": 31373, "风暴": 39024, "▁traditions": 21805, "naut": 48080, "▁measurable": 32175, "▁regulating": 47510, "▁User": 11231, "displaystyle": 13581, "房地产开发": 42867, "最高的": 25341, "▁seated": 35475, "roid": 4051, "纸上": 44149, "voice": 48822, "▁mythology": 41261, "▁manually": 15647, "▁June": 4521, "nass": 19632, "▁Hayes": 49436, "▁OPT": 56590, "金的": 36570, "博弈": 17527, "其间": 46827, "square": 17720, "логи": 28747, "▁Hire": 52365, "ounded": 11447, "Where": 18302, "top": 3384, "要及时": 41557, "passed": 57926, "▁ACC": 23640, "рита": 45533, "het": 8409, "▁ven": 10681, "方方面": 54635, "▁direct": 1843, "var": 2146, "地的": 10114, "oting": 10137, "虎": 10758, "证监会": 41227, "umni": 25090, "▁exposes": 55112, "▁slot": 12744, "桑": 6990, "▁killers": 46546, "▁segmentation": 18151, "ibilities": 9068, "地域": 28751, "▁Lite": 42938, "Hot": 33867, "▁Patterson": 49104, "▁construction": 5739, "▁dungeon": 47854, "遗留": 58515, "▁thrilled": 22846, "▁foe": 53828, "bol": 3846, "▁acquaint": 40298, "▁youngest": 26679, "nAlternatively": 52395, "上面": 15496, "▁dup": 14450, "▁RU": 53452, "庙": 5569, "ны": 27833, "妻": 4963, "▁bre": 1840, "▁jour": 3971, "nHis": 15204, "*-": 33151, "▁CLE": 47603, "言行": 48371, "▁anywhere": 8133, "揽": 62802, "发型": 35719, "建华": 48905, "ι": 486, "林的": 52028, "黑暗": 20361, "cab": 34717, "▁acted": 23708, "iblings": 26068, "译": 11392, "烦恼": 20528, "的其他": 27070, "幼儿园": 10413, "跑到": 29500, "bugs": 48354, "肺": 10048, "乌": 3187, "讲到": 50653, "▁Stevens": 28100, "▁Democrat": 20204, "▁earthquake": 29217, "▁Way": 9765, "▁rats": 35047, "stock": 16843, "locked": 35366, "落的": 31596, "▁womb": 55945, "▁tac": 46641, "▁porous": 58122, "▁shaping": 30585, "▁<=": 15502, "▁NPR": 40405, "markdown": 12906, "我们都": 26755, "▁Collabor": 35436, "▁Norway": 29458, "▁Medium": 38494, "▁bool": 12046, "education": 52370, "▁({": 36904, "▁concise": 42596, "▁reality": 5877, "ughter": 21321, "<tr>": 62, "例子": 16109, "▁bunch": 9101, "▁blanket": 26452, "Models": 25106, "患上": 51399, "▁recalling": 52627, "▁Pray": 31023, "▁Baron": 48515, "自首": 53023, "▁{<": 59245, "▁mentioned": 5314, "vice": 25915, "▁overlooking": 37443, "ought": 1668, "▁fashion": 7232, "▁fabrics": 33109, "▁graduate": 12282, "Path": 6532, "▁wonder": 3755, "分析和": 55912, "▁Pole": 53950, "平静": 22170, "堵": 4751, "▁suicide": 15878, "pare": 9675, "▁Culture": 24016, "encies": 4834, "顺利完成": 57874, "沁": 7477, "▁h": 602, "▁HREF": 28331, "泸": 63392, "▁watches": 24878, "ixon": 24763, "duty": 43899, "合物": 18239, "issan": 36626, "keywords": 38256, "▁specializing": 43832, "心跳": 51754, "警戒": 54016, "硒": 9029, "tained": 24910, "▁fluorescence": 49355, "tree": 13445, "▁mildly": 49383, "▁intensity": 10277, "之旅": 24520, "▁patents": 32125, "鄉": 12037, "ployee": 30091, "nTh": 2740, "▁cir": 13011, "▁inexperienced": 59488, "的核心": 21240, "▁SD": 10751, "▁|": 1808, "▁Receipt": 44017, "▁problematic": 26371, "改善": 17209, "▁downtime": 55758, "nWhere": 14589, "OTS": 50680, "SON": 10884, "▁blended": 35448, "nHopefully": 56199, "▁Random": 24311, "ä": 161, "▁proofs": 31792, "性": 5800, "日消息": 50216, "视": 11139, "▁bench": 8971, "▁ident": 2390, "估值": 21318, "CAR": 25514, "▁Phys": 14539, "▁synthesized": 49131, "▁pharmac": 28491, "ruit": 6143, "▁unavailable": 32593, "cial": 1279, "面料": 50624, "萧": 61909, "▁Dur": 21992, "nMar": 20530, "eries": 8675, "▁grants": 19125, "kswagen": 47109, "<0xF1>": 546, "▁Caroline": 47250, "母亲": 6753, "▁knob": 50723, "影院": 55333, "================": 5839, "非洲": 17039, "News": 13797, "Records": 58898, "def": 2070, "▁tsp": 39905, "▁UL": 48585, "onder": 12224, "knowledge": 53872, "路的": 25588, "▁negotiations": 19733, "asting": 20889, "▁Filip": 37764, "为此": 15375, "sea": 16079, "scapes": 56652, "nthem": 22399, "▁teammates": 25340, "下": 3132, "lambda": 2074, "▁Hitler": 26237, "uan": 12423, "结": 9829, "Total": 22015, "▁ninet": 35901, "adaptive": 55814, "▁surgery": 9492, "提前": 8556, "ългарски": 18368, "▁lawsuits": 36336, "▁refer": 4857, "▁brown": 10175, "▁voluntary": 29606, "累积": 38572, "Frank": 40721, "▁Association": 7476, "▁rolling": 14967, "都市": 17768, "▁feather": 28987, "▁celebrating": 21423, "▁thought": 2029, ":=\\\\": 25854, "动人": 55732, "成为一名": 47730, "▁inadequate": 33712, "▁deploying": 47187, "Gl": 31430, "▁remedy": 28382, "<0x9F>": 464, "如有": 26694, "芭": 10322, "任务": 5411, "▁Frank": 8640, "ablish": 46576, "ienne": 52157, "我看": 29765, "智能手机": 30890, "人来": 51251, "中国市场": 49966, "拿": 6191, "▁affiliates": 33324, "casters": 44895, "▁usb": 37590, "▁&&\\": 28361, "bars": 37528, "部长": 12805, "的中": 13182, "出炉": 40351, "door": 9270, "▁preaching": 44971, "▁unidentified": 58798, "▁Very": 12776, "珍": 8438, "贿": 63034, "▁Rh": 16052, "▁Beng": 27293, ":</": 38368, "nDis": 14059, "atted": 19292, "enne": 41935, "racking": 32622, "k": 80, "即便": 15424, "▁cope": 24671, "▁Fans": 39157, "仇恨": 55287, "学位": 16763, "▁DP": 36209, "bard": 29642, "设计和": 47081, "啥": 4317, "点火": 57182, "▁Haus": 52566, "映": 6662, "acre": 23941, "▁advantage": 5824, "▁Seattle": 13279, "ilon": 2481, "的支持": 23002, "NQ": 11659, "▁stem": 15838, "饰演": 31076, "ruent": 47240, "日": 6621, "调理": 33271, "▁animations": 40181, "▁distinguish": 17069, "▁Json": 41269, "▁anymore": 8820, "▁diverse": 11472, "▁slave": 21179, "ealous": 22435, "歡迎": 16628, "虛": 10766, "▁blogs": 13834, "▁Applied": 50272, "营业": 13197, "▁logarith": 22034, "▁``": 4662, "=\\\"@": 55299, "【": 2317, "的红": 35347, "nWatch": 31105, "民事": 9714, "▁fascination": 54997, "▁Raman": 58427, "zzi": 55293, "Alloc": 56374, "新闻网": 21598, "▁Wind": 21948, "watch": 12694, "\\\\/}": 50124, "▁Flip": 45733, "掌声": 31772, "▁sunlight": 29389, "是比较": 30719, "ross": 1652, "face": 15279, "▁Ubuntu": 8466, "▁platforms": 12269, "chlor": 59018, "▁majority": 6124, "▁Operations": 28442, "▁combinations": 17165, "archy": 28316, "▁May": 2636, "que": 19978, "▁Amber": 46660, "▁homotopy": 47090, "▁million": 2729, "Preferences": 54870, "▁Boo": 48540, "diss": 50413, "高层": 25350, "深受": 25477, "▁seizures": 53291, "多的": 6019, "▁Antonio": 21549, "到目前为止": 52853, "completed": 57931, "roke": 11494, "▁Greater": 29618, "画家": 30105, "▁Chal": 58994, "▁dispos": 17578, "▁NAT": 23463, "▁dependent": 11466, "▁Syria": 14278, "英勇": 57004, "CREATE": 57739, "mother": 18053, "了一家": 58747, "iggle": 36882, "▁cash": 6507, "威力": 48713, "jobs": 38775, "▁decided": 3902, "erial": 27810, "他指出": 46571, "音樂": 15358, "elled": 7465, "资本": 8213, "ecome": 31858, "▁summit": 24320, "的重大": 54799, "ads": 6328, "▁sexuality": 28583, "liber": 40064, "▁bounty": 52600, "arrow": 2541, "日起": 8451, "自身的": 18272, "nOrig": 14665, "tot": 20035, "▁sno": 58115, "▁cabinet": 20587, "▁correlated": 19530, "▁dynasty": 51197, "▁Would": 12511, "}''": 56298, "PIO": 40944, "应该": 3208, "project": 9186, "摆脱": 25286, "就餐": 52217, "aturing": 35569, "mark": 18968, "只知道": 55705, "十三五": 42627, "公元前": 17773, "有权": 27742, "<|unused093|>": 238, "▁balls": 13695, "購": 11521, "Menu": 15021, "▁destination": 11513, "▁exceptional": 16357, "▁plane": 6858, "▁APIs": 36767, "恐怕": 21562, "▁Parade": 52347, "rost": 54022, "▁encourage": 8116, "惰": 5891, "大涨": 37335, "▁rever": 58927, "的这个": 45973, "Names": 21754, "▁Hen": 10716, "我国的": 34160, "nSpring": 55016, "友": 4028, "▁architecture": 8978, "nIndeed": 25545, "▁resources": 5033, "▁gets": 3640, "CU": 29444, "▁decade": 9659, "idual": 44981, "▁evidenced": 46417, "upgrade": 51340, "reshold": 8362, "羊": 9898, "既有": 26087, "不放": 57488, "▁engine": 3829, "▁difficulty": 12782, "微博": 19861, "Adam": 46908, "▁Sav": 14941, "铲": 62924, "▁Conversely": 47509, "▁Particularly": 53879, "▁illicit": 58245, "▁honeymoon": 57747, "<br>": 47, "占据了": 55416, "yalty": 19168, "ometric": 8915, "学习": 2188, "芷": 10329, "▁hammer": 26299, "copy": 16238, "▁them": 972, "等到": 17921, "ating": 1162, "装备": 11859, "WA": 13810, "hua": 39335, "▁ка": 6584, "研究和": 43627, "▁adap": 27951, "羞": 9908, "推向": 44263, "琐": 62685, "▁amazed": 25274, "嫌弃": 42982, "矿": 61045, "衔": 62127, "▁sacks": 43249, "▁Ticket": 40736, "▁prominence": 55055, "▁Kard": 47019, "议院": 52242, "ръ": 9871, "来进行": 33272, "')": 2923, "▁Associ": 5760, "ernational": 27602, "▁skies": 36032, "<0x76>": 423, "strong": 13842, "Cos": 59493, "▁revealed": 8809, "交界": 16319, "型": 4674, "管理部门": 42325, "进修": 49412, "duct": 2707, "类似于": 37156, "▁square": 6902, "лю": 14552, "产后": 30490, "▁Eld": 47571, "足协": 55605, "▁undertake": 37057, "霾": 12757, "在你": 23413, "«": 107, "隔离": 13241, "eee": 50768, "▁DAC": 53185, "tname": 55107, "眼前的": 43297, "锅炉": 45967, "狂欢": 56495, "究": 9269, "▁Especially": 19603, "){\\": 9457, "▁annotated": 37791, "▁attacking": 20441, "授权": 16067, "nFamily": 40630, "(\\\"": 1767, "vb": 41108, "他没有": 42257, "$+$": 53915, "綜": 9668, "▁iP": 9163, "拆除": 23745, "averaged": 50381, "文化遗产": 30637, "把你": 31282, "▁ty": 19731, "));": 41357, "有力的": 30969, "nHost": 58211, "▁hood": 20956, "Lines": 39867, "oming": 17409, "真空": 35753, "▁lessen": 56834, "盖": 8844, "nident": 53140, "身": 11718, "向社会": 54333, "م": 786, "н": 577, "筒": 9379, "▁onto": 5538, "must": 33080, "▁argued": 14549, "gra": 4041, "服从": 36251, "▁ml": 37002, "▁Relief": 47088, "grid": 13022, "deploy": 49370, "nof": 3218, "的城市": 22840, "▁schools": 5766, "▁Laplacian": 50032, "▁arrows": 27011, "峡谷": 40821, "▁ellipt": 22533, "▁Cred": 40876, "▁опреде": 52116, "▁computes": 45762, "课文": 41882, "聚集": 16898, "▁Running": 29551, "▁inspections": 49424, "落实": 5149, "<0x7F>": 432, "▁finger": 10955, "▁Copy": 29463, "▁grinding": 37948, "Generate": 50328, "四十": 26568, "▁bon": 7946, "他人的": 32944, "长假": 50740, "▁Dirichlet": 53218, "objects": 27309, "iggs": 35486, "▁puppet": 46454, "▁Charlotte": 23378, ")\"}": 48952, "▁GitHub": 33883, "▁scheme": 7127, "h": 77, "胜": 10070, "圳": 4627, "DateTime": 30514, "他已经": 43769, "老年人": 18185, "四肢": 45394, "消费者的": 33146, "▁embodied": 59165, "nFriday": 16221, "abl": 2556, "▁bearings": 51248, "付费": 37540, "▁repent": 44065, "怀念": 35403, "▁Us": 6580, "▁additions": 30579, "蚊": 10787, "▁stranger": 25228, "▁confuse": 42109, "▁wise": 14820, "新高": 26664, "傳": 3552, ">>>>": 15955, "Four": 40184, "▁due": 2436, "STAT": 23612, "作物": 26036, "▁repe": 5295, "学了": 54628, "興": 10236, "▁ladder": 26575, "你要": 13382, "ху": 45134, "有關": 15679, "ovsky": 43079, "▁alkal": 57203, "▁Net": 4940, "▁asp": 15314, "▁reflect": 5204, ")--": 21583, "接入": 28237, "nres": 14584, "▁formulation": 18672, "ributes": 9271, "variant": 15275, "leqslant": 27873, "人民检察院": 20443, "▁readiness": 54269, "病房": 33739, "隐蔽": 56618, "tuint": 35018, "icult": 3050, "rays": 11962, "▁rubbish": 41990, "慢性": 18366, "К": 542, "▁coordinates": 11753, "▁sins": 26646, "▁entreprene": 13400, "的关注": 45934, "▁Usually": 23512, "▁vortex": 25339, "内在": 24363, "是不能": 43986, "▁organizer": 44761, "▁Mich": 4870, "之年": 41614, "Fact": 48740, "矿物质": 49037, "lantic": 45167, "▁TSA": 49187, "▁Bradford": 55816, "ied": 1267, "nHas": 35850, "▁Internal": 31755, "▁floor": 5649, "养殖": 13343, "烙": 8073, "▁Strateg": 27386, "••": 40412, "▁Jennifer": 24783, "百度": 18381, "Having": 50563, "灵活": 15632, "满意的": 42078, "ap": 15567, "}})$": 26855, "imates": 34814, "一审判决": 46718, "▁impe": 32766, "进攻": 16701, "▁bureauc": 27470, "万事": 43834, "▁Jun": 18643, "cyclopedia": 40769, "▁Pixel": 41189, "▁Story": 14290, "nHowever": 5957, "▁sense": 3345, "诉讼费": 43171, "▁brut": 17584, "cond": 1443, "广汽": 55209, "俄": 3426, "▁shadow": 14950, "▁trademark": 25818, "▁cough": 31263, "▁дей": 34718, "▁optimizer": 40842, "▁galax": 6185, "models": 12864, "agonal": 36146, "庞大": 45929, "External": 40705, "为企业": 34965, "▁mysteries": 42930, "submission": 59003, "▁premature": 31420, "戴着": 44568, "|}\\\\": 46739, "▁mysterious": 19993, "nCase": 46913, "够了": 38678, "还会有": 51289, "不过": 3438, "联储": 20282, "▁ejac": 58623, "nmem": 49140, "▁everything": 2710, "▁phenomenal": 40385, "下的": 5624, "nInteresting": 54593, "三板": 45791, "▁crowd": 9058, "▁precautions": 50847, "eque": 57296, "▁actress": 17597, "宽带": 56521, "idd": 2360, "能有": 37375, "▁countless": 19647, "patient": 22795, "听过": 45861, "宛如": 58608, "▁Texas": 6888, "▁Open": 6443, "向本院": 16175, "奋战": 39055, "▁November": 5184, "▁Northwestern": 54169, "▁coverage": 7075, "▁plunge": 46990, "row": 17195, "ars": 15953, "的热情": 39963, "悍": 5844, "动力": 7661, "Analysis": 31299, "置疑": 57855, "ро": 2932, "▁Evil": 32166, "▁Be": 2354, "plements": 12342, "▁lady": 12845, "很可能": 27572, "▁envisioned": 52576, "<0xDE>": 527, "annie": 53357, "▁mesmer": 58562, "_\\\\": 1841, "▁crypt": 13149, "▁occupation": 21690, "▁COP": 34329, "陌生人": 36976, "grad": 9473, "\\\\@": 38400, "▁lying": 13803, "▁pressing": 19900, "本院于": 35502, "研讨会": 36840, "居家": 24945, "下一": 11704, "▁Tale": 55452, "过程": 3018, "▁Ser": 4488, "▁Royal": 13234, "▁deliveries": 44290, "较差": 45821, "弥补": 27121, "estone": 20541, "▁Marathon": 42355, "obby": 16166, "力气": 39800, "北方": 18652, "▁navigating": 45502, "▁disappears": 37843, "binary": 28272, "还好": 25972, "EST": 21982, "ribution": 2524, "irect": 1519, "老板": 10735, "▁Seriously": 28525, "严格的": 38358, "▁yacht": 55249, "医治": 58770, "梦想": 10506, "orship": 16108, "burst": 29110, "tre": 28901, "Bra": 45425, "货车": 25655, "▁puzzle": 22276, "▁Ahmed": 39844, "ace": 15265, "尼斯": 17973, "▁Spotify": 44485, "▁pizza": 16519, "因为它": 32018, "KA": 42622, "辩称": 26412, "目的在于": 50104, "安装有": 58354, "和孩子": 32909, "冤": 3697, "Hence": 48210, "谦": 11418, "▁contours": 33554, "▁eve": 47326, "▁comment": 3585, "nFour": 29268, "▁histogram": 28528, "rangian": 19485, "损失的": 58888, "▁watchdog": 57570, "<0xEC>": 541, "反转": 44091, "▁nap": 25964, "ODQ": 54120, "const": 2297, "原文": 32236, "▁револю": 45891, "缓和": 57184, "atche": 49249, "发": 4032, "wedge": 14892, "▁recon": 46663, "▁robotics": 49351, "ashing": 4094, "sil": 28631, "▁recovers": 58429, "变": 4038, "西门": 48264, "section": 1689, "▁requiring": 15428, "▁painted": 17100, "Maybe": 30510, "减小": 43070, "▁hurry": 33540, "▁sufficiently": 14471, "▁Age": 15644, "IM": 3811, "道的": 17953, "起来了": 28861, "物质": 7804, "}=(": 28356, "nU": 2445, "stant": 33762, "▁Romans": 37881, "cx": 18651, "制定的": 47279, "规模的": 51237, "pies": 29576, "ills": 2664, "sequence": 22378, "▁paragraph": 15120, "MTU": 33521, "想起了": 50194, "紐": 9599, "nMatthew": 58601, "When": 8094, "▁contacts": 16426, "共青团": 45319, "的交易": 49203, "▁gamer": 47442, "▁year": 990, "dule": 6721, "走到了": 56623, "plica": 48821, "itive": 2078, "▁bonded": 49844, "合伙人": 39379, "▁AND": 6101, "驻": 13126, "毕业": 5856, "▁reve": 4534, "▁Hollywood": 12800, "壁": 4813, "▁metadata": 22468, "▁earning": 20789, "建议大家": 57902, "▁compensation": 14675, "到达": 13151, "▁Wife": 50773, "andel": 43313, "achi": 29450, "中国队": 58015, "before": 17338, "racle": 11771, "andom": 19157, "害": 5206, "Update": 12688, "▁Neumann": 47622, "Bool": 41643, "▁prosperity": 33382, "夸张": 31585, "▁thing": 1919, "迎接": 20544, "研讨": 18514, "▁Lab": 12140, "▁wrest": 16781, "月中": 25455, "之余": 35041, "▁unbounded": 58251, "▁Society": 10233, "摄影": 13639, "承包": 15998, "岛屿": 58706, "半": 3942, "▁Improve": 32526, "就是我们": 49018, "nLogged": 46256, "nincluding": 43150, "ependent": 3671, "死去": 48129, "在农村": 56249, "▁shedding": 58373, "▁labs": 39020, "ascade": 26514, "ocracy": 11429, "停车场": 34360, "糊涂": 41225, "钻研": 47039, "nMore": 7349, "共同": 17169, "▁restricting": 42980, "大家对": 51359, "▁tired": 11148, "租房": 32941, "这么": 4146, "▁succ": 24644, "飞行员": 51978, "▁fac": 2453, "▁Rules": 23236, "▁Haven": 33026, "溯": 7793, "▁wh": 664, "广州市": 29368, "▁addresses": 12239, "paration": 37018, "废": 5573, "成像": 41599, "冉": 3676, "港股": 48440, "▁reception": 18048, "赴": 11577, "水域": 48834, "；“": 39456, "Group": 9700, "解决方案": 16864, "▁paraphr": 45130, "被称为": 18508, "nStandard": 48730, "举止": 52837, "的是什么": 44934, "▁Pierce": 42868, "要先": 55994, "冈": 3675, "▁represent": 2431, "保温": 31782, "總統": 15727, "▁Disc": 12803, "member": 17993, "adow": 8503, "alogy": 46031, "nEasy": 45385, "畜牧": 44352, "▁Gibbs": 42696, "ú": 183, "湖": 7746, "▁scen": 4632, "▁gender": 10888, "能力": 16010, "▁Ly": 12216, "改变": 5454, "alignment": 44160, "fx": 21958, "trans": 5230, "蕉": 10650, "▁trouble": 7807, "▁Used": 27989, "iani": 44155, "etsy": 58719, "柿": 6949, "中南": 55091, "Screen": 24897, "imi": 33977, "slice": 33824, "▁Walking": 37778, "glob": 42205, "▁Instead": 8317, "▁compare": 7271, "”；": 21123, "▁predict": 3877, "参与了": 43213, "▁Offic": 10818, "▁reach": 4839, "vd": 19847, "▁exchange": 6778, "▁relent": 33730, "逆转": 39781, "房价": 17321, "▁doorway": 59444, "浦": 7610, "ores": 4176, "一张": 12494, "<jupyter_start>": 23, "技能": 7390, "陆": 12622, "nLastly": 42668, "ifdef": 35242, "ographics": 29172, "▁yoga": 17331, "▁virtues": 53043, "▁Above": 38896, "停工": 55514, "镇长": 54606, "℃": 1741, "▁neglig": 16691, "▁darkness": 19584, "▁Phoenix": 19975, "句": 4048, "▁announcement": 14210, "家常": 42002, "▁Punjab": 56540, "▁instructions": 9745, "nStay": 39087, "组织和": 51692, "▁unknown": 9175, "emed": 15393, "▁Lincoln": 18250, "教育基地": 56563, "▁\\\\|\\\\": 36269, "pairs": 45899, "changed": 19564, "▁space": 2176, "▁util": 6270, "必需": 31155, "▁Yesterday": 43675, "富": 5220, "蹦": 11687, "马克": 19742, "uned": 43773, "落幕": 53101, "的生活方式": 55837, "чно": 28803, "嗅": 4386, "▁browse": 22615, "жду": 21991, "});\\": 5434, "gauge": 53112, "变形": 24408, "▁stand": 1781, "▁Runtime": 40541, "隆重": 34831, "翁": 9928, "idden": 5406, "谛": 63864, "▁healed": 44897, "Py": 22756, "全覆盖": 34065, "争夺": 30417, "nBas": 26389, "俄罗斯的": 54953, "▁digestion": 56786, "pecific": 7922, "打出": 34944, "stick": 18923, "▁aide": 48979, "▁Spe": 5473, "▁unjust": 42791, "膳": 10179, "战斗力": 45110, "▁Hod": 44710, "▁oversee": 50614, "大国": 29968, "▁Preston": 55145, "平安": 11220, "ector": 3966, "arth": 3455, "我们会": 22783, "▁material": 2920, "▁delivering": 17189, "▁skinny": 36068, "▁Ло": 52968, "臣": 10210, "한": 13994, "▁concaten": 29285, "拉": 6154, "▁proclaimed": 50598, "▁Visit": 21297, "nfield": 27148, "vartheta": 24256, "▁clar": 9874, "chapter": 39356, "hibition": 37041, "cache": 15002, "DoxyCode": 39405, "师兄": 47743, "樂": 7177, "NV": 34569, "――": 27603, "的好处": 41405, "▁relaxing": 21269, "命中率": 57498, "篇": 9433, "Pages": 18018, "坤": 4652, "版的": 22164, "▁advertise": 37141, "波澜": 50765, "·": 118, "司令": 29313, "朗诵": 37950, "干的": 37971, "IF": 5539, "plays": 34959, "Password": 23357, "▁predictive": 28680, "▁related": 3691, "不低于": 38620, "▁uncover": 38339, "\\\\|^": 28031, "▁duty": 11954, "▁floors": 21052, "Energy": 42168, "精益": 46064, "▁Sl": 8346, "的那个": 44370, "утбо": 38145, "巅": 62828, "folios": 47131, "▁throat": 20573, "先天": 34263, "nmoment": 48547, "asse": 39122, "在学校": 27301, "▁side": 2266, "▁campaigning": 50617, "ring": 1137, "▁lenders": 31018, "Liter": 40422, "\\\"'": 41492, "eering": 23500, "Focus": 34977, "▁winning": 7751, "▁chapters": 22936, "▁lifespan": 53837, "▁unh": 22155, "▁diminishing": 57785, "甘": 8607, "机关": 6375, "<0xDB>": 524, "诉请": 51382, "脚踏": 43669, "擔": 6470, "故意": 17194, "ancies": 20969, "Seq": 43092, "+)": 43601, "侧壁": 48949, "▁Verm": 26050, "技师": 59279, "▁stool": 54840, "OQ": 11760, "▁Personal": 20430, "先把": 44990, "arker": 33138, "False": 14782, "▁learned": 5337, "直观": 29995, "nspe": 39381, "▁|\\": 12235, "▁float": 11714, "权力": 18873, "▁localization": 24449, "日本的": 34612, "守": 5178, "▁hurt": 8192, "folio": 11912, "▁booking": 19043, "▁Reb": 42006, "▁casc": 49433, "▁misc": 49435, "简历": 35667, "革新": 52076, "勤": 3886, "▁arose": 41283, "莹": 10462, "div": 2077, "MV": 18044, "時": 6684, "膨": 10174, "电视机": 57010, "ж": 570, "▁resemblance": 51891, "联动": 19807, "▁Bless": 33267, "(@": 25535, "五大": 26941, "书本": 48260, "哟": 63623, "efore": 4984, "▁Contact": 16319, "手持": 46793, "▁Jessica": 28014, "Map": 6419, "▁cooling": 14453, "图中": 42001, "tprint": 36222, "▁Abdul": 48840, "elsius": 58822, "韶": 12834, "到时候": 43528, "monary": 50307, "ancial": 3590, "▁caul": 54552, "▁undocumented": 55630, "ortex": 16443, "▁Liberals": 54935, "Plan": 21483, "▁elites": 52064, "涩": 7638, "▁clips": 22886, "别人": 5602, "positive": 23293, "Meta": 25318, "▁Mining": 41899, ")|$": 53646, "▁Deluxe": 56415, "▁blood": 4824, "关联": 17346, "涉案": 19780, "▁nevertheless": 26733, "文明城市": 37244, "▁cit": 29945, "▁connection": 5320, "▁Extra": 30470, "撕": 6434, "nie": 16825, "▁marked": 10438, "▁couples": 14064, "▁await": 13195, "号召": 26681, "azer": 36135, "老爸": 46847, "▁dentist": 32615, "会有": 6934, "▁Build": 9331, "Switch": 43558, "▁smoothly": 23710, "伤": 3332, "▁conferences": 25929, "▁transmitted": 21145, "ilk": 42605, "return": 1588, "的国际": 46370, "GGER": 54704, "pacing": 44300, "震动": 54701, "▁abide": 45209, "▁prostate": 37333, "▁monks": 54437, "VAL": 17741, "究竟": 13924, "colm": 36029, "▁assertions": 54844, "aza": 13526, "ippers": 25807, "lect": 1141, "配送": 30826, "IGO": 58579, "nFederal": 58600, "▁occasional": 19525, "▁Poisson": 27558, "能力强": 52636, "▁wheat": 23590, "▁interval": 11291, "▁wore": 19679, "▁imports": 30157, "entities": 56479, "▁Packers": 34625, "▁bathing": 55317, "nSo": 3115, "幣": 5536, "relations": 22437, "三位": 27929, "把这些": 45993, "▁cheap": 7346, "efits": 24287, "▁ske": 10711, "方式的": 51236, "▁balloons": 55114, "部电影": 55709, "翼": 9954, "INGS": 27371, "▁maps": 8248, "▁{\\\"": 26465, "他们会": 31328, "▁Investigation": 46732, "▁awakening": 59085, "Omega": 3740, "鸭": 13464, "▁index": 4886, "▁YOU": 7504, "ourced": 42592, "▁PBS": 44045, "▁Mississippi": 21514, "▁one": 853, "國家": 15364, "▁collections": 18371, "▁Ин": 43031, "▁ceiling": 18176, "彈": 5673, "长": 12523, "瞪": 8956, "整顿": 30562, "三月": 19420, "▁hosts": 15193, "产物": 29922, "光照": 40754, "膀胱": 57494, "▁Buy": 15083, "task": 13957, "才会有": 54283, "▁brainstorm": 56870, "▁Dumpster": 45407, "▁epis": 5872, "实施例": 31752, "overlay": 55975, "▁Baldwin": 48431, "ote": 1533, "作战": 16804, "apore": 14622, "▁vend": 12419, "▁divergent": 51450, "金牛": 34207, "发生变化": 47780, "multicolumn": 7254, "▁savvy": 41987, "▁Site": 15207, "nConse": 45475, "ophy": 11059, "▁Ground": 25858, "fork": 54124, "▁admission": 20266, "▁cleanup": 38580, "<0xAD>": 478, "▁toys": 15964, "RP": 28961, "cat": 8530, "一周": 17054, "idery": 57268, "开门": 27984, "gettable": 39286, "\\\";\\": 5058, "▁shower": 12708, "▁chuck": 34021, "conv": 16367, "▁BTW": 54186, "小龙": 30912, "▁favorite": 4572, "④": 1837, "кло": 51168, "places": 30130, "的风": 19926, "的门": 57546, "aters": 16732, "▁chir": 41301, "攒": 63111, "Enter": 29342, "swing": 27877, "prime": 5324, "打电话": 17311, "▁Actual": 59228, "夏": 4859, "▁tipping": 57674, "rose": 18892, "▁цен": 35035, "两项": 47997, "soc": 58297, "损失": 7389, "▁weaving": 59229, "▁mass": 2207, "▁prest": 22387, "▁Theresa": 57407, "▁sisters": 20062, "▁find": 1332, "化的": 7105, "▁bloom": 44211, "pend": 16997, "UID": 20423, "记得": 9107, "▁Russia": 8800, "▁Programming": 41547, "面的": 5415, "ins": 1564, "▁instr": 10516, "▁electronically": 49257, "▁MU": 31612, "▁freel": 21485, "时有": 47843, "螺": 10917, "Design": 34397, "▁logo": 13425, "▁division": 11573, "智能": 16527, "▁culprit": 41971, "在接受": 34001, "▁annotations": 34438, "幕后": 55156, "ld": 16357, "▁neat": 18655, "主要由": 55380, "程": 9221, "▁presumably": 25946, "洛": 7567, "line": 1207, "产业化": 41462, "线": 9820, "▁Bro": 4706, "▁didnt": 27586, "▁simplistic": 49947, "处罚金": 41869, "▁contend": 42699, "受害": 26419, "我们也": 24166, "▁abandoned": 18488, "计": 11377, "▁healthy": 5908, "▁из": 5916, "▁evaluating": 22884, "▁LSU": 49636, "eea": 46228, "▁unreal": 31533, "ingle": 14424, "▁append": 28159, "▁relevance": 25461, "服饰": 35160, "送": 11874, "原理": 15883, "cue": 26948, "▁coincides": 32878, "情况进行": 38840, "Named": 51215, "支付": 5136, "这份": 17685, "成立了": 28201, "爱国": 18282, "收录": 39689, "纷纷": 10443, "getting": 40489, "影视": 17147, "勞": 3882, "yss": 53684, "冬奥": 45928, "很快": 9601, "Suite": 48187, "乃是": 58103, "▁calm": 13905, "吉他": 49216, "▁profit": 10083, "▁Bulls": 39470, "我会": 14107, "执业": 38435, "吐": 4085, "▁ending": 10873, "iously": 9956, "▁Philosophy": 47225, "▁RES": 23411, "kg": 9597, "锅里": 49111, "hall": 32213, "检疫": 52678, "ermi": 14935, "寨": 5242, "ependence": 17442, "▁filter": 6913, "<0x93>": 452, "▁laughter": 29690, "▁Milwaukee": 31972, "過去": 16944, "荷": 10435, "梗": 7019, "七十": 38326, "必须在": 44012, "micron": 49690, "▁Chern": 42965, "领导班子": 47932, "义务教育": 38894, "endars": 47678, "▁consider": 2414, "pencer": 27264, "={\\\"": 20260, "小小": 18000, "外婆": 36962, "priced": 38779, "▁САЩ": 45514, "樱桃": 44959, "▁Arist": 47046, "虚构": 58844, "▁advanced": 8280, "辣椒": 19270, "石墨烯": 58355, "创始": 19727, "超": 11583, "ynes": 57155, "安全的": 24571, "▁С": 4562, "基督": 16055, "▁Was": 14018, "▁Style": 21104, "subseteq": 12719, "▁admire": 25979, "宁夏": 33187, "网站上": 54858, "鲜": 13338, "culture": 44676, "nget": 29307, "duction": 22506, "<0xB6>": 487, "acity": 5817, "ributors": 46707, "mL": 48877, "poss": 6200, "过一个": 53894, "之日": 45792, "的世界": 17664, "▁filthy": 55427, "anes": 11550, "including": 11061, "▁fleet": 22567, "執": 4723, "亨": 3248, "▁treats": 21068, "皆是": 46783, "国土资源": 59224, "▁interviews": 14386, "激烈": 21834, "▁benchmarks": 35513, "▁Birth": 24486, "很喜欢": 38188, "养老服务": 49331, "гия": 54747, "警告": 18540, "是一座": 51171, "▁priv": 5744, "bands": 24684, "质": 11546, "▁VAL": 25857, "的建议": 46945, "▁tomatoes": 26863, "▁screams": 47922, "具体": 4693, "enu": 17489, "▁church": 6088, "▁beautifully": 20672, "是我国": 35868, "straight": 59079, "衰退": 37846, "▁fin": 1297, "不宜": 25033, "▁choir": 44536, "▁updates": 7731, " ": 60305, "▁plastics": 56718, "cam": 13619, "▁clumps": 58688, "▁Sierra": 27244, "▁grief": 25423, "atsby": 56627, "▁Seems": 35387, "▁'%": 41867, "hers": 3181, "рал": 40173, "▁anch": 15556, "vac": 32763, "多年": 19784, "说他": 35483, "日正式": 55888, "<0x25>": 342, "ocus": 2323, "▁familiar": 7745, "Circ": 36111, "的需求": 17107, "ala": 19041, "4": 25, "▁available": 2025, "▁specify": 16226, "ATIVE": 54887, "地球上": 56793, "▁hardcore": 28914, "`)\\": 52340, "麓": 13485, "为您": 36998, "born": 10783, "▁following": 1926, "绑定": 51950, "炒作": 33372, "▁да": 6903, "▁popcorn": 44467, "nGiven": 15833, "Direct": 16004, "▁{}": 19683, "▁das": 46074, "敲门": 59454, "各种": 4207, "▁squeezed": 40647, "▁corpor": 6148, "身體": 16450, "麻醉": 36773, "此": 7321, "}/\\\\": 20248, "▁unwilling": 36589, "焦虑": 14987, "英镑": 39630, "▁motherboard": 49406, "nIn": 1371, "医疗机构": 26985, "驭": 63618, "sembles": 43334, "▁figuring": 31129, "сна": 50261, "▁influences": 22005, "▁binge": 58492, "tfor": 12734, "青年": 16916, "erence": 2258, "社會": 15433, "生日": 17378, "渐进": 55855, "ucker": 23317, "eas": 48240, "onal": 6305, "分割": 25755, "▁evolving": 24027, "▁Must": 17423, "▁spicy": 33148, "\\\\\\\":": 26885, "onical": 14211, "▁Every": 4967, "不可避免": 42323, "巷": 5485, "options": 10169, "▁reactors": 53515, "<0x59>": 394, "原有的": 40497, "ool": 1370, "▁vir": 7732, "res": 16369, "起诉": 14824, "▁obtaining": 18202, "va": 8782, "▁Tutorial": 50798, "加拿": 15943, "蒜": 10567, "cursor": 23429, "scription": 11878, "▁Ass": 5541, "▁galactic": 34858, "gio": 43652, "直升": 38328, "▁REC": 31872, "xm": 58473, "Que": 17483, "ements": 6094, "escape": 49077, "▁Tribe": 58864, "ino": 3256, "之心": 24515, "▁Ther": 29914, "邮件": 24111, "▁roommate": 40955, "使用权": 41340, "▁Skill": 57276, "▁Poland": 24226, "pajama": 1094, "▁ss": 53255, "的不": 8753, "▁despair": 36543, "▁catastrophic": 42425, "mony": 48698, "狠狠": 38771, "地方": 15370, "水准": 41355, "巅峰": 33129, "▁solely": 14478, "▁predetermined": 40019, "栏": 61535, "old": 16890, ")[": 17975, "国内的": 39402, "nIT": 48036, "Web": 11509, "照明": 25464, "▁riot": 46525, "▁differing": 39091, "已经有": 27948, "comp": 17746, "並且": 15952, "▁Hann": 44546, "]\"": 19441, "达到": 4635, "参加活动": 59545, "▁YORK": 41217, "▁IPA": 59110, "CONT": 51014, "▁higher": 2969, "▁messy": 31467, "Back": 10298, "strap": 17075, "▁Entity": 39197, "dm": 23045, "▁slipped": 31326, "▁Max": 9072, "spo": 50097, "从来不": 46636, "侍": 3400, "▁*/": 23184, "Compat": 45498, "领导": 3960, "集团公司": 44172, "山林": 59029, "ations": 885, "▁Storage": 25527, "▁risks": 11311, "proving": 42697, "约合": 57251, "减少": 5815, "<0xA5>": 470, "▁psyched": 51480, "▁touchdowns": 31352, "irth": 12451, "分队": 58877, "▁editors": 22883, "▁shallow": 23164, "中国人民银行": 43443, "XL": 53843, "▁Koh": 40960, "裙子": 40614, "▁участ": 41475, "设在": 46553, "pair": 5465, "oz": 12830, "驾照": 55995, "的开": 30675, "pitch": 57991, "▁elliptical": 51301, "▁courage": 17051, "▁fertilizer": 52859, "▁channel": 5655, "▁Advance": 44926, "－－": 56032, "经济发展": 16800, "桥梁": 24979, "Fly": 57148, "erred": 13308, "积": 9212, "住建": 35324, "////////": 5889, "▁contrad": 13178, "▁classified": 16361, "offee": 22804, "▁::": 11635, "安": 5179, "\\\\|\\\\": 24323, "▁version": 2864, "▁tangent": 30680, "▁shrimp": 41476, "▁Wesley": 51741, "童年": 25146, "为他": 30978, "自己和": 47764, "Iref": 57421, "ritish": 34106, "▁seminars": 42253, "▁Gul": 50876, "▁assess": 6191, "}$\\\\": 18584, "▁accomplish": 13602, "有人说": 24699, "▁ansatz": 41335, "卢": 3963, "▁insurance": 5556, "▁torus": 34213, "▁sequentially": 53470, "fashion": 34108, "▁o": 573, "对孩子的": 51877, "itional": 3421, "▁epic": 18073, "解析": 21965, "阳台": 35468, "▁Quote": 47640, "游玩": 32890, "同盟": 19167, "<|unused016|>": 161, "▁Perl": 42290, "盎": 8839, "背后": 13570, "▁intest": 34308, "put": 18428, "▁sun": 4957, "▁vit": 11568, "Bad": 30381, "/>\\": 28404, "▁diffe": 52043, "棋": 7042, "镍": 63625, "总有": 37621, "κ": 487, "致": 10223, "▁Dell": 28158, "典范": 47796, "▁Debt": 52565, "ipes": 8802, "hg": 57575, "like": 17463, "▁logistics": 32155, "▁版的": 46391, "illing": 4052, "到的": 9004, "bler": 50244, "的区别": 45084, "/**": 16694, "▁perenn": 46744, "整治": 9672, "pulse": 54806, "鼓": 13559, "cohol": 8698, "▁Senate": 8761, "bsite": 13142, "▁cavities": 51507, "iem": 16790, "NTU": 32657, "项规定": 58814, "urst": 30804, "给了": 10429, "遵循": 23161, "▁няко": 30247, "▁epid": 19915, "vee": 23680, "▁GL": 18586, "对抗": 20605, "boolean": 19899, "▁caffeine": 36770, "aped": 16311, "etics": 25113, "▁prey": 31031, "nWorld": 37849, "出名": 15482, "CP": 9127, "随处可见": 58361, "一点都不": 51876, "▁Willis": 58457, "赘": 63697, "笑道": 42673, "鲁": 13334, "钳": 63468, "unk": 3709, "道": 11930, "徒": 5726, "ury": 2629, "дател": 47087, "▁penet": 18111, "▁Genesis": 34752, "ortions": 28273, "▁breakout": 48101, "▁format": 6332, "奇的": 58574, "決": 7473, "eka": 57440, "nShe": 7559, "▁subject": 3366, "能让": 31217, "他很": 52335, "携手": 22211, "mathbbm": 40880, "nif": 9999, "▁slate": 41562, "▁spec": 1810, "其特征": 9511, "▁p": 587, "mag": 14298, "uon": 18847, "晏": 6691, "▁Annie": 40345, "▁Witness": 48601, "枕": 6888, "robe": 27034, "在自己": 31564, "sender": 51178, "▁stimulus": 29061, "▁vampire": 35356, "은": 13890, "喜爱": 20479, "对身体": 51542, "▁wasn": 3613, "flu": 16341, "<0xB3>": 484, "▁&&": 5179, "▁fluid": 11308, "mons": 25075, "ounge": 26821, "OSE": 19694, "nWhich": 18927, "byte": 14784, "▁bail": 20707, ">>": 4422, "▁native": 9553, "ew": 714, "^@^@": 41268, "▁разли": 34968, "▁deck": 12382, "可持续": 21199, "orption": 29488, "在第一": 45283, "▁gameplay": 21541, "ppings": 45829, "盒": 8842, "▁Molly": 47021, "融合发展": 47239, "笑容": 21660, "pol": 7175, "▁CAL": 49823, "▁minimum": 5985, "喷雾": 53405, "clone": 28884, "▁raining": 52450, "▁Finals": 47878, "研": 9005, "发售": 56238, "hing": 17837, "▁cloud": 7335, "▁Scot": 12762, "alian": 9836, "น": 1130, "▁exclude": 27103, "lite": 54883, "▁rat": 4213, "▁exhausted": 28188, "西南": 16130, "ichel": 39284, "核心": 17865, "▁Prior": 24237, "▁proverb": 53698, "▁rental": 14308, "▁corrosion": 50911, "捐赠": 21550, "▁owns": 18961, "nprogram": 57081, "run": 5357, "和朋友": 46832, "▁Lange": 57425, "▁beaut": 3143, "宗": 5187, "▁rational": 11586, "条件": 4547, "inet": 9824, "▁legislature": 31215, "標": 7188, "ols": 11385, "zhou": 31798, "▁Accordingly": 36810, "▁exchanged": 34590, "机能": 55492, "▁shaded": 39037, "▁Rays": 49556, "小三": 45608, "流转": 35949, "▁recol": 47577, "▁broadcaster": 57369, "士": 4835, "ic": 15269, "Spe": 14508, "▁halt": 26073, "小巷": 47885, "Example": 22275, "プ": 2477, "▁amen": 19871, "馈": 61777, "▁Buch": 41591, "研学": 50333, "std": 6850, "itual": 20375, "▁Chevrolet": 41758, "ce": 15682, "дмини": 58858, "▁civilian": 25864, "rc": 3792, "挺": 6217, "现在": 2168, "argument": 19102, "▁demand": 5233, "▁strengthened": 46433, "'_": 12886, "更为": 13569, "▁reli": 15276, "beit": 20976, "▁fused": 56653, "▁extraction": 19405, "姐妹": 21093, "▁lattices": 36603, "Controllers": 45258, "▁generations": 15236, "因果": 32594, "atha": 51786, "▁ste": 3470, "小白": 29597, "ock": 1637, "▁brew": 16933, "▁themes": 16282, "ogeneous": 12936, "▁auxiliary": 25611, "▁adventure": 11459, "Top": 13536, "小于": 24877, "▁carefully": 10388, "▁assemble": 36716, "▁physic": 37287, "互补": 40004, "▁kilometres": 47679, "routine": 42652, "ourses": 32294, "▁ethic": 45477, "加速": 12273, "▁que": 7152, "谈及": 54225, "不胜": 35151, "断": 6591, "過": 11925, "ene": 19919, "▁ho": 15538, "à": 157, "角度": 18093, "去": 4016, "歧": 7324, "▁Participants": 42452, "组织的": 18944, "▁climb": 11887, "聆": 9990, "PUT": 28006, "usually": 30396, "currently": 56450, "▁Heavy": 35426, "nknow": 40486, "▁Sharks": 55017, "正在": 4909, "卜": 3958, "▁ug": 16478, "▁Dub": 19554, "▁Community": 9586, "按钮": 28463, "ensors": 39793, "疑难": 54571, "▁militants": 42061, "attered": 15725, "走进": 11486, "不可以": 29252, "phe": 14270, "ie": 15800, "floor": 18543, "vary": 40680, "▁iMac": 46507, "隋": 12659, "排毒": 58074, "▁outputId": 33561, "四种": 45656, "▁Islamic": 14286, "jx": 54534, "加强了": 59102, "▁remainder": 19505, "铁路": 12044, "▁Groups": 39264, "Sk": 18074, "人人": 18919, "▁manuscript": 20953, "owntown": 31080, "▁suddenly": 10823, "经销商": 34210, "▁skin": 4973, "oved": 10840, "nlib": 45371, "folder": 25272, "上半": 31639, "▁funding": 7984, "bil": 38110, "▁relationship": 3277, "bucks": 32147, "举行": 7549, "高科技": 38826, "▁promote": 9408, "кон": 46520, "▁expenditures": 46328, "ffff": 13623, "▁preferably": 27913, "▁concer": 5776, "\\\\+\\\\_\\\\+": 26510, "应以": 55289, "▁geographical": 37986, "ository": 17415, "暴跌": 45315, "Instead": 54989, "申诉": 57383, "▁viral": 25336, "值得一提": 27980, "兵力": 52924, "转变": 13693, "▁variations": 13008, "第": 9361, "歲": 7328, "计算机": 12780, "nGive": 38001, "nAccess": 43366, "白云": 31372, "▁Willow": 57061, "▁gate": 10072, "▁Labs": 42043, "这边": 27060, "▁Mos": 22772, "Stub": 56409, "NB": 37207, "外出": 19392, "▁reclaim": 50461, "▁ре": 9230, "Business": 33596, "效力": 15619, "nBro": 40836, "▁Delaware": 33274, "acy": 3263, "▁Viol": 34813, "▁love": 1763, "▁comforting": 46122, "蔗": 10623, "craft": 10696, "▁BS": 20298, "▁GHz": 25194, "▁enzyme": 39437, "erv": 18311, "舅舅": 58258, "▁Component": 31388, "早前": 57042, "也没有": 8137, "好转": 31209, "▁Bowie": 58785, "▁criminals": 25566, "<0xF6>": 551, "▁op": 3259, "必不可": 38013, "绝对是": 46867, "街道办事处": 49002, "征求": 29764, "闪": 61419, "▁Monica": 40066, "痛苦": 11489, "来越": 5274, "手法": 19389, "▁XL": 34310, "▁incorrect": 15668, "▁illegally": 34536, "bcb": 54121, "贡": 11541, "Success": 24483, "▁Geneva": 39168, "ximity": 22712, "sam": 11247, "▁authorization": 34935, "昱": 6674, "免疫": 11793, "归还": 30633, "▁answering": 23391, "nBasically": 39987, "▁whisper": 55460, "Equal": 12016, "▁PU": 31934, "▁regress": 59345, "john": 50859, "ript": 3261, "▁Subst": 54499, "一世": 17532, "near": 31337, "abil": 7781, "тата": 35871, "圆满完成": 57733, "籌": 9491, "藉": 10709, "▁Send": 23713, "仗": 3283, "中华人民共和国": 7928, "▁battled": 57082, "▁thro": 13737, "nYes": 8834, "wu": 37173, "规范": 6537, "▁ramp": 19735, "▁limitation": 22180, "拿下": 25750, "巩固": 19955, "就是为了": 37729, "▁ig": 59535, "▁nu": 24912, "▁opportunity": 4251, "伍": 3318, "ARP": 47973, "jama": 1057, "▁dens": 50479, "▁sidebar": 41939, "ype": 1488, "<|unused158|>": 303, "▁opposed": 11173, "rington": 35139, "▁Italian": 11348, "提供了一种": 51620, "uya": 54391, "主要领导": 58780, "▁arms": 8704, "邮寄": 58885, "躲": 11723, "屑": 5315, "▁comments": 4033, "出众": 54663, "▁있": 57884, "fbox": 49577, "▁contributors": 27311, "森": 7061, "olid": 4200, "Phone": 6147, "history": 23877, "▁ownership": 14468, "chart": 24545, "倦": 3487, "HD": 12632, "also": 17186, "▁Drive": 14887, "▁Legisl": 26291, "metic": 19064, "市场监管局": 50588, "▁quotation": 54869, "自然而然": 56994, "ain": 15454, "动物": 8489, "theme": 26745, "背着": 52583, "enguin": 38168, "▁sock": 41244, "ognition": 33690, "docker": 33182, "在这种": 25473, "mathfrak": 7363, "▁peanut": 35354, "fre": 36732, "真正": 17926, "凉": 3721, "来临": 25605, "itary": 3977, "▁purpos": 59439, "缴": 61354, "FAIL": 50475, "勃": 3865, "上海市": 20642, "ncase": 30909, "▁Георги": 56931, "icago": 7296, "端正": 49428, "▁Polit": 44968, "金银": 41654, "▁WordPress": 19608, "▁had": 986, "俭": 63018, "▁shelf": 21928, "地将": 41827, "▁Batman": 23098, "▁salty": 50834, "▁skip": 17089, "是一款": 50857, "inner": 5144, "nSeriously": 47809, "piracy": 19304, "▁Duck": 45029, "iew": 3539, "热": 8082, "▁antiqu": 45257, "▁mortgages": 42158, "▁Valent": 21221, "殿": 7366, "▁log": 3482, "宣传活动": 29582, "endas": 58754, "sen": 11593, "zero": 9858, "婉": 5035, "ors": 1006, "▁orders": 8478, "智能化": 25908, "|-": 49456, "蚕": 63368, "Nzk": 54227, "nonymous": 23423, "▁Dubai": 27304, "人寿": 54600, "▁Sgt": 50606, "▁sustainability": 25971, "▁triggered": 22953, "先进的": 33858, "身心健康": 58726, "▁discretization": 53047, "蝎": 10873, "下來": 54354, "▁хи": 49225, "ц": 586, "十三条": 24786, "▁Secure": 40017, "cookie": 44060, "▁XY": 57258, "慈": 5933, "Family": 34756, "▁Laws": 44236, "昆": 6644, "▁excuse": 16420, "在国内": 25620, "▁Maple": 43178, "積極": 19475, "death": 40969, "党委书记": 21947, "让他": 11813, "就此": 32392, "atured": 38817, "▁cream": 9234, "孩子的": 7467, "▁delegate": 40609, "iken": 56215, "▁Rare": 55617, "bullet": 18588, "▁statues": 51528, "▁Rober": 7040, "阅": 12597, "▁Mueller": 48046, "<0xE8>": 537, "\\\"{": 42440, "▁husbands": 44513, "计较": 49319, "binom": 20522, "▁spook": 49990, "▁artificially": 51967, "дия": 34124, "▁name": 1815, "▁financial": 4204, "▁hunters": 34260, "protected": 11782, "bian": 14700, "Set": 4475, "和所述": 56708, "咸": 4207, "▁rigid": 23085, "▁Paper": 18386, "Attributes": 31270, "ignore": 33984, "▁mommy": 52275, "fen": 40662, "▁startling": 54659, "▁transc": 55813, "И": 540, "▁Ice": 18726, "arnings": 33513, "扒": 6074, "全员": 35284, "del": 10833, "▁IT": 6395, "的存在": 22219, "▁undergoing": 34472, "▁interact": 9239, "▁specially": 24333, "▁Virginia": 11076, "三点": 31660, "Chris": 49445, "▁Fre": 14479, "▁cannon": 48874, "sche": 11047, "是为": 29874, "▁blank": 11476, "新颖": 43451, "Range": 19682, "▁Prophet": 37907, "拿着": 17849, "全天": 37407, "▁synthes": 15550, "▁Ans": 18037, "可以去": 43801, "绰": 63893, "▁People": 6531, "高层次": 58416, "托": 6079, "nS": 976, "▁char": 1560, ";)": 58907, "態": 5935, "Country": 48872, "▁ecosystem": 20454, "Throw": 40655, "anan": 54468, "的信息": 16137, "▁PST": 37944, "▁LM": 46024, "泡": 7538, "狮子": 24243, "▁programmes": 29124, "▁infring": 30775, "根據": 15586, "▁arising": 23683, "▁bottle": 10709, "▁${\\\\": 4136, "edar": 34427, "措": 6292, "mph": 42606, "回去": 15819, "五官": 53346, "Mult": 15332, "因为我": 25017, "▁marg": 7779, "nDid": 19286, "▁disappointing": 25745, "企图": 44457, "▁defines": 15985, "年来": 6469, "制造业": 18612, "▁Treasure": 47714, "▁durable": 22202, "mathit": 25171, "▁Progress": 23604, "relative": 28601, "▁How": 1742, "▁asteroid": 58310, "▁Wire": 22119, "▁Strength": 45761, "爱你": 19778, "▁fire": 3570, "▁Unt": 53307, "一点也不": 53972, "heads": 26539, "▁palette": 33158, "女儿": 7572, "赔付": 38398, "iveness": 8212, "ellery": 39488, "礼物": 19041, "▁Military": 25037, "Complete": 37606, "▁guard": 9309, "▁enhance": 8565, "火山": 19153, "贯彻": 12037, "民事诉讼法": 17821, "▁working": 2221, "nTue": 57422, "提高了": 16879, "think": 22998, "心里": 7527, "Renderer": 33001, "他是": 13492, "全家": 33206, "Border": 38304, "▁glance": 25201, "▁assistance": 9721, "国产": 16674, "沾": 7515, "▁Price": 13387, "▁мо": 12950, "▁chaotic": 30010, "▁tracked": 30991, "▁pruning": 39759, "▁intim": 17868, "绘": 61338, "▁grandchildren": 34356, "ble": 17674, "▁commission": 9735, "gan": 1565, "▁\\\\&": 13397, "exper": 15535, "的历史": 16121, ")'": 24885, "▁friend": 1809, "▁II": 5927, "▁upstream": 34545, "这座": 22753, "tration": 33847, "▁backend": 34599, "cious": 5913, "many": 26570, "▁Tigers": 26987, "population": 47339, "▁autonomous": 28836, "▁casualties": 43818, "宁市": 47123, "吕": 4090, "▁lia": 57524, "mitter": 50400, "图书": 12773, "\\\">[": 50171, "稠": 9232, "Rect": 22274, "▁Argument": 44205, "▁determined": 5861, "电子": 5601, "itemize": 8191, "男方": 49592, "无处": 39331, "臺": 10224, "▁deterior": 26971, "<0xC6>": 503, "后再": 27024, "icient": 14360, "手臂": 35121, "▁тях": 40837, "▁Mexican": 17514, "olutions": 13739, "'}$": 28045, "总计": 45657, "港口": 19847, "▁hast": 41454, "合议": 34610, "▁certainly": 4935, "▁verifying": 56974, "Graph": 20082, "*}\\": 3055, "恶": 60805, "<0x56>": 391, "▁degener": 16945, "炳": 8058, "detect": 44606, "MRI": 45833, "▁daughter": 6402, "不一定": 30057, "▁safety": 5318, "ellectual": 50615, "补助费": 44667, "▁LIVE": 44123, "▁loop": 8537, "▁ID": 6558, "的到来": 55777, "▁чове": 58594, "郝": 12014, "lear": 21532, "万个": 36160, "却": 3976, "▁severity": 33058, "▁richer": 38194, "和中国": 32684, "时髦": 48092, "▁Joseph": 13015, "▁One": 2836, "_+": 11963, "Account": 18893, "準備": 17017, "改革": 17050, "<0x20>": 337, "▁START": 46117, "一带": 16819, "支架": 25035, "认证": 14248, "conduct": 15041, "▁teaching": 7606, "红色": 10320, "▁MF": 38231, "芝": 10309, "navigation": 59270, "▁particip": 3762, "astery": 48061, "▁rapid": 7475, "▁appearance": 8438, "▁adul": 32357, "周围": 11780, "▁Mt": 30084, "▁bik": 35780, "nLand": 49887, "▁\\\\\\\"": 23090, "柴": 6941, "发动机": 14610, "▁и": 1934, "▁demonstr": 5029, "穿过": 26295, "▁Char": 7969, "▁logos": 38100, "不忍": 47794, "另外一个": 37105, "nut": 18630, "bsolutely": 29624, "icals": 29039, "▁terrorist": 17024, "▁Cincinnati": 29046, "进入": 3853, "▁yogurt": 38617, "atisfied": 40425, "Flex": 55939, "懈": 5996, "▁intro": 29988, "▁turns": 6970, "电动": 13574, "想了": 47685, ")；": 58799, "▁genius": 24747, "▁iterator": 55049, "▁Nort": 21851, "歸": 7332, "instein": 14357, "▁judgments": 44717, "护卫": 54664, "睫": 8925, "▁campus": 10794, "）；": 17046, "▁lives": 3984, "被盗": 43993, "扣除": 28512, "fashioned": 47351, "areth": 48388, "次要": 52679, "▁episode": 7688, "▁temperature": 3428, "锁": 61194, "▁Korea": 11712, "均为": 23541, "▁books": 3997, "iving": 2293, "Agent": 29664, "ayette": 40685, "秋": 9195, "xxxx": 21299, "agement": 2997, "阶段的": 36967, "▁certificate": 15758, "terrorism": 58500, "▁много": 29344, "▁cholesterol": 30431, "投资基金": 58723, "ersen": 45753, "行走": 23455, "也有很多": 48916, "Mar": 16610, "夫人": 18458, "▁palate": 49992, "隨": 12678, "nTr": 14843, "▁contracts": 14230, "▁Apps": 31808, "scroll": 27021, "▁slammed": 47623, "▁needles": 46727, "ahler": 52658, "▁Made": 18624, "增效": 42658, "▁harb": 55651, "心生": 52460, "▁threat": 4773, "指令": 23489, "摩擦": 25025, "Get": 4558, "身体状况": 58154, "amma": 1798, "EPS": 49361, "欢呼": 49879, "▁}}\\\"": 46914, "爭": 8238, "水平的": 27418, "差不": 38024, "适用于": 20478, "▁Honestly": 39421, "两地": 41085, "龙门": 56068, "ash": 19758, "eda": 18709, "azers": 58819, "▁narc": 30749, "▁baseline": 13201, "老师和": 36522, "国有企业": 50607, "收割": 41415, "nEach": 14183, "tstd": 46095, "=\\\\{": 21147, "传送": 35666, "LEx": 58201, "UTH": 27446, "sina": 40903, "▁covers": 9732, "勉": 3868, "osph": 20178, "▁rifle": 23893, "▁directive": 47274, "▁Brownian": 48051, "▁hesitation": 51750, "▁fuels": 31438, "▁Harm": 33813, "▁preschool": 47223, "▁registered": 9386, "▁hypnot": 55976, "▁programs": 4997, ">`": 37803, "传统": 4517, "▁quil": 38216, "▁collaborating": 56872, "]}$": 39174, "水肿": 48529, "秘诀": 58710, "bot": 12836, "一楼": 51396, "▁flood": 15834, "▁Despite": 13246, "oshop": 27850, "Permission": 38273, "伊": 3316, "博物": 16709, "shown": 46616, "分公司": 18157, "ishe": 36285, "NOW": 26508, "/_": 31659, "妻子的": 53890, "▁sickness": 41478, "ativ": 14119, "▁authent": 10291, "▁peaks": 16907, "成功": 15802, "▁theorem": 10087, "恢": 5822, "锯": 63359, "ohan": 39824, "▁repositories": 47252, "▁Revel": 49559, "<|endoftext|>": 2, "▁boast": 43179, "▁Pepper": 47384, "▁change": 1956, "▁brushed": 49143, "苏": 10339, "！": 14202, "▁dubious": 49827, "▁commuting": 48416, "▁Term": 10903, "的大型": 39220, "▁scrub": 35597, "▁brushes": 44899, "牙齿": 22178, "豆腐": 16721, "廣": 5613, "<0xB4>": 485, "賞": 11504, "ute": 1602, "和中": 37280, "▁deny": 18165, "▁drap": 57805, "▁Edward": 20114, "▁uniquely": 24830, "斯克": 30717, "万吨": 14203, "即是": 33363, "▁covet": 45055, "▁Lomb": 50546, "肉类": 47480, "廠": 5610, "▁Alien": 45784, "庆幸": 46186, "▁experiment": 4143, "normalized": 50799, "赶紧": 17361, "}^{+": 25508, "ifting": 12819, "尽早": 43495, "因为她": 42892, "▁Danger": 49991, "一次": 15749, "范冰冰": 51430, "都属于": 53107, "▁swamp": 59262, "预防和": 54466, "▁Doug": 26401, "gz": 17524, "▁nont": 32489, "nFive": 43314, "▁whiskey": 48522, "▁grandma": 49004, "▁confidently": 54845, "▁fundamentally": 31020, "pretty": 42132, "革命": 16242, "随着时间的": 52204, "nThe": 843, "学习和": 30653, "生了": 35260, "▁MLS": 34394, "▁virus": 14470, "张艺": 51846, "рия": 9288, "orient": 15922, "▁overview": 16903, "的危害": 50686, "▁eigenvectors": 51250, "Park": 19624, "MTI": 34902, "nEst": 32732, "lying": 4855, "▁steal": 19087, "受害者": 37527, "▁Auburn": 41912, "折扣": 40612, "▁distressed": 58221, "这样的话": 45751, "▁referred": 9667, "▁stake": 13800, "▁има": 19113, "▁Focus": 23399, "筹备": 30563, "▁Viv": 46764, "恭": 5831, "ered": 1848, "▁chairman": 17162, "短的": 55769, "▁Ducks": 53567, "nOver": 9600, "村村民": 52435, "ara": 19858, "▁mist": 5851, "不太好": 56267, "Â": 128, "档次": 48348, "进": 11851, "Ren": 45723, "▁progress": 4615, "▁incremental": 41386, "▁Hyde": 57633, "▁SOFTWARE": 41411, "▁deb": 3093, "充当": 57068, "modern": 33676, "▁lesions": 53270, "▁bathrooms": 31687, "nRecent": 29228, "write": 7700, "最好是": 47396, "仅供": 42641, "nDec": 30146, "▁Markov": 25711, "ndown": 38303, "都能够": 47819, "мно": 57125, "An": 16918, "step": 9703, "pired": 21121, "▁museum": 13543, "arch": 1390, "▁Nord": 32892, "▁aerial": 36959, "净土": 52486, "啟": 4313, "保姆": 48880, "}_{(": 41503, "攀升": 42010, "要以": 32673, "mathbb": 2232, "▁designer": 12843, "nMake": 18375, "aying": 27801, "▁matching": 11002, "APE": 49632, "杨": 6861, "▁fuck": 6104, "nPlus": 46573, "▁vanilla": 22669, "Berry": 35741, "窒": 9282, "▁Already": 47566, "rical": 7715, "脖子": 32628, "太极": 32362, "▁Cleaning": 45540, "▁welding": 54842, "▁officers": 9222, "▁shocking": 26920, "▁fundraising": 29629, "▁fathers": 29730, "就是你": 52748, "▁Pipeline": 58501, "建立健全": 44671, "溶": 7797, "help": 13198, "check": 5894, "Const": 12792, "立项": 45201, "▁flaw": 17258, "各自的": 38695, "给人": 19379, "▁standards": 7374, "投資": 16488, "跨界": 45246, "Wi": 35880, "▁btn": 20725, "ictions": 17295, "Creat": 32286, "▁Factory": 31071, "不利于": 43497, "nH": 1266, "▁mill": 6320, "▁drinks": 14519, "周五": 28974, "udo": 6952, "是我": 9915, "elle": 19210, "常态": 17198, "itiz": 5365, "▁Mediterranean": 31748, "▁lic": 8300, "▁Leon": 18851, "solid": 23428, "upon": 54884, "essions": 9097, "▁Warm": 50248, "▁HDD": 39143, "性疾病": 40589, "▁serial": 14731, "▁spends": 25666, "抗体": 35213, "十里": 51634, "nWriting": 52571, "’”": 34994, "福田": 53300, "cipe": 31802, "低温": 31317, "▁Best": 7303, "▁valid": 4513, "ario": 5146, "nhttps": 15460, "和管理": 33674, "▁/": 1788, "▁somewhat": 8653, "hello": 33228, "▁pounds": 11896, "▁painter": 37278, "肯": 10043, "▁horror": 15239, "一等奖": 29341, "的公司": 27095, "如下": 17775, "庫": 5579, "法学": 41338, "▁monster": 18875, "▁payday": 47267, "rien": 27583, "承诺书": 55776, "\\\"\\\"": 4785, "指导": 5588, "调味": 34783, "▁retarded": 47611, "Външни": 27952, "强迫": 33662, "se": 15448, "<0xAA>": 475, "grade": 7380, "▁right": 1288, "▁bonuses": 29070, "能看到": 42946, "顺应": 45340, "张某某": 46931, "xr": 47862, "克里斯": 51669, "较强": 43470, "▁recru": 14903, "▁ache": 59199, "▁twent": 36033, "的都是": 38680, "悬": 61597, "▁misguided": 53703, "实际的": 49792, "metric": 27392, "achers": 22516, "位": 3354, "分成": 18160, "埋": 4702, "nAbout": 6737, "链接": 21400, "Bi": 26715, "Touch": 39672, "▁denim": 57637, "而且还": 34161, "ord": 16360, "▁Jake": 26758, "▁discontinued": 51723, "▁nud": 40921, "婆": 5033, "'=": 31172, "▁penis": 23747, "严格要求": 54047, "▁punct": 26423, ")": 14, "▁transcripts": 56603, "▁grips": 53777, "▁gr": 2468, "救济": 57791, "▁trace": 13316, "appropriate": 18122, "▁cheat": 33099, "nPeter": 38253, "审查": 12557, "十六条": 43812, "}-": 5137, "▁actor": 12130, "▁това": 20683, "▁selection": 5622, "▁conserve": 54967, "襄": 11090, "ENTER": 39260, "berg": 6068, "ps": 1192, "上场": 53098, "▁explored": 18452, "死亡率": 51429, "打通": 31193, "endid": 46376, "▁maternity": 57411, "▁Slam": 58269, "门口": 12573, "<|unused149|>": 294, "自闭": 57856, "ife": 1296, "ureth": 53659, "ي": 791, "▁th": 601, "▁'_": 47598, "心事": 50014, "区块": 16149, "▁typename": 35827, "▁Clos": 56223, "难忘": 31540, "▁sarc": 35494, "▁renormal": 22051, "号楼": 40649, "major": 33761, "大豆": 34122, "▁Dynamic": 39320, "▁Organic": 43083, "hhh": 50376, "Parameter": 17076, "expl": 15219, "水利": 22770, "▁mate": 24224, "▁dynamic": 8856, "体外": 43676, "增强": 6938, "▁Option": 17061, "▁NATO": 28951, "▁fires": 22930, "▁human": 2756, "场均": 39305, "赛的": 53323, "▁not": 728, "也让": 28461, "▁attaching": 54085, "Period": 40240, "▁debuted": 48572, "白": 8802, "▁Employees": 46416, "生根": 56205, "su": 16932, "▁electricity": 13050, "故障": 20303, "▁playable": 56019, "红外": 30392, "▁representation": 6982, "▁gestures": 45293, "▁Hir": 48868, "集成电路": 52641, "岛": 5353, "如是": 38741, "menu": 18328, "首先是": 36666, "▁Kickstarter": 42394, "Answer": 47329, "acious": 37218, "时间内": 26016, "itial": 12034, "▁courageous": 54787, "▁ERP": 58390, "▁Facility": 43855, "▁levels": 4154, "ading": 8574, "patch": 16584, "归": 60665, "ク": 2439, "▁EST": 26573, "專家": 18147, "nInstall": 45519, "▁holes": 10754, "出席": 17442, "nWithin": 33851, "▁hire": 12662, "阐": 62382, "▁historical": 9652, "▁Hindu": 29135, "nchar": 29702, "NAS": 27782, "轮的": 54199, "依然": 17474, "▁McDonald": 28757, "张贴": 46021, "知道": 16153, "一审": 15930, "比你": 50064, "▁veterinary": 52168, "▁plotted": 18803, "Chen": 42676, "▁debating": 48967, "\\\\}\\\\": 18840, "采取了": 50899, "搞得": 54768, "き": 2351, "备": 4854, "extended": 56932, "nEvery": 10523, "getElement": 26564, "强调了": 53280, "▁mi": 15499, "▁intentionally": 29499, "▁chilling": 50646, "系统中": 37298, "▁cotton": 19507, "▁unpack": 52701, "▁VR": 22709, "减轻": 17658, "%%%%%%%%%%%%%%%%": 23319, "secure": 27040, "在上述": 56336, "本案的": 56527, "▁texting": 43374, "р": 580, "url": 1333, "职业技术学院": 49371, "▁becom": 3427, "iter": 2967, "▁delicious": 11388, "css": 10331, "epend": 2737, "▁Pers": 17012, "▁Primary": 33560, "▁Stamp": 51411, "▁flash": 10411, "▁wavelength": 14502, "▁photograp": 12301, "▁KNOW": 36187, "▁violated": 26163, "兴奋": 18626, "你可": 58876, "three": 20334, "这事": 38526, "工作人员": 8757, "▁opportunities": 6772, "▁foil": 31050, "▁tunnel": 17288, "▁CAR": 32531, "▁exit": 13141, "empts": 58783, "住": 3356, "reading": 25417, "蓝": 10600, "強": 5663, "昔日": 52124, "什么事": 41724, "▁crucial": 10546, "拘": 6168, "▁Square": 15020, "ITION": 39204, "前瞻": 49783, "œ": 241, "为学生": 49017, "aspberry": 32735, "情的": 19402, "ational": 18709, "▁switching": 16538, "Helpers": 57565, "▁Leg": 7695, "▁Oscar": 21743, "〇": 2308, "的因素": 42721, "ospice": 56050, "Management": 47451, "紫色": 45610, "▁cryptocurrency": 32000, "textsubscript": 53675, "落在": 23830, "hydro": 30204, "▁debts": 34184, "variance": 43547, "▁Node": 21956, "▁smokers": 48639, "必": 5756, "▁{\\\\": 2061, "▁culturally": 48472, "▁mash": 44104, "▁Meh": 57949, "莫名其": 48777, "气味": 49241, "滚滚": 50739, "Ho": 38944, "umes": 9967, "在乎": 31924, "▁Claire": 39394, "▁Jur": 42388, "嘴里": 32185, "草原": 24080, "http": 1136, "▁os": 12660, "']\\": 17336, "▁Pil": 22892, "▁potent": 30276, "▁Bea": 57193, "猜": 8349, "THING": 38924, "axter": 55500, "▁exception": 7120, "▁Tob": 25723, "aments": 32314, "▁discourage": 46458, "前": 3801, "▁retail": 7568, "pent": 37386, "▁stark": 38461, "sequ": 3630, "▁self": 2247, "而至": 47746, "eals": 37034, "巡回": 52430, "▁Ar": 2007, "Common": 29104, "第十二": 56269, "bit": 3292, "▁immersive": 53469, "ochang": 31780, "appen": 32540, "玄": 8399, "assis": 33509, "▁Lov": 33034, "ego": 12057, "imensional": 40166, "Rx": 51157, "▁’": 15353, "玛丽": 46943, "▁Linux": 9674, "amel": 22979, "▁Quest": 17500, "的事业": 36093, "▁approved": 9534, "定了": 17771, "▁fee": 9307, "抓好": 18336, "▁}{": 20396, "人际": 34037, "也只有": 42271, "多达": 51728, "▁racing": 14572, "all": 15773, "▁Zimmerman": 51996, "标准的": 25411, "▁booze": 56567, "▁printed": 12897, "▁superintendent": 56387, "Pair": 37396, "▁Officer": 17266, "讲师": 44531, "▁inaccurate": 35903, "坪": 4657, "nthen": 17053, "▁ion": 11110, "一线": 10878, "系统的": 13890, "▁plague": 43066, "梯": 7032, "月的": 13919, "联": 9994, "不在": 10972, "▁Paula": 55274, "▁Classic": 21303, "▁bracelet": 52669, "▁pervasive": 58970, "skins": 40487, "▁profiles": 12225, "iteration": 58499, "▁monuments": 53636, "▁para": 17593, "backslash": 26396, "▁guitars": 41858, "nUnless": 42577, "特点": 7753, "尼亚": 22374, "iven": 4265, "▁costs": 4930, "ngiven": 30945, "ado": 5751, "东方": 14326, "▁grit": 53693, "标识": 22902, "product": 8065, "裙": 11044, "loving": 48008, "▁appl": 1754, "▁stays": 16934, "▁crisis": 9012, "unning": 8426, "物价": 42064, "▁nodes": 8273, "nExec": 54130, "really": 18075, "祥和": 52491, "的平台": 41374, "Employee": 55252, "Diff": 28881, "ippy": 48374, "nom": 7409, "▁Date": 11255, "▁acceleration": 18839, "▁propagate": 44334, "▁basis": 4702, "▁Се": 26191, "▁brake": 27374, "领": 12917, "▁React": 19101, "站在": 10276, "cheon": 56685, "过户": 51052, "到家": 52458, "▁lord": 36019, "▁Man": 2933, "站着": 50786, "▁happens": 5397, "春晚": 42396, "launch": 36745, "▁Board": 7787, "lik": 8818, "▁Sorry": 20752, "传染病": 35579, "▁Interest": 16360, "ptr": 11013, "等等": 15578, "duate": 15504, "▁maneuver": 38257, "▁Fusion": 39587, "▁Neck": 57954, "▁intensive": 25327, "▁Basic": 22841, "灵": 8028, "ve": 15452, "nFirst": 7940, "▁worlds": 19358, "▁personalized": 23328, "ANN": 30279, "严重的": 18229, "的歌": 34424, "作者的": 50518, "▁Classification": 52833, "列表": 27074, "舜": 10250, "禁区": 46671, "▁nucleus": 27197, "▁adaptation": 19148, "owski": 18232, "▁tam": 35337, "navbar": 35983, "▁Approach": 47489, "小事": 27763, "▁are": 678, "▁endeavors": 53958, "寄": 5216, "▁[\\\"": 21804, "▁revival": 39299, "令我": 56364, "▁Theore": 55653, "缉": 63883, "nDown": 23993, "ARE": 34156, "全村": 43677, "▁Can": 2748, "▁inspired": 9199, "▁WHEN": 53692, "泰山": 40205, "边界": 27048, "▁An": 1766, "върш": 37854, "成一个": 52132, "WL": 45219, "▁insists": 35521, "童话": 37835, "▁Chemistry": 44585, "tstruct": 39490, "该公司": 17404, "nclass": 8482, "andid": 17858, "還是": 25816, "those": 39194, "上海": 15726, "▁дъл": 41155, "吃什么": 45454, "nFinal": 48919, "▁scrutin": 58461, "Project": 14291, "▁Shield": 36587, "▁Cities": 37405, "rate": 6176, "▁API": 8904, "while": 5509, "滿": 7839, "竖": 62511, "gn": 5742, "▁dish": 11029, "__": 880, "ен": 2935, "▁However": 2458, "押": 6143, "採": 6283, "对接": 16264, "!": 6, "▁和": 21162, "Based": 31267, "zel": 29381, "▁functioning": 23187, "▁demos": 54687, "指的是": 30980, "▁causal": 29779, "将继续": 23490, "▁Monthly": 50344, "产生了": 21287, "品的": 26896, "▁Band": 15837, "▁authoritarian": 56635, "▁Faith": 27393, "▁Lat": 14440, ")}}\\\\": 43407, "ncorrespond": 45484, "▁Trad": 15875, "▁pen": 4734, "可怜": 27495, "中信": 44110, "threat": 36735, "=[": 21981, "▁element": 4598, "Altern": 56470, "插件": 54911, "game": 9416, "▁funded": 16366, "▁glorious": 29278, "tstatic": 31384, "Service": 6447, "五月": 19353, "▁distinct": 8206, "▁чи": 36053, "adv": 52651, "ClassName": 56164, "▁Magic": 18637, "▁Drama": 53360, "ductor": 14627, "▁fusion": 19544, "故事": 16192, "▁pair": 3659, "干脆": 34852, "centric": 32634, "About": 20565, "▁FREE": 16553, "▁shaft": 23773, "contents": 30303, "地理位置": 55037, "arded": 15626, "▁accumulation": 32880, "nGra": 54399, "})+": 38079, "▁Provide": 47935, "lux": 35712, "▁Oil": 16516, "▁households": 16269, "▁opting": 56866, "hit": 28238, "▁whenever": 10108, "amous": 18312, "混凝": 24053, "▁js": 35007, "▁secrets": 20157, "▁Seahawks": 39942, "你去": 33186, "▁fields": 5156, "atherine": 22862, "Lin": 16762, "戏": 6028, "就像": 6929, "‚": 63254, "Words": 46834, "认可": 10759, "<0xC2>": 499, "保证": 5731, "为目标": 46144, "之多": 56757, "用餐": 41895, "▁CPS": 59109, "各": 4074, "人民法院": 6937, "忧虑": 51514, "ی": 826, "lecting": 58732, "▁cert": 6502, "演艺": 37420, "rwx": 56150, "▁depicts": 33959, "模式的": 45616, "MzE": 49506, "假冒": 50892, "工资": 8521, "城镇": 15259, "拍卖": 24577, "澄清": 44877, "imp": 19552, "▁proof": 5750, "▁duplicate": 29203, "煌": 8125, "▁fu": 23595, "▁pedal": 36305, "行为": 3597, "Mj": 5248, "▁desires": 21607, "▁д": 2661, "▁Nazi": 27941, "全体党员": 50963, "▁We": 1079, "▁calming": 58962, "▁represented": 9092, "NASA": 55136, "▁alive": 10680, "▁scrap": 19523, "人民共和国": 7874, "不起": 11265, "scenes": 46470, "▁pill": 11864, "▁reef": 38281, "▁flow": 3308, "▁homeless": 17927, "▁Dol": 36333, "直面": 52741, "对外开放": 51980, "例如": 15324, "▁ecosystems": 50010, "opher": 15368, "ensing": 15614, "誌": 11235, "▁swift": 28514, "年的时间": 37063, "▁merchand": 26006, "▁Ont": 18421, "fy": 24340, "sunami": 50174, "▁ele": 1942, "▁Ell": 11678, "▁redeem": 38689, "警报": 55097, "州": 5469, "黄色": 23116, "膊": 10162, "悟": 5850, "▁appointments": 30186, "画": 8635, "nPrior": 41139, "越高": 32014, "编": 9846, "-)": 36439, "bell": 14185, "▁progression": 25297, "elocity": 41890, "ското": 25674, "MOD": 33640, "有一位": 36604, "從": 5734, "mercially": 37960, "在上": 23575, "▁cemetery": 43944, "▁utf": 42648, "▁ballots": 44777, "▁Dixon": 54987, "graded": 18078, "Duration": 35388, "▁opin": 4350, "中医": 9995, "给他": 13354, "酬": 12090, "ami": 13124, "jamin": 25483, "▁Clin": 19123, "zs": 25678, "滞": 7822, "nPublished": 28857, "照": 8144, "调整": 5501, "在外": 14350, "万亿": 32235, "才是": 8455, "release": 20535, "異": 8665, "▁OS": 8261, "wik": 44058, "▁enhancing": 30554, "女人的": 28269, "▁Opt": 15118, "▁Ger": 23851, "▁pom": 54401, "bbie": 39784, "sidebar": 57026, "搁": 63373, "▁toughest": 43069, "▁convolution": 15913, "▁Monte": 16608, "▁nutrition": 18866, "▁adviser": 33888, "▁store": 3182, "lish": 4100, "rief": 5132, "哈哈哈哈": 48271, "对证据": 54231, "▁sum": 2382, "})}\\": 40510, "▁adhere": 34765, "▁Emily": 26986, ")}{\\\\": 13147, "Decoder": 55682, "說": 11254, "孝": 5150, "▁Our": 3535, "nCompany": 44483, "classical": 36435, "▁knocked": 24474, "▁Stalin": 47524, "嫌": 5084, "破坏": 13038, "▁creditors": 48665, "▁Manila": 51770, "最重要": 32891, "胜利": 13164, "▁renown": 24380, "▁validated": 36672, "▁marriage": 7827, "▁sought": 13697, "▁Holly": 44482, "▁ha": 676, "▁horses": 17654, "yet": 35598, "coal": 45179, "▁scams": 54475, "液压": 35391, "▁funnel": 44561, "lists": 25874, "▁cylindrical": 40620, "umers": 43384, "lington": 32974, "▁Dom": 15747, "Life": 24203, "▁DVDs": 41753, "stri": 29843, "日志": 32842, "▁Demo": 53136, "人多": 57852, "}(\\\\": 3122, "▁Мар": 40028, "▁reinforcement": 37239, "全新": 18697, "γ": 480, "逮": 11903, "▁veins": 46986, "编程": 24752, "数百": 37582, "共振": 48030, "金华": 43931, "politics": 57929, "itates": 59478, "大学": 2768, "序列": 25217, "▁handles": 20691, "nConclusion": 38943, "Plus": 29944, "nice": 36777, "紅": 9590, "▁photos": 5535, "消化": 14657, "区分": 26303, "▁deals": 10278, "▁reputation": 12516, "再一次": 32017, "▁WHERE": 31686, "\"": 7, "佔": 3360, "}}\\\\": 3534, "Inf": 5746, "heastern": 30425, "就不要": 42273, "人死亡": 52221, "▁straw": 19997, "▁chic": 39165, "][": 4854, "▁кра": 18179, "董事会": 32387, "observed": 57482, "STR": 15344, "二季度": 52746, "▁Quinn": 34300, "▁movement": 5997, "陆续": 18357, "▁reddit": 22101, "▁screws": 34285, "dg": 37120, "计划": 4038, "花园": 19167, "自查": 44367, "▁glossy": 53907, "▁engage": 11093, "厨房": 18846, "nArch": 35082, "中来": 53551, "sparse": 44002, "公司的": 8385, "ync": 11816, "氨酸": 29175, ")=-": 44635, "号民事判决": 54891, "▁eats": 34835, "▁qu": 901, "▁Turner": 28279, "▁Calvin": 38804, "水稻": 41552, "▁MA": 10821, "▁Hero": 19826, "▁cartridge": 33028, "helpful": 54137, "▁magnitudes": 32879, "Proposition": 37824, "▁denom": 47166, "▁inspir": 31946, "正": 7320, "▁nutrients": 25534, "深度": 11604, "<0xC7>": 504, "▁enabled": 12439, "进一步的": 38543, "追踪": 34417, "▁Yukawa": 52161, "▁Cats": 44729, "侵": 3417, "部队": 13084, "▁caves": 51599, "▁withdrew": 55900, "cleaned": 20815, "Name": 2783, "部份": 15538, "挽": 6220, "photos": 37904, "▁knee": 14717, "▁JO": 37526, "\\\\}": 8270, "▁implementing": 18613, "▁recip": 16856, "可靠": 16731, "▁cinem": 17212, "迄": 11838, "▁comprehend": 34689, "img": 5947, "▁bub": 20979, "▁buffer": 14172, "审美": 24978, "vision": 5879, "AYS": 25748, "nNorth": 33544, "三分之一": 49430, "小女孩": 46027, "ked": 17029, "extract": 46987, "重要": 15595, "ico": 5950, "剩余": 23615, "▁Joel": 34002, "重返": 45586, "▁TRAN": 57452, "▁photograph": 10867, "essica": 58526, "ead": 1481, "▁Points": 27933, "мер": 35525, "当庭": 49013, "witz": 56711, "題": 12882, "胁": 61848, "▁priceless": 57571, "▁Manhattan": 22425, "▁Din": 51432, "▁researc": 7347, "energy": 10187, "▁bind": 21354, "▁hatred": 25804, "padding": 18942, "udget": 4716, "传言": 56331, "业的": 31192, "悲伤": 28122, "▁occurs": 9450, "间接": 32087, "▁livelihood": 48969, "▁reliance": 41276, "等症状": 40482, "Fan": 58325, "有关部门": 23825, "此前": 13616, "▁Ren": 14176, "▁CAT": 55832, "nEm": 26913, "ww": 1271, "▁clothes": 9981, "▁\\\"[": 35488, "▁Materials": 33755, "propto": 17465, "常住": 48808, "万人次": 39072, "▁tourist": 21276, "ccc": 21132, "oused": 54006, "▁polynomials": 21973, "ople": 18298, "遍": 11924, "合理的": 21597, "��": 22486, "▁practicing": 23300, "▁ple": 4283, "▁LGBTQ": 53666, "asper": 33404, "nAny": 8088, "ousands": 36468, "clusion": 5257, "nfe": 28677, "▁Executive": 14414, "▁heels": 25219, "ricanes": 44317, "np": 3041, "处理": 3529, "早点": 40526, "ymmetry": 14763, "rupted": 16579, "▁dangerous": 8848, "项目中": 54155, "▁garage": 15334, "▁юли": 49638, "“": 1673, "▁digit": 17471, "▁Brisbane": 41477, "){$": 42984, "Statistics": 50082, "▁challeng": 4460, "公诉": 20271, "火了": 49180, "忍耐": 58408, "敬佩": 58980, "appropri": 16160, "人民政府": 19023, "definition": 12998, "▁tee": 36617, "游乐": 58842, "ona": 6799, "urities": 25458, "紧迫": 42537, "hips": 17822, "精准扶贫": 43544, "▁tile": 22353, "oulli": 57842, "▁Gary": 19233, "▁'$": 54425, "appy": 9180, "就会": 4309, "▁appliances": 27166, "题": 12921, "â": 159, "ntz": 22404, "▁jud": 4226, "关闭": 14917, "▁expos": 8748, "▁Clean": 16419, "底座": 40790, "预案": 30724, "▁tra": 1157, "▁holistic": 41514, "▁Mes": 27168, "鼻": 13571, "ismic": 43063, "记住": 19424, "雍": 12700, "谈到": 30278, "▁Product": 11883, "▁Training": 14891, "thinking": 19723, "iatric": 27328, "▁activ": 3336, "雙方": 18974, "艺术家": 22777, "▁prompted": 24284, "▁((": 11898, "切尔": 40755, "硫": 9035, "机的": 11336, "拍的": 56949, "▁awful": 17262, "极度": 39332, "MDI": 34030, "▁Dominican": 59554, "指标": 9821, "持有的": 48865, "{}\\": 22099, "㎡": 2611, "客服": 32218, "系列的": 56561, "结石": 42231, "有好": 18681, "▁legs": 9992, "▁Comput": 11982, "一副": 34499, "ettes": 29695, "iable": 6282, "▁adoles": 27443, "找一个": 48537, "▁FOR": 8791, "喊": 4343, "▁nurse": 19356, "▁rewrite": 28499, "复试": 35316, "咧": 4196, "ври": 18478, "icense": 4516, "rowth": 17752, "▁pant": 19027, "nHaving": 18738, "▁iv": 31344, "▁Beast": 36076, "农业生产": 57951, "clock": 16439, "metal": 39985, "拉动": 43678, "书籍": 21621, "▁surf": 15483, "plex": 11507, "遭": 11948, "<|unused085|>": 230, "▁derivatives": 19640, "▁Between": 23812, "钓鱼": 34148, "nMicrosoft": 40299, "rot": 8053, "▁whereby": 32182, "洪水": 39802, "brand": 22658, "▁ethnicity": 48968, "不出": 13281, "HW": 43290, "倒是": 25546, "▁schedules": 29836, "不合理": 49226, "妳": 4959, "就可以了": 28700, "犹如": 29928, "▁Marvel": 22436, "的房子": 43759, "▁Tree": 18125, "▁repeatedly": 16448, "美人": 33313, "细化": 23354, "瘫": 8761, "socket": 26046, "铺设": 52842, "otimes": 6660, "EXT": 15088, "将对": 34500, "▁Virt": 59303, "娱": 5023, "▁anything": 2507, "砸": 9021, "PH": 8973, "▁Hours": 34921, "上市": 18249, "查询": 14618, "▁signals": 9943, "▁palace": 41190, "所得税": 36665, "右侧": 30917, "▁ejected": 58096, "出游": 59316, "▁Grey": 24547, "}{\\": 22624, "框": 6984, "▁Suff": 39458, "visible": 26529, "如今": 6609, "路上": 9141, "nLearn": 29931, "▁erg": 32200, "▁Students": 16422, "atorial": 30237, "StackTrace": 49493, "糟糕": 28752, "頭": 12866, "▁Customer": 20390, "▁Wheel": 40935, "Broad": 52908, "会谈": 54872, "出演": 31177, "各项": 8374, "EN": 2087, "▁Virgin": 9432, "▁spectroscopic": 36889, "▁Philos": 36923, "nFl": 43324, "债": 60795, ")}\\": 10892, "NNs": 36536, "cco": 17940, "commands": 43925, "渐": 7704, "lance": 41645, "▁philosophy": 13705, "▁drone": 28026, "ignant": 50589, "▁mystical": 55759, "▁OD": 44600, "▁allies": 21248, "公共场所": 47327, "toBe": 30348, "▁Films": 45285, "\":\"\\": 32963, "ible": 1231, "Struct": 42007, "在建": 42544, "认定": 7794, "▁displayed": 11089, "▁vou": 32458, "▁Seal": 56537, "▁Sp": 2519, "▁Turt": 52061, "▁Federation": 24264, "感触": 43294, "force": 5573, "敢": 6552, "▁Pract": 16401, "此次": 6310, "Caption": 51242, "▁catastrophe": 51533, "▁inn": 4341, "▁friendships": 40978, ")}_": 21700, "艰难": 19291, "缩短": 27748, "資源": 16565, "▁Mand": 21142, "这次的": 45102, "SNR": 47901, "途中": 25415, "司法鉴定": 31807, "enary": 45952, "▁disciplinary": 53638, "▁lymph": 36496, "库": 5564, "挪": 6206, "飞扬": 49746, "indices": 40764, "恍": 5815, "▁Second": 9099, "新月": 58320, "临床": 10361, "▁spa": 4104, "顿时": 28849, "李世": 54420, "算法": 16757, "apiro": 58621, "▁inherit": 45056, "▁crank": 35618, "我们先": 51615, "▁Yose": 57689, "呼和": 57698, "新中国": 32137, "▁affine": 34165, "▁sizing": 59164, "▁Cry": 44623, "干净": 11174, "孫": 5159, "学堂": 58070, "▁lean": 13484, "老师在": 49524, "duration": 29060, "流域": 38550, "<|unused076|>": 221, "▁dropping": 17677, "imension": 25103, "▁tells": 7424, "▁Place": 13133, "▁Fo": 34754, "▁disposable": 45443, "▁educator": 46154, "提供一个": 56891, "▁fresh": 5196, "Invalid": 23748, "▁shipment": 43206, "▁thunder": 32369, "汽油": 36578, "考上": 38117, "女生": 10706, "<0xC1>": 498, "emption": 29045, "遵": 11955, "▁Sim": 4545, "us": 15388, "▁knowledgeable": 26608, "▁Organ": 11234, "omes": 23139, "wic": 27842, "税收": 22780, "辛辣": 54304, "千万别": 49155, "▁formulae": 54243, "国家队": 39085, "在国家": 53160, "nWater": 37576, "排": 6272, "▁colon": 13843, "硬度": 56580, "使用寿命": 56922, "▁reimb": 33309, "▁convection": 45094, "总值": 52709, "心灵": 16681, "▁BJP": 40733, "filtered": 9021, "车展": 51329, "調整": 18791, "'}{": 51403, "forward": 10286, "放手": 43185, "▁coordinator": 26798, "▁Foundation": 7988, "总体": 12349, "Paul": 29986, "伊斯": 17015, "▁systematically": 33787, "▁miniature": 42282, "公正": 22176, "▁dece": 24825, "jl": 32948, "谈恋爱": 43000, "nDeb": 52817, "svg": 22022, "▁lay": 2796, "▁chem": 5640, "▁decisions": 7247, "臨": 10215, "▁inj": 4533, "itors": 6703, "▁LOC": 47285, "▁continental": 44529, "广": 5553, "▁mapped": 26688, "Wal": 44942, "梅": 7012, "说不定": 40732, "精品": 22499, "还得": 27403, "eli": 9644, "▁paint": 7718, "rish": 26057, "违反": 14933, "uly": 17181, "的爱情": 38542, "util": 7566, "iversity": 2356, "OP": 4009, "▁Energy": 10724, "小米": 16241, "她又": 57789, "震撼": 27557, "▁create": 2529, "矿产": 51973, "出租": 16172, "nHy": 42319, "istinguishable": 53402, "▁break": 2884, "codes": 35489, "踊": 11638, "outheast": 21986, "ст": 2337, "▁phil": 8288, "Cam": 21640, "阿里": 16182, "▁constructing": 28777, "▁hotel": 6622, "▁organised": 27761, "本题": 56908, "ier": 16985, "())\\": 10666, "▁Khan": 22701, "▁omit": 43654, "艺术品": 46130, "▁soph": 12293, "▁Du": 19191, "▁Tower": 22858, "分析师": 31797, "大米": 38917, "IBLE": 53485, "▁pertaining": 36086, "▁Mong": 43576, "▁Compact": 54963, "bow": 12551, "iffs": 16278, "▁strikes": 19028, "▁a": 562, "дата": 33316, "挂": 6193, "快速增长": 54780, "▁novels": 19486, "中共": 16039, "▁thoughts": 6536, "轩": 62331, "ктор": 45711, "▁three": 1604, "追逐": 35895, "▁spectrosc": 21721, "▁OWN": 50637, "ве": 3614, "▁react": 12177, "▁expressly": 49280, "\\\":\\": 20820, "▁Flight": 30430, "▁interplay": 48300, "▁Salv": 41528, "▁licensed": 16363, "things": 47002, "▁URI": 51433, "选自": 52492, "oca": 17531, "otential": 29265, "▁showcases": 50209, "名声": 56115, "Usage": 39476, "转弯": 49683, "下去": 8844, "电信": 21526, "args": 8881, "JC": 45393, "傲": 3551, "imm": 18406, "▁minim": 7496, "縮": 9746, "AVA": 45969, "nHi": 10775, "nVal": 23282, "▁Greatest": 56839, "▁explode": 37093, "▁vein": 39416, "istries": 39601, "儿子": 7321, "辞": 11814, "临时": 14925, "remove": 12963, "贷款": 10539, "▁ing": 6691, "▁indu": 7290, "фор": 31664, "荣耀": 22424, "щи": 11838, "▁Sox": 23297, "▁theoretical": 10633, "analysis": 23644, "nSt": 3952, "▁backyard": 26146, "▁Ising": 39234, "可想": 50671, "▁originates": 51576, "▁mailbox": 52420, "版": 8257, "▁destro": 21302, "oad": 4197, "▁recomm": 3255, "▁moves": 8787, "\":\"/": 14897, "期間": 15489, "为我们": 25303, "▁Strip": 37180, "▁chicks": 49845, "▁commodity": 32680, "▁BM": 52899, "hurst": 54256, "▁()\\": 47655, "出路": 48788, "▁Fargo": 52227, "向往": 24575, "phants": 46053, "▁signatures": 23209, "▁Kitty": 53037, "出来": 3993, "▁Save": 19737, "REAK": 47634, "▁mutation": 35184, "如下图": 53181, "\\\":{\\\"": 33600, "均衡": 22430, "GIN": 31558, "NO": 13743, "<0x0C>": 317, "iqu": 1882, "▁presidents": 40925, "▁invasion": 24800, "▁writer": 7564, "田野": 52632, "光的": 33898, "▁suppressed": 25078, "▁advis": 12086, "▁municipalities": 49979, "悲哀": 55825, "频": 12920, "胳": 10081, "等方面的": 32660, "gas": 27511, "AH": 23349, "北京时间": 36481, "花生": 18848, "ires": 3216, "写得": 56167, "▁eliminated": 22554, "cpy": 50789, "suc": 53082, "壓": 4823, "▁spring": 7268, "▁rem": 1258, "▁Usage": 44525, "ishable": 40189, "社团": 26270, "▁promotes": 28274, "好人": 28355, "eah": 6378, "▁feared": 34058, ")]{": 53645, "tF": 54971, "答复": 36569, "▁vari": 1566, "应届": 47094, "集中": 17194, "▁Food": 9936, "奥运": 17463, "古人": 30697, "静态": 42035, "背景": 16271, "抚慰": 42340, "這麼": 48775, "▁enemies": 14339, "TPS": 46312, "粤港澳": 55101, "▁populate": 57367, "▁Chronicle": 40595, "▁aims": 14005, "setState": 49865, "ccess": 1870, "的要求": 12971, "轮融资": 58020, "umerous": 44916, "▁Rand": 11703, "кедо": 28394, "电子商务": 25076, "▁cider": 50967, "抵制": 38644, "▁Aside": 41031, "与被告": 19751, "▁word": 3450, "就不能": 35093, "▁bamboo": 53317, "工": 5473, "就近": 42933, "efficiency": 50552, "▁fractal": 56512, "iracles": 42330, "▁Building": 15972, "台下": 57823, "%\\": 4025, "orget": 44867, "tget": 54860, "▁Professor": 14810, "TRUE": 41342, "▁Fol": 43846, "Count": 7330, "ordan": 12138, "loader": 20916, "▁Diego": 15350, "▁Junior": 25710, "TOD": 41931, "照样": 56952, "operatorname": 11212, "EX": 6295, "复盘": 57248, "画的": 38163, "nInside": 52276, "迫": 11861, "▁Bollywood": 59053, "area": 16713, "尔特": 48774, "娶": 5025, "的创新": 57390, "月开始": 53031, "的操作": 37297, "▁dating": 7015, "▁stated": 7307, "Getting": 52254, "▁mit": 13370, "ntheir": 21488, "要不": 41976, "possible": 7170, "efit": 34222, "的美国": 53530, "Mzc": 51561, "nSource": 28222, "volatile": 31982, "▁defending": 21675, "一脸": 29063, "讲解": 12641, "pull": 24510, "owed": 15468, "▁Gu": 3636, "至关重要": 42442, "//": 18934, "▁disappointed": 15078, "▁homepage": 42929, "并列": 57413, "也算": 40635, "构成的": 54948, "lined": 14072, "▁emulate": 51658, "▁Script": 20150, "gae": 37337, "默默": 17354, "uten": 14658, "endregion": 51813, "▁songs": 8003, "nname": 17726, "▁Wik": 39487, "什么都不": 54287, "▁ghosts": 38484, "Sp": 17823, "但却": 25812, "現場": 17045, "极高": 51637, "状态的": 58182, "▁AdS": 37727, "▁exhibitions": 44470, "pretrain": 31185, "book": 16875, "歧视": 32440, "shall": 44965, "能力的": 21419, "挤压": 38571, "▁joked": 58158, "Think": 52156, "▁Ant": 7154, "▁walks": 14196, "▁Because": 6023, "冶": 3711, "彭": 5702, "创造了": 31684, "兩個": 15356, "idency": 24862, "▁offenses": 43335, "USH": 45629, "iji": 39391, "▁screening": 16880, "▁biblical": 37814, "学霸": 42758, "wise": 3353, "adam": 44979, "▁indication": 19666, "扎根": 41809, "▁occurred": 10638, "开业": 45297, "▁db": 20127, "上半年": 17207, "推开": 58662, "稿": 9246, "nState": 28633, "▁Village": 18789, "raits": 34978, "▁loudly": 41317, "Ref": 7777, "构件": 36953, "▁Wisconsin": 17099, "▁inflam": 20284, "出锅": 54300, "thought": 37745, "▁Message": 20120, "▁shuff": 46544, "▁legitimate": 16846, "西洋": 16862, "；（": 31090, "alf": 2332, "▁WORLD": 50693, "▁]": 9883, "▁Twilight": 43893, "▁Calgary": 34232, "▁compr": 9359, "事实": 5595, "追求": 8500, "▁prag": 42207, "asa": 26222, "▁(#": 34013, "rophe": 41021, "▁qualified": 13238, "查明": 18877, "▁dude": 22687, "▁Oak": 15060, "cod": 17906, "ocre": 39853, "rum": 3835, "UND": 38911, "▁Hallow": 18845, "着一": 19385, "кономи": 59162, "▁Overall": 22174, "▁subsequ": 8813, "▁benchmark": 13967, "▁incre": 1755, "}$)": 9016, "ifics": 36064, "▁airport": 12258, "环境卫生": 39623, "给学生": 51587, "bmatrix": 18014, "▁ви": 14878, "念念": 51687, "價": 3586, "次": 7288, "满是": 54603, "每人": 19037, "助": 3850, "YPE": 25084, "processed": 1088, "▁sparsity": 48298, "▁innoc": 13352, "▁Евро": 50202, "▁Boolean": 30615, "ende": 49902, "▁burning": 13955, "nMarc": 53187, "一审法院": 30147, "doors": 20928, "▁weight": 3520, "加油站": 48932, "clusive": 7313, "戶": 6054, "▁Shadow": 28342, "异议": 14273, "来源于": 28181, "矢": 8980, "▁trafficking": 32572, "▁Sleep": 27720, "phi": 1970, "卿": 3984, "functions": 20858, "▁WR": 21767, "▁inclusion": 16889, "债权": 19888, "▁cohesive": 58218, "Online": 34657, "▁sket": 32968, "vant": 4149, "过后": 21418, "=__": 45968, "November": 47269, "表示感谢": 53235, "▁Gl": 6120, "β": 479, "elesc": 14220, "募集": 40851, "paired": 20884, "vg": 37825, "▁Complete": 27477, "nstruct": 29222, "多人": 16411, "COUNT": 44403, "手续": 14732, "oke": 3405, "民族团结": 54313, "▁further": 2843, "▁facet": 43195, "▁headers": 26894, "dependencies": 47680, "巴基": 19610, "髓": 13155, "NE": 16115, "indow": 2211, "ucking": 31222, "贩": 62337, "技术": 2038, "rote": 4171, "▁reserved": 14374, "副主席": 19059, "RET": 26866, "他将": 44322, "▁trapping": 44857, "formerly": 53720, "▁header": 14613, "▁invariants": 45892, "闷": 62085, "▁heterogeneous": 41431, "▁becoming": 7014, "除": 12640, "猝": 8350, "救灾": 45244, "▁Guidelines": 45017, "▁REM": 45301, "nEffect": 55685, "财产": 9318, "纪元": 51328, "当日": 25364, "rior": 29336, "EP": 16707, "▁vodka": 55391, "及其他": 31210, "茫茫": 48369, "该项目": 30116, "阵容": 23624, "食用油": 59502, "電話": 16564, "▁intelligence": 10357, "就成了": 40663, "仓": 3279, "平常": 21220, "颠": 62401, "nWebsite": 52277, "<0x4E>": 383, "越来越": 5312, "▁hiring": 17111, "▁heavy": 5667, "校区": 23401, "▁well": 1191, "▁epile": 55620, "只要有": 46887, "十一": 16384, "Missing": 56082, "討": 11167, "▁Moscow": 22851, "报记者": 38065, "創": 3822, "zy": 8814, "▁newcom": 37547, "nic": 11897, "有两种": 50121, "ção": 22983, "Round": 49718, "iling": 16024, "arta": 47284, "十九条": 49899, "▁livest": 34803, "▁Concert": 50756, "李": 6841, "▁extensively": 23935, "<b>": 71, "ampion": 11535, "不败": 57611, "▁fox": 40511, "家居": 23965, "癫痫": 56851, "š": 251, "要做": 28001, "TER": 14125, "▁liberty": 24041, "▁folded": 32802, "▁Amanda": 35824, "лиза": 28729, "物质的": 52635, "perform": 9546, "ocument": 10084, "sentence": 52257, "▁Fuk": 46892, "Status": 9178, "unger": 19274, "nSchool": 40132, "Cas": 46351, "▁African": 8769, "▁dismissed": 23148, "进入到": 43724, "▁college": 5050, "rop": 2097, "耳边": 53225, "▁recurrent": 35760, "▁parties": 7241, "Too": 47415, "Anim": 24863, "ste": 18854, "rites": 27020, "参与": 4560, "he": 15271, "▁freedom": 6798, "ALK": 42467, "▁loaded": 13292, "▁уни": 35310, "▁fixture": 37061, "形": 5692, "荔": 10425, "earing": 12502, "kov": 27914, "installed": 48663, "▁CONDIT": 33995, "▁disgrace": 56937, "在上海": 33474, "Again": 50023, "▁hostility": 55487, "拂": 6147, "同情": 36656, "▁economically": 34642, "▁AC": 12663, "胚胎": 45022, "▁Eyes": 41969, "Archive": 43490, "▁kit": 12437, "propag": 40090, "卖家": 42703, "▁lur": 32389, "▁Shape": 45671, "斜": 6581, "diamond": 58272, "nBlog": 56828, "未": 6818, "Hey": 19978, "▁ist": 44221, "▁cervical": 58502, "宁愿": 47034, "纷纷表示": 32124, "▁declined": 17571, "试管": 43820, "entia": 39537, "▁negatives": 48284, "}}{{\\\\": 55108, "news": 2437, "体能": 48453, "懦": 6008, "joy": 16381, "nbl": 28360, "▁март": 51766, "▁\\\"%": 31824, "▁antibody": 53145, "标": 6954, "▁symmet": 5666, "▁surely": 13468, "zip": 19147, "李某": 21504, "d": 73, "▁Chelsea": 24304, "規定": 16874, "▁bold": 14325, "▁Vick": 42911, "Modified": 52118, "▁answer": 3886, "樱花": 47650, "uty": 8107, "▁DUI": 58152, "离开了": 26408, "奋进": 33901, "uously": 43363, "潮": 7894, "作品中": 55132, "vely": 9096, "▁Meta": 33799, "▁Each": 6431, "桃": 6981, "figures": 15628, "▁critic": 7796, "根据自己的": 56277, "reach": 20737, "▁package": 5939, "充分肯定": 37676, "在学习": 40653, "gtk": 43552, "▁prototypes": 52308, "neach": 31670, "距": 11622, "▁awaken": 32374, "▁expected": 3309, "жно": 46570, "▁protocol": 9839, "Selected": 25850, "节省": 26670, "▁probable": 29028, "局势": 30405, "nsaid": 34034, "▁Currently": 21290, "▁linear": 5269, "▁machines": 10643, "▁separately": 15418, "colsep": 49022, "arriers": 58786, "▁LOL": 27785, "无偿": 46634, "▁цър": 45402, "中共中央": 19403, "▁Menu": 29772, "▁kidn": 27759, "今天是": 44281, "事儿": 29708, "ehicles": 54960, "和": 4177, "id": 15580, "立足": 20590, "Bern": 54309, "cub": 38540, "ら": 2410, "当下的": 46463, "▁mantra": 45566, "▁HashMap": 47713, "普": 6713, "咬牙": 59007, "的信号": 59361, "半小时": 32245, "igation": 6409, "成年": 19120, "▁/></": 36855, "тру": 46500, "买卖": 17017, "qi": 40400, "▁kn": 946, "▁Among": 16348, "注释": 57381, "▁Lap": 56624, "露": 12753, "Body": 18615, "长时间": 14053, "小时候": 19463, "▁construed": 54903, "的区域": 55937, "bris": 24076, "errors": 21431, "县的": 48070, "音响": 52177, "的专业": 24913, "ff": 16298, "催": 3547, "▁assessment": 12132, "▁ceilings": 48859, "▁appoint": 7691, "ги": 8594, "▁sky": 8697, "ranking": 50341, "male": 44312, "pose": 2582, "▁depicted": 20007, "报名": 10619, "▁sustainable": 14652, "圣诞节": 50745, "就会有": 43327, "au": 15491, "在西": 46713, "▁proto": 28654, "▁\\\\\\\\\\": 2289, "万美元": 22836, "bg": 21058, "贫": 11548, "▁XV": 56642, "клю": 25563, "phan": 17610, "没关系": 47416, "aber": 55237, "▁sits": 17172, "▁cast": 5881, "教材": 17797, "ributable": 58464, "branes": 37618, "不就是": 54829, "▁Pride": 34442, "引导": 7761, "▁че": 11970, "新华社": 45933, "imeters": 48142, "continue": 20816, "后来": 5691, "▁^{\\\\": 32472, "<br/>": 48, "schedule": 45290, "Journal": 40523, "verts": 30584, "▁workaround": 50665, "体温": 23715, "▁thick": 6758, "▁Solar": 22013, "▁ounces": 44582, "atterson": 41891, "<0xA8>": 473, "▁fringe": 42966, "евруари": 58274, "▁flying": 12063, "▁show": 1224, "高校": 10243, "▁merely": 11765, "Num": 15774, "nCOM": 43725, "濒": 7944, "lift": 29907, "▁intact": 26759, "旋": 6608, "nsl": 48955, "▁Fox": 11433, "▁popup": 58271, "▁Corollary": 29216, "▁MIN": 35034, "▁united": 27506, "nhow": 25543, "奉献": 15475, "ntotal": 52519, "▁ха": 53027, "<0x94>": 453, "优": 3325, "abetic": 42777, "障碍": 13613, "▁Dog": 14383, "原地": 41863, "▁identification": 14598, "Friday": 26282, "不顾": 29126, "▁measurement": 8942, "nOctober": 27754, "姥": 4989, "山地": 55574, "倪": 3491, "Li": 18629, "▁polite": 31081, "伞": 62479, "ões": 47098, "核": 6974, "untime": 14459, "滇": 7806, "cast": 3764, "▁Log": 8354, "▁unsure": 30403, "▁virtually": 14998, "最初": 16921, "▁sixteen": 45539, "Until": 54288, "抛": 6125, "▁slated": 39250, "scores": 48567, "－": 14213, "牢记": 23576, "blems": 22339, "▁adopts": 58932, "inth": 16231, "▁Dim": 58721, "财经": 19105, "__&": 53850, "▁keep": 1727, "的家庭": 25518, "ighed": 24429, "▁Vit": 27845, "nfirst": 26431, "汗水": 33411, "▁gripping": 58765, "angers": 11114, "▁hob": 31605, "将来": 18075, "▁piles": 46360, "原则上": 45366, "加": 3845, "ome": 16393, "诚实": 42201, "习近平": 31620, "两队": 59131, "▁Mult": 11141, "正好": 19749, "▁Drugs": 54054, "▁iii": 56465, "幅": 5524, "▁editor": 7692, "REG": 26266, "▁YA": 56299, "official": 30332, "新型的": 24298, "话说": 21061, "最关键": 55707, "vendor": 33856, "耿": 9988, "▁glyph": 49691, "▁Action": 13776, "怎么看": 51310, "行使": 33603, "叹": 61679, "始于": 48287, "*)": 21112, "▁inert": 26887, "▁Why": 5674, "кс": 21863, "▁Russell": 20339, "cells": 43850, "电容": 37071, "路灯": 48736, "吾": 4123, "urance": 4264, "▁doll": 5121, "一般是": 39485, "▁MIL": 43046, "eep": 10741, "要坚持": 39510, "osis": 8209, "тре": 40393, "一度": 17554, "▁Excel": 27410, "trip": 42005, "凝聚": 18539, "▁hour": 4993, "▁gardens": 24198, "venile": 32325, "vil": 47482, "都在": 6967, "--\\": 10980, "imir": 26889, "交所": 33409, "VERT": 37973, "дин": 23133, "ETER": 47378, "▁followers": 17032, "▁Ctrl": 48274, "▁arrangement": 17426, "Idx": 56398, "colhead": 32703, "▁fat": 5700, "zone": 15256, "各式": 42742, "这样一来": 48720, "直接": 15978, "▁Browser": 50295, "ilings": 45782, "组织": 2724, "小儿": 40831, "\\\\`": 55931, "耽误": 38151, "赞美": 39590, "▁meanwhile": 30566, "▁Super": 7017, "plt": 13603, "几天": 11131, "▁loving": 12372, "一个是": 24947, "▁Kurdish": 56013, "nStart": 19072, "tlog": 38205, "outing": 15713, "ombre": 43362, "▁pastry": 50177, "▁datas": 4913, "▁grounded": 33165, "红包": 33460, "可用": 26009, "缅": 9843, "委員會": 15475, "月起": 47971, "燥": 8204, "充满": 8370, "组合": 9955, "ство": 9261, "−\\": 36153, "DNS": 56728, "▁Sal": 8404, "ypically": 47581, "管家": 49056, "alaxies": 46398, "▁pushing": 12629, "▁instantaneous": 39615, "讼": 60797, "未成年人": 26859, "长期": 6243, "arcsec": 34240, "取代": 16605, "km": 17456, "<|unused005|>": 150, "安排部署": 38923, "Co": 17366, "notch": 57470, "boat": 32199, "\":{\"": 10557, "▁Where": 9507, "cols": 35923, "▁neighbourhood": 27841, "ORM": 15293, "折射": 50091, "▁detectors": 23441, "这其中": 51693, "▁rig": 9572, "去除": 26997, "elyn": 52295, "▁driver": 6456, "窑": 9281, "严格落实": 33963, "▁Num": 57840, "媒体的": 55266, "过硬": 55002, "▁Calcul": 39326, "▁fan": 4841, "▁miss": 2917, "▁Font": 38628, "斥": 6586, "结果显示": 50719, "image": 6205, "步骤": 10673, "▁Forward": 36149, "就是一个": 23197, "▁leaders": 4374, "▁struggles": 20795, "▁exhibits": 21779, "流出": 36471, "igan": 8485, "全文": 41035, "一般人": 45039, "雯": 12719, "▁now": 1216, "conscious": 19112, "调控": 25672, "▁bour": 41839, "▁Anna": 23325, "▁CMS": 32277, "疫苗": 17693, "March": 33307, "▁laughs": 35584, "一阵": 22905, "比较大": 37877, "易": 6654, "肪": 10040, "display": 6792, "<0x62>": 403, "▁heightened": 50346, "Customer": 39959, "▁bun": 31894, "<|unused128|>": 273, "痛风": 54719, "▁analogy": 26547, "<0x96>": 455, "▁asks": 12374, "員": 4232, "入住": 29346, "▁bouncing": 44333, "▁mileage": 37697, "textsuperscript": 52372, "seg": 38694, "▁empowering": 47996, "▁notification": 21076, "饭店": 30321, "Warning": 38210, "▁quadrupole": 54764, "維": 9678, "晚上": 7446, "▁Fun": 15441, "運": 11923, "▁Grim": 47262, "韩": 12827, "的一系列": 47348, "▁beds": 20165, "▁electronics": 20618, "妊娠": 36442, "▁opposite": 8472, "entials": 14506, "菲": 10492, "▁FG": 59037, "▁Examples": 28253, "vi": 17716, "真情": 35152, "▁resp": 1782, "▁charges": 7710, "bor": 7447, "▁beta": 15788, "指挥部": 32612, "七条": 43833, "的白": 29937, "▁Pl": 2141, "ут": 30568, "▁chromosome": 59556, "表示": 15542, "cker": 15792, "说不": 20488, "Pat": 25507, "抑郁症": 37364, "世界上最": 38000, "宫殿": 59562, "▁Robertson": 43748, "graph": 8699, "厨师": 49260, "▁chefs": 44275, "ил": 18948, "▁Cheap": 42615, "杀菌": 48479, "▁isotropic": 28649, "&": 11, "周岁": 31868, "ARM": 37326, "疫情防控": 8174, "}\\\\\\\\\\": 7213, "西路": 50489, "▁cs": 43738, "北": 3913, "干旱": 52398, "短线": 30831, "▁beginnings": 47406, "to": 15318, "▁Assembly": 17616, "上方": 25596, "Condition": 37549, "▁traged": 20353, "▁massively": 46698, "翟": 9938, "bbox": 47907, "料的": 42144, "▁Caesar": 44731, "}{{\\\\": 26192, "特质": 47687, "▁microsc": 24299, "▁Kos": 30798, "hr": 9866, "elves": 55897, "▁Biden": 45076, "Mw": 10209, "Mjg": 57550, "括": 6178, "▁professions": 55204, "▁winters": 56867, "ommod": 44625, "amaha": 52498, "aga": 15479, "▁musicians": 19821, "ODE": 11419, "▁rebell": 34136, "▁Shakespeare": 30681, "Panel": 20279, "sight": 20355, "▁allowed": 4634, "▁Grill": 46916, "emale": 22482, "▁bab": 10831, "▁screwed": 32605, "加密货币": 51119, "▁Animation": 48687, "检修": 38356, "而对": 55262, "▁Bears": 27702, "▁Powers": 42922, "▁Mon": 4411, "ems": 8162, "zes": 15190, "▁Mae": 48996, "有关规定": 35251, "▁celebrates": 37020, "袖": 11018, "你有": 27167, "见面": 19988, "▁vandal": 56836, "▁inappropriate": 23214, "▁nic": 9087, "▁WC": 58352, "启动": 8531, "▁plurality": 30594, "questions": 9349, "▁Eye": 26429, "nAppl": 46703, "▁Hughes": 33395, "商圈": 53584, "▁trusty": 52666, "▁Santos": 58560, "▁antibiotic": 54195, "<0x48>": 377, "▁besides": 16923, "▁perceive": 31843, "得太": 36902, "▁:)": 17284, "▁celebrations": 36174, "▁ideally": 35876, "<|unused055|>": 200, "的发生": 20410, "直言": 42809, "天天": 16344, "However": 16899, "▁luminosities": 51818, "▁tracker": 39709, "江北": 53642, "▁logic": 11547, "▁triangle": 20270, "▁drastic": 41465, "dff": 58846, "▁Member": 17625, "▁Palestine": 36246, "话": 11396, "没钱": 43668, "nBottom": 57480, "<|unused118|>": 263, "▁promising": 15519, "会的": 14856, "▁crosses": 29953, "▁Membership": 47224, "▁congrat": 28897, "村": 6844, "▁neatly": 47896, "姚": 4983, "▁mor": 2882, "丈": 3129, "▁Musical": 53269, "▁advantages": 14399, "▁pulses": 27758, "角落": 25231, "▁blogging": 19302, "reme": 5531, "是什么": 7227, "FET": 53616, "▁negligible": 23173, "[]": 6039, "▁Dark": 12749, "的脸": 30662, "▁cumbers": 58794, "▁superhero": 31421, "车轮": 58514, "▁suffix": 46429, "rac": 1026, "▁appropriate": 5915, "rino": 40719, "肚子": 22280, "▁Д": 7964, "heart": 16172, "端的": 25322, "ahl": 26867, "农户": 24566, "▁Shel": 20113, "stuff": 46012, "也不敢": 47043, "DIT": 13092, "sted": 48113, "手中": 20337, "都觉得": 50287, "就能": 7886, "债务利息": 40381, "弛": 5649, "ū": 256, "公积": 42316, "▁babe": 47618, "Gs": 21659, "▁manufactured": 22124, "Owner": 50521, "官员": 18195, "▁factories": 34262, "▁Chaos": 51651, "韓國": 16020, "▁Emp": 13921, "愿": 5929, "ODU": 17462, "纸质": 50407, "ocaly": 55750, "tas": 55962, "辗": 63837, "▁mas": 9974, "▁missing": 6218, "MER": 33556, "nyear": 53387, "though": 2715, "指引": 26243, "疹": 8702, "nces": 3595, "ographical": 23151, "▁nonlinearity": 57912, "▁tune": 16243, "人就": 56292, "ka": 6478, "▁cr": 2021, "▁eval": 4106, "▁Blue": 9089, "两位": 17028, "=\\\"{{": 20278, "▁Stew": 20403, "▁thirst": 36739, "вежда": 39223, "主教练": 55799, "▁Century": 22603, "獲得": 16152, "甚至会": 57863, "只有一个": 32817, "▁bought": 6174, "▁microphone": 31152, "辅导": 14865, "ex": 16352, "laws": 37733, "领取": 23177, "含有": 12793, "▁waterfall": 51816, "▁Purple": 43264, "第二届": 39904, "阶梯": 53226, "▁conveniently": 30821, "prove": 17448, "criptions": 35263, "▁Br": 7000, "相当": 8298, "▁byte": 19108, "jo": 9522, "facing": 47130, "住房": 13462, "Mil": 55798, "▁interviewing": 46548, "①": 1834, "<|unused096|>": 241, "MO": 10660, "PY": 31984, "最早的": 55068, "应急处置": 56684, "光大": 49476, "▁Georgetown": 52890, "凭借": 16205, "能为": 37493, "▁IRA": 47044, "▁lanes": 27016, "昭": 6671, "华人": 27772, "平米": 37602, "})$\\": 41765, "▁myriad": 36346, "false": 9113, "工程的": 53651, "<|unused029|>": 174, "▁Kentucky": 19460, "Users": 21893, "potential": 33430, "▁Mag": 6028, "入户": 30158, "rier": 7829, "<0x26>": 343, "▁analyst": 21529, "▁Fuck": 38659, "瞻": 8963, "变得更": 47540, "▁effective": 3865, "今年": 3830, "\\\\&": 37124, "▁lasting": 20240, "▁Mant": 56772, "ampoo": 38280, "▁anger": 14922, "▁tar": 18920, "▁placebo": 47661, "▁predator": 57569, "npotential": 43507, "ason": 1414, "职责": 13721, "一堂": 47475, "真诚": 22235, "'{": 52834, "▁franchise": 14805, "WI": 32849, "▁cinematic": 49995, "包容": 24598, "驱逐": 44474, "ium": 17200, "mathscr": 13577, "version": 6370, "侦察": 55225, "▁Update": 15209, "刑法": 25505, "MENTS": 41681, "欺": 7301, "proposition": 18169, "▁ev": 921, "批发": 33136, "一致": 18857, "oref": 35953, "酸": 12100, "▁subscription": 16158, "女人": 17137, "▁systems": 3166, "Mal": 30837, "图纸": 51349, "ilbert": 15630, "▁gold": 5620, "batim": 34162, "走向": 16908, "▁pleasing": 38052, "招牌": 17763, "▁upheld": 54993, "}=(\\\\": 57778, "系统性": 59251, "▁partially": 14643, "ito": 13933, "▁compelling": 19008, "電視": 15268, "▁reluct": 23493, "▁speculation": 25023, "失误": 31043, "▁longtime": 30671, "▁Lauren": 37535, "▁iterate": 56780, "▁differentiable": 46758, "format": 7431, "▁plumbing": 31593, "prehensive": 43965, "▁openings": 40441, "▁burns": 34932, "urs": 2477, "container": 13579, "Go": 10098, "MzU": 6667, "希望大家": 34998, "▁urine": 33284, "$\\\\": 1552, "мина": 35033, "▁Flickr": 45287, "▁HOT": 55806, "tone": 15737, "★": 1902, "▁staple": 36575, "▁minded": 37596, "党群": 59091, "▁relic": 54894, "部和": 39217, "bed": 6167, "该怎么": 38530, "▁bowls": 43136, "看出": 14279, "ised": 2057, "▁incor": 6465, "▁Fiction": 40463, "均在": 54696, "А": 532, "phant": 14337, "virtual": 19805, "▁configurations": 14417, "}`": 26338, "配件": 36233, "TEM": 58777, "KY": 56976, "边缘": 19889, "ят": 11044, "▁enjoyed": 8066, "Blue": 26638, "elebr": 56099, "notice": 49797, "受众": 49517, "佬": 3378, "▁mismatch": 44005, "isation": 6575, "激励": 15284, "▁LI": 19895, "面對": 18338, "封锁": 44444, "otypical": 53216, "▁Appendix": 16745, "▁termination": 32772, "据说": 21926, "▁Partial": 57537, "raz": 4616, "oha": 58295, "请教": 45704, "▁Venezuela": 35704, "▁Noble": 40233, "▁IBM": 22233, "Attr": 37472, "▁QU": 45038, "▁retiring": 44885, "▁demons": 36171, "▁Germ": 4667, "再把": 57340, "▁betrayal": 52526, "▁subdivision": 54661, "实习": 16191, ")*": 10424, "след": 21938, "▁minors": 40646, "生化": 52356, "[\\": 6044, "assisted": 59481, "▁must": 1800, "Bound": 33617, "▁comic": 13854, "auty": 48078, "▁reasons": 5201, "▁laughed": 22837, "▁slaught": 58462, "▁Visitors": 55321, "OW": 4710, "▁selves": 58650, "合作社": 24232, "八": 3653, "学生在": 33629, "▁Hartford": 59083, "供电": 24868, "惩": 62154, "▁embodiments": 43152, "恪": 5828, "个别": 26940, "毫不犹豫": 56040, "▁digestive": 43462, "But": 5361, "+\\": 10836, "还没": 13557, "函数": 17656, "▁upset": 13595, "▁age": 3222, "工委": 21415, "nproblem": 46513, "braket": 58394, "simple": 20828, "▁meals": 13815, "▁quiet": 8047, "▁TIME": 30429, "端部": 53736, "Radio": 38776, "▁Fund": 10733, "sal": 20189, "准则": 32203, "民办": 34153, "▁frustrated": 20420, "对应的": 23930, "监局": 42719, "精神的": 36284, "党风": 40083, "CG": 23814, "Former": 56471, "腌": 10126, "辩论": 33891, "▁traumatic": 45357, "<|unused138|>": 283, "▁Aurora": 43777, "Behavior": 53629, "▁Lieutenant": 53426, "▁Charge": 44003, "LICENSE": 29828, "▁substrates": 54297, "自定义": 57264, "行程": 20304, "▁axi": 36009, "但他": 18652, "▁импе": 53833, "▁Simpson": 31534, "род": 45613, "段时间": 13615, "avelength": 12783, "textrm": 8890, "▁Deep": 17762, "|_{\\\\": 34224, "Expression": 26727, "ño": 55441, "老人的": 37134, "加坡": 15988, "正处于": 47818, "▁charact": 2106, "▁triggers": 28792, "downarrow": 16959, "▁cmd": 32903, "宠": 61819, "湿度": 36398, "的一种": 9664, "▁reporting": 10531, "aming": 6054, "▁Mu": 14593, "要强化": 55829, "▁broker": 20985, "▁Guarant": 38019, "▁progressively": 46158, "rowave": 19675, "文化艺术": 52516, "Nov": 40642, "▁Mate": 45975, "人性": 24892, "▁diffuse": 34839, "senal": 21539, "▁indictment": 46327, "年前": 8292, "的形象": 41680, "front": 10466, "vantages": 54190, "日上午": 12410, "▁cocktails": 43858, "tN": 44022, "给我们": 17071, "ifiers": 15990, "▁race": 5037, "▁hubby": 44851, "▁进一步": 53534, "进行分析": 48681, "仅仅": 12995, "▁ft": 21522, "▁twitter": 25197, "选题": 49032, "▁Pig": 46268, "}": 98, "臭": 10219, "▁section": 3099, "Video": 20810, "烷": 8086, "inement": 19823, "azure": 27368, "uchy": 36895, "直达": 56614, "质量和": 47146, "▁immediately": 5322, "怎么说": 39765, "▁invalid": 18753, "▁juices": 44287, "Ord": 51562, "(\\\"[": 53654, "▁casinos": 34909, "jac": 31642, "Alignment": 47116, "秧": 9207, "▁IMP": 42346, "ites": 3337, "▁Time": 6494, "mapsto": 18743, "▁Wong": 53036, "▁publication": 12690, "▁penal": 16620, "忙着": 40995, "▁household": 11242, "消灭": 34704, "oura": 4065, "\\\\[\\": 8037, "▁comparing": 14193, "▁Wednesday": 6224, "▁hott": 26881, "▁triangular": 36124, "supported": 28207, "吃的": 15741, "▁glaring": 58244, "▁Cle": 8010, "ariju": 12493, "▁lamp": 25032, "waukee": 29134, "itched": 31918, "空间的": 42512, "asms": 51238, "▁Commun": 6036, "▁suffered": 12946, "gments": 10166, "float": 8309, "proton": 51153, "▁League": 7203, "hbar": 12283, "yi": 35862, "goal": 39766, "解除": 15773, "▁sovere": 23473, "外交部": 43231, "cents": 38419, "▁cartoons": 41746, "script": 4885, "没有那么": 52657, "▁wr": 1666, "▁Commons": 25431, "▁Mason": 26366, "▁attribute": 14863, "▁transferring": 34627, "加强": 4362, "▁trainer": 24964, "賓": 11497, "rou": 793, "▁cookies": 9286, "▁Label": 28870, "入睡": 46041, "▁SAT": 39384, "些许": 57969, "ausible": 26476, "▁inst": 1276, "▁Julie": 34056, "治疗": 4118, "ondon": 5183, "▁Remark": 36084, "▁mock": 14158, "汽车的": 50962, "▁Inspector": 50364, "返还": 24206, "<0x33>": 356, "▁judgement": 30975, "▁met": 1962, "端午": 24990, "nLa": 26958, "];\\": 5810, "阮": 12606, "bing": 12608, "线圈": 56703, "▁alliance": 27395, "▁stereo": 31264, "vv": 33694, "flux": 36968, "rak": 31242, "▁Rails": 53239, "▁optim": 4733, "猫咪": 33233, "产地": 41042, "nCar": 23099, "sole": 6651, "components": 19818, "▁accept": 3332, "硕士学位": 58725, "宣言": 51187, "▁Marie": 28577, "rint": 27828, "▁elderly": 21381, "▁approximations": 29360, "▁suppression": 28391, "▁needle": 27455, "▁Pan": 10568, "前者": 32940, "▁--\\": 33203, "arser": 18276, "ioned": 15856, "回来": 9966, "日均": 55853, "有许多": 32549, "談": 11268, "jan": 22857, "▁opts": 40862, "ilst": 12156, "▁cad": 29140, "IO": 9702, "igned": 4585, "MR": 10845, "▁completeness": 30682, "▁Romney": 18534, "用的": 7686, "▁terr": 14198, "妈妈": 4871, "▁replica": 33482, "▁loft": 47709, "Desc": 34042, "▁ethical": 21373, "的情感": 49934, "拟": 6173, "gmail": 23535, "nConvert": 56083, "▁faith": 6156, "亿": 3264, "目睹": 56880, "meg": 36075, "ostat": 41216, "▁detecting": 27819, "家族": 16727, "▁highlight": 8201, "▁peers": 20042, "▁samples": 6472, "addresses": 50908, "▁talented": 14639, "陣": 12639, "▁Hal": 20069, "自行车": 19521, "的人们": 25988, "▁outlaw": 52229, "▁cheering": 47319, "丰富了": 52715, "▁opinions": 9896, "▁proved": 9626, "让其": 49135, "市政协": 58614, "▁underway": 29111, "▁Lego": 51032, "vance": 18601, "伸手": 40327, "Replace": 48097, "甘肃省": 42878, "hour": 12600, "▁Scale": 40763, "although": 18296, "▁spaces": 8860, "▁Ukrainian": 36827, "nspin": 50585, "α": 478, "nSize": 44532, "龙江": 22363, "nmon": 37831, "Chapter": 44345, "▁oval": 55974, "}}^{\\\\": 23880, "▁clown": 57907, "onna": 9108, "▁visuals": 42411, "为之": 31680, "▁Article": 20292, "roy": 5756, "DIR": 20654, "ifiable": 23603, "▁staring": 26703, "茄": 10378, "▁Detective": 52454, "内心": 10028, "▁pitching": 28524, "Bigg": 27118, "▁diminished": 42955, "▁fountain": 44087, "nProcess": 50179, "盾": 8869, "回流": 50870, "askell": 51807, "}\"": 17617, "riculum": 17363, "▁  ": 51425, "▁sensitive": 9860, "长了": 35467, "cht": 31028, "▁brane": 50832, "round": 1114, "作品的": 43473, "你没有": 50961, "▁cong": 51764, "▁inducing": 58832, "▁test": 1682, "一天": 6896, "厦": 4004, "里有": 29887, "<|unused057|>": 202, "▁Added": 27133, "▁oppression": 39303, "热门": 25238, "▁supposed": 6426, "ulas": 21379, "CN": 17690, "苗木": 51204, "▁wish": 4867, "队员": 13163, "nThursday": 16583, "▁Photography": 36027, "▁usually": 3502, "努": 3851, "▁ful": 37435, "UTF": 28557, "){\\\\": 14703, "别": 3781, "▁FCC": 31849, "也不要": 28770, "代会": 48509, "amie": 51207, "nblock": 55078, "完了": 17595, "包裹": 28267, "ards": 2119, "▁Healthcare": 34249, "二字": 47742, "▁machinery": 29880, "就觉得": 50150, "▁ADHD": 53388, "▁Eh": 49414, "し": 2361, "asy": 5243, "като": 56888, "▁JSON": 19501, "助理": 18858, "▁ana": 51030, "武汉": 10165, "nHome": 31788, "вен": 15591, "prior": 48463, "商量": 31600, "▁disastrous": 41535, "nDavid": 21979, "合计": 21174, "adic": 29842, "distributed": 49654, "陈代谢": 51095, "mutex": 52759, "▁afflict": 56321, "П": 547, "▁cones": 48940, "▁Halo": 41704, "吃药": 51535, "▁apart": 5104, "公平": 13944, "aste": 8581, "期望": 18920, "填补": 45507, "▁McCoy": 56776, "Stop": 24330, "顶部": 33278, "nHam": 44156, "竿": 9337, "▁Kate": 21393, "гле": 53889, "▁divorce": 18320, "书店": 35373, "▁Pok": 26441, "▁Hopefully": 20792, "▁mobility": 20862, "reson": 44299, "▁voluntarily": 46668, "nW": 993, "nThis": 1683, "ety": 1921, "▁exemplary": 47453, "焦": 8106, "▁Matt": 11789, "都得": 17825, "Measure": 39757, "▁opener": 29242, "nNeed": 32033, "зда": 27122, "mcited": 41270, "反向": 54601, "▁depends": 7100, "bish": 35849, "▁exec": 3761, "▁definition": 6387, "工商": 14996, "rvert": 50496, "▁Debug": 48427, "▁Parad": 30771, "的机会": 13591, "▁Inner": 49774, "▁Wh": 1910, "之气": 57851, "NDI": 28595, "▁Allah": 22546, "丧": 61776, "▁royal": 21293, "▁сто": 38636, "▁maritime": 50254, "Report": 24303, "▁artwork": 20195, "▁styling": 36475, "four": 21188, "▁writ": 2342, "nder": 4078, "▁urging": 37790, "nnamespace": 13472, "nPre": 15435, "▁residing": 36864, "▁日": 28128, "机油": 51049, "▁company": 2165, "并不能": 28450, "дето": 36332, "▁novel": 5681, "▁Не": 34957, "能量的": 49550, "招募": 39922, "市委常委": 51120, "▁daytime": 47644, "▁controllers": 31608, "有大": 33683, "▁lif": 4916, "▁Pand": 31291, "▁Actions": 54655, "ABS": 54178, "恩爱": 53708, "ylene": 51293, "铸造": 51582, "▁Gap": 50636, "久": 3182, "美军": 25787, "非常大": 48309, "lt": 15558, "点和": 44471, "基本面": 42150, "▁villages": 26382, "mor": 34173, "qr": 49281, "例外": 30413, "<fim_middle>": 15, "long": 6236, "agger": 7037, "нуари": 48888, "爱心": 13444, "▁фон": 35302, "学会了": 34633, "▁reasonably": 18755, "网格员": 56499, "▁vague": 28785, "春夏": 55464, "床": 5560, "hma": 31581, "▁barriers": 22063, "iman": 36854, "▁Expected": 52573, "璀": 8534, "新区": 12815, "urt": 4627, "▁Sarah": 16016, "以太": 39256, "Created": 32688, "ocular": 40848, "Microsoft": 22933, "BW": 54352, "”“": 6641, "Sing": 36528, "▁picking": 13545, "▁prop": 5306, "付清": 47276, "Platform": 36148, "杠": 6855, "▁practition": 20281, "Reply": 33911, "nassociated": 53580, "前行": 22088, "nThings": 37859, "▁jumps": 24864, "nY": 1931, "pots": 47298, "▁shortcut": 35039, "结束": 6011, "▁massless": 37670, "生产": 3058, "▁electrical": 13424, "▁Responses": 49849, "工作会议": 29536, "▁Tot": 41836, "些什么": 31818, "jump": 55743, "汽": 7475, "交往": 19217, "▁shaking": 30515, "▁Prepare": 54347, "腳": 10147, "▁Vir": 8169, "继承": 16309, "▁molecule": 24748, "black": 9818, "▁Ed": 3884, "▁rend": 10304, "▁Rat": 23210, "戏剧": 24192, "eng": 17488, "rinsic": 56379, "的成本": 44192, "漲": 7867, "社區": 16712, "▁herself": 8687, "▁odor": 45978, "<|unused130|>": 275, "hemer": 57559, "性质": 15313, "▁Nokia": 34931, "▁===": 10850, "▁automated": 18731, "▁dedicated": 8013, "▁thinks": 10253, "短板": 28565, "這": 11894, "Hel": 11316, "hind": 22666, "黄山": 57827, "▁Consequently": 24403, "评分": 27875, "的不是": 44740, "▁>>": 15172, "在任何": 55005, "Ball": 51785, "push": 11104, "年期": 42382, "▁including": 2011, "hline": 3501, "▁developers": 9977, "iton": 24872, "呼": 4161, "bel": 8331, "brace": 18878, "mmas": 49186, "实地": 15896, "▁transport": 5831, "处理器": 25829, "公斤": 21836, "防": 12610, "enz": 19096, "▁parsing": 35323, "随": 12662, "▁lip": 17453, "alph": 24167, "那年": 35846, "跌": 11613, "▁Avengers": 44986, "使者": 57086, "<0xCC>": 509, "nResearchers": 55282, "雌": 12699, "年间": 27047, "▁Netanyahu": 47791, "▁im": 858, "集结": 45796, "将领": 55547, "interest": 14409, "▁scaled": 25475, "▁ST": 5073, "▁Blind": 53665, "属地": 55023, "Snapshot": 55654, "hold": 4692, "asures": 19464, "▁queries": 19162, "▁wafer": 57600, "檢": 7243, "兹": 3664, "天气": 9468, "nsecond": 45194, "▁threats": 14828, "▁examples": 6289, "seq": 19440, "▁Lounge": 48569, "▁tunes": 33506, "动了": 30985, "&=\\\\": 22815, "安定": 48235, "▁quote": 11349, "Apple": 25512, "情绪": 6751, "xy": 5402, "凸显": 29273, "听着": 32597, "▁unpar": 50835, "藕": 10715, "他所": 46711, "八十": 36104, "▁dance": 9460, "媳妇": 25115, "izzy": 49716, "numpy": 45776, "弄": 5632, "gered": 15865, "uces": 41186, "▁dental": 20230, "▁Knowledge": 30206, "专班": 55180, "纤": 61509, "整齐": 27083, "谣言": 48238, "紫外": 39780, "给你们": 49549, "uster": 8386, "爷爷奶奶": 51713, "交通大学": 51363, "}}-": 33945, "立案": 21158, "胡萝卜": 29721, "▁Princess": 25575, "名利": 56814, "▁sacrific": 23377, "▁Elite": 34658, "iances": 19179, "bz": 47033, "lain": 58749, "▁CO": 10026, "▁sings": 46528, "七个": 47189, "叉": 4026, "ailure": 20713, "上限": 40621, "▁lemma": 20329, "displaymath": 32740, "兰": 3657, "▁sides": 7528, "▁hath": 50419, "▁spokesman": 17119, "▁Questions": 23294, "▁doomed": 43793, "▁histories": 38308, "举办": 8128, "坐着": 38199, "身子": 40358, "的所有": 24180, "的生长": 55008, "group": 5899, "tv": 15296, "没有一个": 45666, "<|unused006|>": 151, "ngra": 47835, "▁rooft": 45461, "▁leaks": 34736, "啤": 4316, "ators": 2612, "▁coil": 32563, "▁examines": 34971, "汇": 7441, "ZING": 56151, "▁Deutsche": 57171, "PR": 4800, "村集体": 48651, "的东西": 10192, "的真实": 48538, "毕竟": 7870, "抹": 6140, "inv": 14207, "▁Template": 33102, "▁commemorate": 59233, "中海": 41180, "Strip": 50224, "▁Acknow": 52478, "f": 75, "▁combustion": 43927, "针对性": 48268, "Clone": 54209, "region": 14989, "▁Tib": 28182, "Details": 24023, "群里": 36526, "$[": 44549, "迭代": 40854, "▁Comfort": 44801, "▁deformation": 26284, "支援": 17726, "其在": 28364, "该剧": 53407, "额外": 35053, "amen": 56342, "ERY": 19390, "芹": 10331, "лото": 20873, "▁semantic": 19238, "▁confirms": 28856, "▁messed": 37720, "牛肉": 15767, "时期的": 31819, "手掌": 58802, "跟": 11623, "相遇": 28224, "studio": 53359, "许": 11384, "中介": 26042, "cycle": 15345, "pha": 1563, "Ac": 19954, "▁\\\\{\\\\": 29283, "stress": 48426, "的一部分": 19272, "呐": 4137, "qt": 36996, "的温度": 52133, "鄭": 12053, "相信": 16891, "▁summarized": 25495, "告訴": 47884, "▁''": 11273, "政权": 36207, "不再": 7989, "▁charts": 20838, "涉及一种": 37203, "平面": 18640, "我当时": 38709, "全校": 33121, "дер": 49266, "fulness": 20736, "▁grat": 18295, "draw": 6137, "Using": 27544, "就如同": 59537, "ief": 4090, "代替": 19033, "▁sensational": 51303, "WORD": 20529, "▁Coul": 24209, "辽": 61707, "▁PSP": 46980, "▁Gand": 31212, "▁HIS": 45594, "▁practice": 4205, "urname": 47563, "▁Res": 2615, "full": 11482, "▁Principal": 41824, "<|unused002|>": 147, "▁▁": 141, "更应该": 59220, "additional": 51994, "▁Oct": 4158, "nProduct": 21774, "▁GPUs": 50587, "server": 10191, "万股": 47354, "最爱": 49134, "讶": 62798, "▁laps": 37694, "nMany": 11248, "Then": 15226, "▁Sector": 52448, "▁helper": 39319, "别的": 12219, "▁nonetheless": 27680, "▁redd": 15153, "的多": 20965, "▁strokes": 38390, "usters": 23366, "▁cracked": 33127, "▁jog": 38531, "新春": 43072, "复杂": 8588, "▁Hiro": 54050, "warning": 33219, "▁USD": 21837, "▁laundry": 23044, "▁goodness": 21770, "▁hyper": 7291, ":$": 41413, "▁profitability": 44380, "▁luminous": 50081, "Fs": 25389, "cock": 28638, "Style": 15130, "房源": 39428, "管理员": 50605, "医院的": 32674, "了一句": 39445, "是否能": 52542, "▁holidays": 15947, "魏": 13215, "ensively": 16083, "ции": 21718, "因為": 15248, "▁paired": 24294, "▁DNS": 28632, "外壳": 42198, "uses": 4233, "奔": 4904, "返": 11848, "cket": 6550, "鸡": 13461, "yers": 38418, "$~\\\\": 32078, "▁hurricane": 37267, "扑": 6073, "监督管理": 36977, "不光": 39241, "懒": 6003, "Tensor": 35732, "ior": 1954, "▁debates": 29398, "最新": 10590, "fuel": 45068, "'+": 29992, "拿到": 15319, "▁hem": 20579, "▁consuming": 23769, "Music": 38016, "€": 1732, "▁metropolitan": 41861, "▁conference": 6892, "QS": 40286, "▁soldier": 22576, "▁suit": 8679, "▁covenant": 52918, "▁reads": 12433, "uda": 21401, "▁pairing": 24561, "什么是": 17234, "▁Championship": 13845, "▁reconstructed": 26749, "▁Balance": 41394, "▁Class": 6948, "▁Hans": 23265, "签名": 28067, "案涉": 58840, "psych": 49720, "▁administrators": 28178, "建成": 13405, "▁fighter": 22146, "拜登": 28276, "战友": 37393, "▁hadn": 12595, "▁vec": 31350, "*\\\\*\\\\": 55503, "<0xE2>": 531, "▁wrestling": 26506, "▁Models": 31630, "给原告": 46998, "Stat": 16589, "▁scales": 11450, "也都": 23890, "▁train": 1916, "▁creat": 2568, "temporal": 47525, "追捧": 53103, "秉": 9194, "pv": 48626, "牲": 8279, "洗脸": 56427, "dating": 40177, "▁discrim": 10259, "▁proced": 5004, "也算是": 46422, "▁Producer": 56971, "neapolis": 34506, "素养": 20744, "▁currently": 3864, "▁actual": 5014, "reedom": 5654, "usc": 39025, "▁deer": 23897, "▁sheriff": 36117, "▁pixel": 13499, "▁връ": 41090, "▁receiver": 13763, "受邀": 52286, "糖": 9563, "▁reconciliation": 41718, "eem": 26629, "資料": 16260, "**": 902, "防护": 14054, "分享了": 43111, "▁obey": 24873, "▁Did": 10906, "izontal": 28965, "▁deductible": 57432, "operations": 58467, "一会": 31134, "青铜": 55378, "▁Rom": 10097, "▁idea": 2684, "▁write": 3469, "▁pools": 28480, "部分地区": 56373, "▁varied": 17935, "▁Hav": 42629, "▁sets": 5203, "▁пъ": 55773, "▁Archae": 59339, "▁inter": 1144, "我区": 44810, "午后": 44069, "ieval": 25761, "即便是": 32225, "▁Shepherd": 50463, "流传": 26065, "oron": 41764, "thread": 13097, "头晕": 44918, "到我": 40994, "▁Sanct": 55014, "▁variety": 5039, "磨": 9090, "▁cost": 2090, "相较": 36501, "apan": 4435, "▁And": 1395, "▁volunteers": 15898, "▁sleeves": 35289, "▁purple": 19046, "ictured": 48745, "isson": 19305, "}}[": 58613, "试用": 52895, "cra": 47161, "mits": 16094, "高温": 18540, "多": 4866, "▁glass": 6140, "olphins": 30531, "frac": 1193, "rics": 6235, "SF": 19543, "nRegardless": 45624, "▁Лу": 39175, "NDM": 51823, "sources": 35606, "尽管": 8808, "过": 11841, "▁calculate": 10082, "▁ang": 3444, "高风险": 47346, "洞察": 52150, "们": 3298, "▁figur": 51128, "消费": 4206, "▁elder": 16658, "▁Ginger": 49101, "▁gesture": 33814, "失衡": 58407, "成交": 11562, "hang": 18716, "▁ETF": 45206, "▁nailed": 55479, "▁paranoid": 48732, "陈述": 20385, "▁ga": 29128, "▁sexy": 14809, "▁Surely": 42331, "▁controversy": 21980, "前不久": 54362, "▁uncovered": 34951, "de": 15415, "▁deserve": 13852, "ndi": 36989, "苹果公司": 37387, "▁намира": 45940, "▁Sou": 48741, "▁poets": 50642, "▁Wyoming": 42940, "語": 11245, "版本的": 54123, "酮": 12091, "▁delet": 33073, "MN": 11094, "老百姓": 20242, "nCongratulations": 53048, "冠军": 11681, "chat": 19572, "operative": 35758, "▁cooperation": 17366, "变了": 36014, "faced": 47518, "心疼": 29347, "IDE": 18385, "nWho": 14721, "<0xEA>": 539, "ocide": 33392, "▁upscale": 55790, "▁accommodate": 19052, "overn": 5175, "▁Everything": 15117, "▁dispers": 28384, "▁MM": 30427, "认真学习": 47849, "nParent": 50884, "▁SME": 54779, "amps": 12498, "ithe": 45710, "市场的": 12334, "柔和": 43418, "而且是": 50045, "nCal": 18309, "无所": 25365, "hent": 7393, "▁analog": 10007, "itions": 1937, "nAP": 58913, "用户的": 28830, "愤怒": 25116, "hetics": 34451, "OTk": 54512, "肤": 60944, "ista": 15216, "9": 30, "ł": 232, "▁complementary": 28799, "▁competitors": 18703, "略有": 43951, "ITE": 15593, "icia": 37587, "▁Peninsula": 43084, "▁sect": 7082, "▁Talking": 50080, "ached": 3705, "工具": 17388, "魔鬼": 46047, "不可": 18260, "nMin": 23081, "戀": 6020, "▁Controller": 29062, "irt": 2890, "nwould": 23840, "▁този": 39225, "节约": 21806, "▁bul": 5835, "▁conven": 6955, "▁agreeing": 35654, "０": 14216, "jects": 37256, "寂寞": 29982, "伊朗": 18580, "json": 1012, "▁proceedings": 23374, "▁scream": 12712, "▁tick": 5658, "米": 9511, "▁somew": 5235, "通知书": 29315, "▁blogger": 22618, "Select": 13423, "lbrace": 42326, "▁Campus": 34057, "与之": 31316, "▁moduli": 44694, "nmodels": 50078, "No": 18251, "的程度": 44268, "人与": 20049, "服役": 54419, "蓮": 10607, "</": 1359, "jen": 44041, "ETS": 45742, "edge": 7156, "▁eight": 5353, "▁indicated": 10995, "▁electron": 4792, "ubs": 12369, "▁polyt": 53336, "ctrine": 21819, "▁horiz": 8410, "简易程序": 49380, "zor": 41450, "▁runners": 27234, "▁cosmetics": 58567, "▁acquisition": 16595, "osities": 45116, "集團": 15777, "师生": 13166, "做一个": 20749, "ina": 17908, "评委": 34844, "encia": 36822, "respond": 2831, "▁adrenaline": 58872, "农历": 38187, "对孩子": 34647, "▁minimized": 44874, "设计": 2958, "▁Gre": 21558, "天内": 49854, "特别是": 9236, "帅气": 47125, "idae": 34685, "▁Champion": 31527, "▁compliant": 40272, "██": 41916, "▁ever": 2239, "acing": 8182, "灿": 8034, "▁unc": 5432, "▁genus": 37636, "但还是": 43758, "▁annihilation": 32848, "▁Coleman": 41260, "esc": 23408, "MENT": 12766, "为大家": 20710, "▁pe": 999, "▁detectable": 46789, "EA": 27199, "▁AJ": 39579, "▁clam": 47286, "虫": 10775, "协议": 6316, "丝绸之路": 53562, "推介": 16755, "}_{{\\\\": 39340, "大使": 29218, "▁sees": 10861, "position": 4115, "remember": 48826, "}]": 8031, "责令": 34167, "▁Edit": 32222, "ope": 1906, "一的": 49174, "▁travel": 3491, "orge": 5190, "病情": 18211, "▁Cole": 19762, "▁big": 1741, "在公司": 51782, "▁pict": 3109, "▁Minister": 8512, "neq": 8447, "下手": 42562, "SDL": 54487, "患": 5853, "天下": 19830, "▁delight": 11872, "nSince": 6336, "▁reload": 46455, "▁Bake": 54237, "峥": 5378, "Observ": 35117, "劣势": 49590, "▁errors": 7073, "▁couns": 45597, "▁Floyd": 42058, "hyp": 36742, "都以": 55159, "▁magazines": 21437, "犯错": 57703, "▁cheesy": 55278, "老家": 25027, "不大": 15858, "跳水": 57826, "注射": 25192, "▁Straight": 49605, "uto": 15999, "▁гру": 28302, "毋": 7375, "▁grant": 6610, "▁Bag": 20870, "nmust": 48504, "低于": 13605, "|$": 15358, "输入端": 56214, "▁brains": 25945, "和睦": 48384, "ymptoms": 52045, "严重": 5476, "▁definitive": 34144, "▁probing": 53143, "悦": 5855, "遥": 11944, "nst": 4544, "大家都": 13403, "nCustom": 23641, "plectic": 37980, "▁brings": 7809, "还想": 47095, "Reilly": 53865, "车道": 29599, "自有": 36472, "Wave": 42054, "▁motto": 46396, "▁lumber": 53095, "均匀": 15852, "尔的": 37784, "▁HC": 47194, "导电": 29091, "Distribution": 52962, "▁compat": 9816, "十三": 16688, "▁atop": 37398, "螃": 10895, "▁Jedi": 46114, "addEventListener": 56112, "▁ket": 40043, "的一切": 15948, "▁мар": 36842, "▁documents": 8008, "▁identifying": 16824, "ATOR": 37449, "рат": 13855, "寻": 5256, "▁eccentric": 28555, "的黑": 36662, "▁WiFi": 25387, "有那么": 51691, "慰": 5956, "反思": 20599, "抉": 6110, "enet": 41406, "▁off": 965, "残联": 57119, "秤": 9205, "化石": 46184, "▁youthful": 46837, "▁fascinating": 17073, "nIng": 47636, "一类": 43210, "}}{\\\\": 8238, "notin": 29457, "大楼": 32627, "运动会": 33659, "bury": 14796, "vertices": 45980, "garia": 52059, "▁bloss": 35084, "赶": 11579, "Bottom": 36180, "$\\": 2313, "▁CAN": 20520, "▁pores": 53867, "▁gel": 23083, "ESSION": 38313, "没那么": 52272, "▁desperation": 54032, "inding": 6870, "▁tackles": 32474, "▁diameter": 15761, "▁Pu": 38174, "claim": 8114, "astrous": 40355, "▁lifes": 38587, "都": 12029, "寥": 5239, "▁swap": 19722, "▁compensate": 31923, "<|unused064|>": 209, "nnumber": 29890, "quez": 38175, "atype": 46870, "ameters": 8878, "▁under": 1189, "▁ISBN": 40044, "管理者": 41212, "PLAY": 48328, "顶尖": 36358, "求": 7439, "▁belly": 24246, "▁spanning": 29892, "頂": 12840, "▁pyramid": 41445, "TV": 15732, "ZA": 49031, "ayan": 34280, "一个大": 38026, "▁Champ": 52366, "不堪": 25045, "▁†": 54014, "▁cylinders": 52066, "▁comfortable": 6681, "▁accidentally": 24870, "真实性": 23355, "ha": 15888, "▁coach": 6670, "za": 17159, "▁academic": 10261, "▁contradicts": 52068, "orde": 38760, "omp": 29026, "▁rotate": 26624, "▁atheists": 37222, "天蝎座": 51825, "▁$_": 37759, "可供": 41435, "钧": 63362, "条": 6856, "▁genes": 17036, "▁thesis": 23613, "适": 11875, "▁Phillip": 46101, "amiliar": 26443, "▁pure": 6668, "妈妈的": 36944, "▁learnt": 30340, "▁$[\\\\": 34587, "split": 1070, "▁Edd": 23845, "irting": 51296, "前十": 50821, "▁calculated": 7432, "maxim": 59259, "而成的": 51264, "小姐姐": 53891, "nStudents": 34089, "▁streaming": 16084, "中长期": 58228, "▁Communication": 30286, "ortium": 36267, "ences": 3767, "media": 12385, "▁Truck": 42238, "风电": 43126, "▁chamber": 18144, "人在": 9006, "判决书送达之日起十五日内": 41880, "▁Berry": 30047, "▁Determine": 47452, "▁pics": 19071, "DATE": 55346, "渔": 7706, "中年": 24502, "分别是": 23096, "▁Videos": 36202, "▁Researchers": 48128, "uh": 12577, "▁dirty": 15011, "▁Crow": 25760, "▁documentaries": 58702, "日记": 27978, "stmt": 40887, "磨合": 59180, "▁во": 11648, "▁prompts": 45169, "▁terrace": 38590, "格局": 14215, "亞": 3239, "操作系统": 42261, "高低": 37316, "行为的": 32488, "ctions": 1654, "以来": 5408, "tlet": 54801, "▁KEY": 34341, "▁implementations": 31390, "▁amer": 26095, "▁suprem": 31693, "Download": 27369, "▁adds": 10153, "bon": 5460, "▁trips": 14976, "<0x02>": 307, "▁results": 1924, "▁flex": 7115, "ARI": 36167, "▁Greeks": 51130, "HG": 59409, "println": 19874, "cribing": 42855, "▁waist": 21592, "冬天": 18024, "▁handling": 12096, "▁nuclei": 23643, "政策": 16382, "▁indicates": 9040, "▁Circuit": 25091, "▁growing": 5275, "wind": 18351, "▁damp": 19867, "sidered": 40952, "nsure": 29476, "sor": 24423, "▁hopeful": 27206, "dimension": 42333, "十几": 21337, "销售额": 30483, "▁distorted": 39345, "带孩子": 40731, "▁summed": 43004, "AND": 9367, "时钟": 54943, "使用了": 33426, "做着": 59237, "]<": 32113, "~~\\": 49075, "收盘": 26143, "▁Holocaust": 33655, "nPress": 44713, "▁alternate": 20043, "nWilliam": 47114, "▁boy": 5576, "ttfamily": 41458, "汇报": 14199, "▁Nice": 25040, "的语言": 35557, "寒": 5223, "▁prices": 5635, "chel": 39670, "▁Pages": 38050, "<0x61>": 402, "uclide": 22113, "掷": 63836, "对这个": 41312, "还真": 37891, "说实话": 36110, "▁ranking": 16117, "▁impedance": 49780, "▁seeming": 59346, "▁Records": 20074, "%%%%%%%%": 13240, "Vector": 15382, "▁stunned": 41120, "方言": 17513, "杀死": 37109, "featured": 59123, "{:": 48398, "▁Wood": 9340, "想到了": 53619, "Input": 9005, "ethical": 57401, "通的": 39244, "▁Astronomy": 56233, "扫": 61142, "gone": 32260, "卡尔": 52002, "触动": 58713, "▁sur": 1427, "的一次": 23546, "动态": 11268, "啊": 4301, "倍": 3469, "▁reconstruct": 17267, "遗": 11933, "为国家": 49715, "Note": 13501, "▁shop": 4203, "衛生": 17340, "▁readings": 29713, "▁Per": 3889, "abled": 5503, "构思": 56117, "不太": 12988, "▁La": 5399, "图": 4597, "深厚": 38054, "LLOW": 56037, "▁involved": 4254, "首个": 28054, "({\\": 12904, "洗衣": 32136, "过分": 33005, "▁Dodgers": 40397, "但现在": 47905, "powers": 50590, "的态度": 18809, "atched": 41257, "揉": 6309, "▁struggled": 20083, "▁album": 5832, "▁detain": 45654, "▁°": 46651, "nlarge": 34940, "航空": 16043, "vation": 16411, "一天的": 53028, "▁dr": 2537, "▁suited": 20440, "避险": 52176, "男友": 24401, "▁Corps": 24829, "一种是": 46716, "error": 2201, "multicol": 7192, "▁newspaper": 12137, "live": 13949, "gregated": 58828, "▁education": 4376, "iga": 26027, "ivel": 49687, "敬业": 37622, "▁McC": 9081, "▁attractive": 11613, "到这里": 38056, "加点": 47589, "▁automation": 25354, "nInterestingly": 45337, "tight": 36627, "公诉机关指控": 58598, "根基": 44722, "▁pudd": 45417, "estones": 41686, "不看": 54847, "sized": 15621, "station": 20930, "▁earned": 10989, "▁citation": 38462, "榆": 7125, "及": 4027, "筷": 9395, "掉": 6264, "▁Website": 20322, "供热": 44589, "▁flies": 27738, "成熟的": 34773, "万多": 45487, "▁Hit": 16704, "天空": 21295, "appl": 13899, "博客": 25069, "管委会": 36538, "ivia": 31211, "訪": 11180, "▁за": 3629, "▁Era": 51806, "玺": 63587, "produ": 6821, "▁allowance": 42312, "score": 7810, "nStar": 43204, "Contains": 44082, "▁Grammy": 54554, "icks": 5284, "▁Churchill": 48218, "▁BB": 17521, "▁vanishing": 28944, "▁slut": 47895, "出自": 18062, "Mom": 42036, "Gra": 37711, "zt": 41245, "▁publish": 15440, "培训机构": 47238, "里的": 5090, "uk": 19032, "完整": 10683, "▁Satan": 32080, "效益": 17070, "nis": 3657, "放假": 36952, "▁Conference": 11470, "▁moderator": 49626, "▁prost": 22354, "所在的": 36351, "▁({\\\\": 19100, "▁sword": 20844, "▁Rise": 44829, "▁Created": 34914, "▁scenario": 8779, "Bind": 37073, "▁Mari": 40342, "▁cooper": 10374, "ussels": 28776, "初级": 35745, "稿件": 42566, "▁mention": 3466, "▁som": 1353, "ented": 6844, "era": 3245, "▁QCD": 20586, "▁kilometers": 36365, "quart": 37216, "▁breathing": 17999, "特种": 34391, "上世纪": 34425, "▁Illinois": 14247, "▁tweet": 15154, "▁Es": 11774, "精细": 35493, "ī": 225, "▁seven": 5807, "数量的": 48677, "Result": 9161, "Le": 16142, "Day": 18827, "nPaul": 26851, "▁Yard": 44272, "ById": 18262, "拿起": 30100, "忽视": 21497, "▁Ze": 19799, "timer": 35197, "绿色发展": 52820, "opyright": 9744, "film": 33124, "▁Natalie": 54264, "<0xB8>": 489, "进场": 41308, "▁vocabulary": 27014, "ernand": 29832, "gregation": 23387, "Feed": 31857, "▁fab": 6860, "Init": 23697, "▁towels": 36497, "无愧": 51897, "冯": 3705, "▁employed": 11379, "▁groom": 27967, "facebook": 22237, "防线": 30993, "▁shutter": 39769, "orst": 44555, "▁measuring": 16301, "▁xx": 50810, "新能源汽车": 23617, "urious": 19490, "▁Marco": 41670, "突出": 9898, "求职": 37724, "<0x55>": 390, "German": 58681, "|<": 37373, "拢": 63061, "▁singularities": 37352, "▁alongside": 13245, "哈哈哈": 39019, "▁specimens": 48828, "▁commissioners": 50446, "redited": 29068, "▁creators": 28482, "▁Secondary": 51681, "Union": 57236, "聊": 9991, "Cons": 17876, "紀": 9587, "▁CW": 37210, "毫米": 19330, "necessarily": 49871, "Double": 24405, "就拿": 53845, "▁bankruptcy": 24036, "iemann": 24425, "nPoint": 50993, "大大的": 50452, "汽車": 17245, "模样": 25614, "Ts": 42561, "▁Ish": 49527, "сия": 32699, "绑架": 41238, "发现的": 37786, "▁#{": 42067, "就在于": 44477, "▁ont": 46765, "▁conversion": 13078, "▁unders": 23273, "jiang": 48377, "yard": 11798, "法定": 18838, "▁tears": 15917, "▁Collect": 25425, "▁Etsy": 52793, "在实际": 56912, "叶片": 28750, "▁selective": 31470, "澤": 7925, "uations": 6263, "线路": 15359, "设置有": 26233, "▁pesticides": 48691, "▁DFT": 44463, "▁incom": 34381, "нима": 53770, "缓存": 46978, "药的": 59032, "ribute": 4085, "▁Portuguese": 34332, "之一的": 31407, "她说": 16946, "▁leasing": 54784, "▁wisdom": 15124, "TE": 7357, "看看": 7653, "▁symmetry": 8815, "▁Scientists": 48104, "▁punch": 17273, "abase": 5480, "据统计": 43075, "的行为": 13433, "介石": 40059, "▁obs": 16207, "国家标准": 58303, "民用": 53375, "州的": 35452, "▁smoothness": 57338, "镇": 12514, "Sn": 30727, "inis": 23364, "顶": 12908, "是有": 9758, "▁refuses": 30603, "银行": 4459, "▁Women": 10481, "▁fired": 13256, "di": 16612, "▁deleg": 16270, "味的": 21703, "滤波": 49896, "▁Wells": 31656, "ence": 18011, "▁Builder": 40569, "模拟": 16489, "买单": 56577, "連": 11902, "加倍": 31154, "三轮": 39503, "家庭": 16723, "缓刑": 46003, "crow": 39681, "家务": 35293, "▁ui": 49684, "animate": 57509, "蛋白质": 18667, "戚": 6038, "ull": 19157, "arsity": 31414, "▁dissent": 44018, "预先": 47832, "球迷": 20101, "retch": 28323, "▁voltage": 12895, "实施": 4319, "ritical": 15150, "什么东西": 56218, "plet": 11800, "▁reaching": 12927, "哮": 4243, "▁enabling": 19404, "巨人": 50088, "▁unlaw": 36948, "及利息": 51731, "η": 484, "发明": 6806, "养老保险": 33403, "▁Canad": 8491, "告": 4132, "char": 7768, "秋天": 31158, "nYet": 24187, "elli": 18836, "▁Nad": 30293, "失望": 16203, "生动": 21477, "烁": 63364, "▁cottage": 34061, "nMobile": 52414, "附带": 52812, "▁lowers": 54896, "OUP": 35821, "▁shipments": 49680, "新生儿": 39392, "▁buddies": 39407, "gender": 23445, "▁relocated": 52671, "▁coupling": 8279, "▁Hansen": 54241, "爵士": 19551, "尽心": 59096, "▁circus": 47332, "强劲": 30259, "夺冠": 37096, "▁Sherlock": 56323, "）；\\": 38233, "▁illeg": 28313, "监护": 32931, "nJon": 39525, "etc": 13083, "▁основа": 54759, "ufficient": 19617, "nBo": 46830, "预售": 49505, "经验": 5441, "▁Kas": 36008, "ILE": 40340, "avery": 25124, "就像是": 38224, "chery": 57990, "▁imperative": 33722, "之路": 14327, "路线": 16227, "▁medicines": 30223, "▁walked": 9649, "擁": 6459, "▁lipstick": 55728, "▁styles": 12079, "正气": 54509, "xt": 852, "▁relentless": 47155, "教练": 15082, "饱和": 34560, "▁paradox": 35198, "<|unused110|>": 255, "翡翠": 17285, "看不到": 26082, "▁locals": 24641, "nol": 25029, "▁Jerry": 22861, "▁arrests": 38228, "▁lan": 41981, "▁enthus": 11298, "pany": 14727, "二中": 58571, "▁Aviv": 59510, "▁scholarship": 22803, "For": 19816, "正规": 25404, "nRem": 14488, "绩效": 24525, "attack": 41984, "▁sidew": 21372, "▁born": 6213, "▁downt": 10793, "重要的是": 16064, "versely": 25388, "matics": 44935, "分流": 47173, "nConsidering": 40586, "cir": 44475, "个大": 51534, "▁paramet": 2438, "Distance": 41688, "nApparently": 46457, "peer": 37954, "▁compounds": 19839, "称号": 20296, "▁multip": 18107, "ECH": 37700, "estial": 48189, "Sex": 50788, "MAKE": 48248, "桂花": 54666, "pancies": 50592, "▁Cer": 39156, "½": 123, "▁об": 7872, "MU": 48169, "从而": 6734, "meric": 1675, "的保护": 50195, "Message": 7238, "饥饿": 55004, "eted": 39995, "可为": 56090, "本场比赛": 47604, "▁Breaking": 48448, "客": 5197, "ystem": 2584, "▁Jose": 9446, "▁soak": 39051, "过多的": 44044, "和方法": 49900, "assador": 21940, "<|unused154|>": 299, "万千": 35843, "的视频": 39814, "include": 4958, "————————": 18536, "▁promises": 16664, "▁Mall": 23678, "颇": 12918, "▁Policy": 10030, "vertising": 30703, "当年的": 32619, "▁Behind": 38641, "VT": 41760, "灭": 61177, "大赛": 13202, "萬元": 36871, "此外": 18081, "David": 28552, "▁Liam": 52324, "▁tablet": 16253, "▁Lt": 41642, "vspace": 6852, "走走": 52404, "ntest": 29918, "的政策": 33123, "这位": 10904, "帽子": 33542, "热爱": 15307, "▁subsidiary": 36544, "nPersonal": 43492, "▁hitch": 52881, "还将": 20651, "妨": 4954, "恐怖": 17232, "▁Ethernet": 35902, "▁induct": 29076, "▁awareness": 11602, "@{\\\\": 46285, "▁promotional": 25947, "互联": 31539, "▁tenants": 34436, "疲": 8696, "▁feelings": 9852, "▁\\\\}$": 26502, "是好": 56239, "的原": 28982, "头": 4886, "商用": 51229, "▁Trail": 21031, "▁Titan": 27294, "梦幻": 45033, "▁bases": 18106, "▁advances": 21304, "▁skew": 49334, "MzA": 5475, "nio": 55673, "▁traded": 22033, "▁}": 2712, "▁army": 11738, "who": 19057, "▁gambling": 22104, "ARN": 55099, "▁Quotes": 49303, "你是否": 42526, "等多": 22573, "▁Lindsay": 49024, "▁chew": 47422, "мерика": 30174, "▁scouting": 53318, "不及待": 54575, "石": 8991, "带领下": 29924, "SR": 12679, "ally": 16868, "一二": 37680, "nAsked": 50965, "▁geomet": 28679, "loc": 8432, "圣灵": 56697, "胃": 10053, "▁payoff": 48091, "dfrac": 14509, "弱的": 39093, "<|unused101|>": 246, "办公": 6783, "▁form": 1356, "▁Arch": 7702, "▁bc": 46168, "脚本": 57252, "▁jets": 22545, "液化": 47628, "▁hardware": 8504, "▁Heisenberg": 47154, "▁boiled": 51342, "▁outliers": 48415, "标本": 50822, "记忆": 9455, "nfunc": 12126, "明媚": 56026, "▁Pas": 22213, "平方": 15541, "SD": 6568, "rator": 19258, "现象": 7667, "<h2>": 35, "坏的": 56491, "ention": 19425, "▁wors": 47359, "rain": 836, "▁името": 52083, "▁Minimum": 42378, "ATIONAL": 49692, "же": 8336, "<!--": 115, "从严": 34051, "centration": 58697, "▁&#": 42546, "▁Falls": 24949, "Utils": 15406, "▁philosopher": 45336, "研究员": 32764, "plit": 1031, "▁Presidential": 38259, "took": 52037, "稀": 9217, "▁anxious": 26737, "▁LTS": 49987, "mut": 10035, "寻常": 37732, "过来的": 41419, "▁shine": 22484, "▁proportions": 37206, "▁*": 1307, "▁courtesy": 21281, "▁Jews": 13844, "降低": 6348, "规": 11138, "Д": 536, "学业": 28529, "▁Edinburgh": 35305, "▁assigned": 11503, "<0xA2>": 467, "ivo": 20966, "nCall": 29281, "分子": 17495, "illon": 42087, "的方式": 7159, "太小": 51845, "omnia": 51697, "谴责": 54279, "数组": 44309, "oses": 8274, "GC": 10336, "雕塑": 34347, "▁Po": 10049, "▁downhill": 47508, "车牌": 49396, "化身": 50702, "决赛": 14600, "▁blame": 12148, "▁Kon": 31787, "瓦": 8580, "▁Museum": 11435, "周一": 28474, "推翻": 51162, "▁comparison": 6514, "▁dent": 18030, "ivery": 6388, "▁behav": 3349, "▁differential": 12624, "iche": 17057, "ря": 19594, "▁Vari": 19873, "▁nonnegative": 45816, "▁Symbol": 45938, "ges": 3035, "▁synthetic": 17060, "▁кръ": 48039, "istro": 54315, "olding": 18343, "▁endorsement": 32771, "▁sodium": 33874, "▁Harvey": 31776, "▁underestimate": 50848, "运维": 55521, "▁背景技术": 34182, "▁ERR": 37035, "▁contrary": 16723, "借": 3482, "变速": 31249, "FOR": 29860, "这天": 44150, "高频": 48386, "▁linebacker": 37780, "▁immature": 58967, "理工": 21905, "科比": 55493, "察": 5234, "我这个": 57982, "产业的": 37307, "▁Robot": 44079, "\\\\[\\\\": 29035, "宝玉": 48714, "nEx": 5862, "▁(“": 17941, "rators": 34163, "rov": 31188, "馏": 13031, "▁shining": 35400, "是一种": 8038, "__(": 19249, "▁ripped": 30035, "▁Mostly": 44870, "▁compre": 8603, "$\\\\\\\\\\": 21953, "=\\": 11886, "▁MH": 52032, "之为": 25011, "妄": 4934, "▁sediment": 55323, "难以": 9316, "ствие": 51737, "她也": 34324, "nPhotos": 53093, "DL": 20202, "▁VPN": 23693, "▁cocaine": 37679, "常": 5518, "▁encaps": 41925, "福建": 17234, "相撞": 59530, "节假日": 45112, "肢体": 37410, "eware": 40948, "▁unf": 5717, "sy": 18142, "骑行": 42539, "ë": 168, "收到了": 37943, "▁V": 1008, "owell": 55451, "他都": 56550, "nColor": 39417, "▁paraly": 51916, "还在": 9313, "也十分": 54830, "▁Congo": 49824, "哪个": 14617, "▁Inc": 6464, "法人": 30243, "惊": 5873, "贷": 60992, "През": 27966, "具": 3662, "还需": 43878, "离不开": 22559, "rosis": 52411, "的有效": 32837, "}}\\\\\\\\\\": 36896, "▁deterioration": 58471, "▁chang": 2023, "▁amplified": 51721, "▁slash": 46598, "偏差": 42740, "heres": 22016, "ein": 12440, "tails": 33502, "리": 13747, "▁secrecy": 49169, "三大": 19276, "ushed": 7359, "ocal": 5351, "omers": 21102, "itative": 10719, "▁liberal": 13986, "所未": 35691, "▁impl": 4152, "▁illustrated": 15146, "卫健": 39961, "andro": 45457, "必须要": 21996, "▁trainers": 37522, "▁sticker": 39940, "nMus": 59069, "<0x47>": 376, "мей": 26684, "iseconds": 44288, "下心": 51842, "▁ali": 57394, "▁overlooked": 30202, "刘某": 29638, "▁wo": 42874, "作文": 14630, "merge": 27813, "錢": 12325, "▁fishing": 14020, "ingly": 7358, "▁threatened": 17931, "▁audiences": 20794, "▁mail": 8007, "▁roads": 13458, "raint": 18999, "牢固": 30651, "信息技术": 34384, "arrings": 45693, "▁heap": 38422, "▁equilib": 47335, "嘲讽": 59008, "zeta": 7169, "▁spouses": 51812, "▁faction": 42473, "vir": 43359, "▁clubs": 14881, "带头": 22197, "isible": 19758, "▁transformation": 9678, "新冠病毒": 28432, "遇": 11921, "footer": 24640, "▁absolute": 9352, "理所": 45793, "unching": 57641, "▁Haley": 51410, "座的": 28970, "▁crap": 16288, "▁phases": 14180, "知识点": 32933, "這一": 45396, "▁Labour": 20136, "ighb": 3609, "揮": 6332, "oc": 1018, "FD": 28179, "▁discussions": 10846, "▁frost": 28759, "icken": 8436, "也无法": 32259, "▁handler": 25374, "▁arrives": 22413, "▁marine": 24261, "▁arrow": 20526, "綠": 9672, "▁employ": 2681, "▁alternating": 35200, "mers": 12134, "▁Outdoor": 47966, "▁Custom": 10043, "▁EL": 30573, "ninte": 20566, "ден": 13406, "證": 11336, "▁[`": 48837, "cum": 44793, "涵": 7645, "▁status": 5528, "▁recovered": 18313, "务工": 34943, "▁theorems": 46583, "}}}}": 54431, "▁Saul": 57905, "必备": 34901, "▁falls": 12302, "sers": 42015, "HO": 21406, "▁Sound": 16944, "spring": 14048, "▁fax": 45495, "▁pizz": 54212, "也不错": 55580, "タ": 2455, "▁Mn": 45809, "terror": 30806, "▁Isn": 33484, "ensor": 6629, "▁guidance": 12925, "等的": 25247, "une": 2819, "▁puck": 39002, "ivable": 37388, "兄弟": 16800, "enery": 27476, "Tables": 52730, "▁projects": 4994, "▁pil": 9690, "ще": 10779, "试题": 44571, "为你": 21645, "纯净": 42957, "人力": 16481, "万达": 41336, "▁assign": 7696, "引擎": 16929, "<0x43>": 372, "intend": 14222, "市公安局": 23790, "threads": 43776, "吸引": 16098, "urring": 44200, "▁noticed": 7576, "ikip": 12812, "卫健委": 55526, "▁LORD": 37574, "cribed": 14095, "的基础上": 16630, "\\\"\\\\": 25698, "▁Bug": 33255, "雕刻": 37583, "POL": 57439, "護": 11358, "bble": 50688, "nmethod": 37181, "$$\\\\": 13043, "nprov": 24505, "▁bush": 32413, "停在": 55764, "疾控": 43073, "▁Hutch": 55080, "假设": 23470, "▁Ang": 5057, "▁Vent": 24374, "mq": 41122, "宣称": 48222, "▁AWS": 33916, "▁dissipation": 34112, "▁compressed": 27669, "点亮": 49520, "▁broccoli": 56451, "▁scientists": 11105, "cers": 11750, "▁distributed": 8160, "uclear": 20995, "▁Hz": 30121, "数据库": 20932, "和无": 50404, "Zhang": 42275, "阻击": 48290, "伟": 3329, "▁discussing": 16031, "是我的": 36430, "极大地": 49548, "获得的": 34134, "▁staircase": 53495, "prise": 9071, "惶": 5896, "▁bot": 19503, "▁surround": 6031, "ън": 13663, "湿地": 28815, "│": 1855, "archives": 38955, "每个人都": 30564, "悬崖": 54538, "▁poultry": 54811, "ocket": 15027, "rett": 17193, "▁DA": 24375, "▁mills": 55314, "▁controlled": 10377, "▁simply": 3107, "IEEE": 32457, "月以来": 49547, "music": 33742, "变成": 9708, "▁版的赞赏功能": 46696, "▁tame": 56596, "情感": 10223, "icture": 11359, "rors": 19977, "▁deco": 44329, "自称": 42200, "ifax": 49751, "athetic": 35465, "chemical": 45547, "▁Thinking": 41901, "开工建设": 59041, "▁known": 2549, "[\\\\": 5172, "几百": 32204, "串联": 44806, "uckily": 57274, "▁olive": 22626, "丝": 3149, "▁dummy": 42770, "▁advant": 4883, "▁transformed": 17621, "▁horr": 23798, "▁forumYou": 26195, "国资": 44209, "naccount": 54478, "cutting": 55141, "▁Quality": 18916, "在她": 29825, "在网上": 30142, "<0x58>": 393, "般": 10261, "aint": 5180, "开心": 10609, "录制": 40622, "nEd": 19949, "灵魂": 15431, "▁plotting": 44873, "▁turmoil": 47387, "▁compiling": 50866, "и": 572, "{|": 24921, "rupts": 51649, "青睐": 32943, "赋能": 34818, "胰": 10078, "广泛的": 42707, "lor": 6954, "甲": 8626, "▁climbing": 20405, "▁timescales": 52280, "QUEST": 36311, "▁cheese": 11643, "想的": 31959, "富裕": 31602, "whe": 19979, "точници": 20000, "ndep": 32685, "ymmetric": 12876, "▁script": 6134, "電": 12726, "Expected": 44033, "▁bund": 25551, "oga": 10908, "令": 3293, "夜间": 25726, "乘客": 16359, "缩小": 31699, "▁erotic": 40453, "▁Ry": 24185, "tabular": 4684, "otive": 19022, "▁photons": 17026, "information": 24709, "Ops": 40415, "缺": 9853, "朋": 6794, "多样": 17306, "▁dedication": 25155, "▁Bowl": 14872, "了解一下": 39353, "▁suburbs": 38155, "▁exemption": 39569, "cedure": 27432, "镁": 12513, "structure": 11021, "少女": 18565, "运动员": 21010, "现实的": 42441, "球队的": 53768, "过大": 35419, "▁generation": 6111, "Language": 33745, "▁benefits": 5222, "allel": 6614, "中文": 15692, "inherit": 49064, "HA": 13378, "站长": 57147, "瑞典": 16294, "仓位": 41945, "美化": 47537, "原料": 15618, "▁masked": 38844, "抓住了": 56301, "姿态": 26230, "пространение": 55178, "orsion": 30954, "▁gotta": 23412, "标志": 12453, "▁tablespoons": 47861, "▁views": 6194, "手柄": 52172, "▁warm": 5384, "抑制": 15669, "發生": 15600, "<0x89>": 442, "电商": 13341, "历史文化": 38146, "序幕": 44350, "第十九": 53854, "▁second": 1669, "▁tribute": 24823, "三个方面": 55306, "NS": 7178, "rs": 3662, "▁shut": 6686, "还存在": 57128, "▁removal": 13760, "也只是": 37741, "Work": 14859, "▁Hitch": 53568, "umm": 23577, "定居": 56815, "nessee": 18077, "▁Suddenly": 45717, "▁Religious": 49679, "size": 3573, "History": 30708, "▁desks": 57740, "软件": 8184, "ema": 24833, "好评": 27128, "▁inviting": 28516, "▁location": 4314, "▁NVIDIA": 40105, "Ass": 8377, "信仰": 18663, "▁dir": 27551, "朗读": 46188, "<|reserved006|>": 12, "暂行": 57118, "admin": 12892, "nBoth": 15784, "▁sneak": 31461, "书香": 47775, "蒋": 10558, "张力": 52003, "▁Arabic": 30599, "纳税人": 41197, "▁Pennsylvania": 16134, "wifi": 55303, "通透": 59063, "新闻发布会": 56995, "▁snakes": 48430, "▁EVER": 20462, "ices": 1313, "柠檬": 39034, "嫁": 5078, "雖然": 15396, "ONS": 43454, "棚": 7051, "▁Apparently": 23295, "▁ORDER": 50002, "▁hydraulic": 45080, "客车": 32114, "銀": 12242, "employee": 51835, "仅": 60252, "tern": 18241, "▁posterior": 21613, "answer": 27942, "空气": 8811, "所用": 54975, "▁through": 1228, "▁gust": 51175, "▁rival": 17143, "LowerCase": 59205, "▁specifies": 39884, "▁vertex": 10088, "▁agric": 13320, "产出": 43910, "▁pulp": 52251, "▁suc": 9769, "▁hottest": 30487, "nHelp": 33981, "绸": 62932, "▁merge": 20037, "▁advertisements": 29164, "技艺": 35390, "▁accomplishment": 38784, "ODk": 57149, "▁shelter": 18467, "消息称": 56916, "▁vulnerable": 15592, "▁muslim": 52388, "▁Meanwhile": 18541, "▁glam": 30422, "▁order": 1694, "美联储": 21815, "鉴别": 48404, "示范区": 33550, "▁humility": 49994, "生长的": 59293, "▁weighed": 35757, "普惠": 49832, "老旧": 39140, "率的": 37383, "itude": 4311, "sector": 51082, "丰": 3166, "转化为": 28206, "辣": 11818, "▁exams": 28791, "近平": 19850, "mant": 35645, "<0xC9>": 506, "▁Offer": 33368, "应用的": 56338, "itting": 3066, "▁closures": 52306, "在哪": 42228, "walk": 16568, "Sche": 15989, "▁profound": 19559, "▁declares": 49454, "▁Ty": 12735, "▁nested": 36131, "▁cous": 17330, "▁Murray": 22335, "让自己的": 47542, "▁conductance": 37391, "дова": 56733, "linked": 33931, "▁Guatemala": 59022, "▁experts": 8591, "▁Harper": 28327, "mand": 25558, "▁pleaded": 37266, "的主人": 51494, "PER": 16854, "▁sight": 9568, "▁allegations": 19930, "reduc": 20685, "古城": 26344, "真实": 6653, "▁mortgage": 15063, "▁lect": 13736, "nos": 37014, "▁Thompson": 21138, "▁SSL": 32146, "一份": 17243, "мври": 19290, "▁Ol": 11618, "omas": 20912, "▁MR": 28105, "emphis": 31873, "pause": 55614, "iology": 20450, "▁sized": 20708, "▁fram": 4732, "▁THEY": 37311, "urn": 19536, "▁Charleston": 46326, "tes": 6382, "Се": 42772, "▁Went": 48490, "▁brows": 22805, "▁she": 1105, "nOh": 13265, "会很": 47058, "ълга": 10303, "▁asthma": 39371, "▁Heaven": 24691, "矛盾纠纷": 51212, "▁Malays": 18095, "▁unsafe": 35149, "latex": 49908, "消极": 39554, "▁Tit": 25579, "ArrayList": 38487, "Bitmap": 54341, "▁whe": 799, "▁excitations": 32618, "聚合": 38758, "nAff": 55386, "~\\": 13568, "▁attributes": 14372, "聽": 10013, "怒": 5790, "声称": 35820, "▁stems": 29067, "全都": 39664, "运河": 39058, "▁campaigns": 16638, "<0xDA>": 523, "ailing": 13755, "    ": 17836, "▁stance": 23856, "▁guides": 19357, "▁estimator": 24660, "加强与": 57127, "救命": 57975, "Syntax": 59116, "从一开始": 59544, "开朗": 37012, "street": 34431, "范围": 5471, "▁Aren": 21966, "nJesus": 48357, "ike": 1503, "Exper": 19522, "▁Construction": 26790, "ucas": 38028, "<|unused078|>": 223, "▁Hass": 40101, "怼": 63703, "ilarly": 8607, "▁poorest": 56544, "纺织": 27954, "保暖": 43211, "vor": 32556, "▁merged": 27908, "▁wifi": 32928, "<|unused001|>": 146, "oping": 17349, "▁hd": 58226, "逃离": 39230, "看他": 52004, "寓意": 35772, "▁Source": 14786, "座谈会": 27050, "泄": 7520, "▁leaving": 6559, "▁WIN": 49330, "联盟": 11895, "师范大学": 26830, "▁albeit": 27105, "▁акт": 45535, "月份的": 52654, "▁Ma": 11077, "▁trio": 29902, "template": 13879, "绝大部分": 43849, "格里": 47627, "香烟": 34946, "▁cubes": 40971, "▁whist": 26162, "▁нау": 47820, "▁mounted": 16554, "▁sharp": 11031, "▁consultants": 35076, "职工": 8381, "▁commenting": 27494, "▁Pos": 19031, "▁station": 5935, "▁fragrance": 40976, "alsa": 37231, "prints": 25474, "dain": 54982, "▁rul": 35187, "Exists": 45270, "pre": 2475, "留学": 18523, "▁toroidal": 57910, "▁textures": 29202, "少年": 17031, "▁triple": 16990, "▁nail": 20712, "下了": 9164, "tgl": 51233, "▁Anne": 22369, "▁socially": 29000, "▁PK": 39508, "今天的": 17957, "\\\\+::\\\\+": 58458, "天地": 17928, "hift": 38961, "YN": 55120, "这个地方": 51593, "环形": 54457, "▁Isle": 46574, "Well": 14591, "儿科": 55058, "▁hours": 2993, "协力": 46161, "▁DIS": 23093, "是一名": 29378, "Edge": 30042, "▁shattered": 45442, "▁DOWN": 49021, "San": 37100, "▁Harley": 51769, "clipse": 17488, "▁pipelines": 54622, "值": 3498, "▁Z": 1960, "▁sporting": 25932, "优美": 32722, "▁deserv": 12755, "▁Tort": 53332, "(\\": 4062, "▁scanned": 36838, "销售": 5409, "loud": 59254, "▁broadcast": 11506, "清除": 24853, "iated": 13229, "haus": 40278, "arus": 44235, "Op": 19942, "埔": 4707, "▁Meaning": 46708, "▁helium": 38243, "nbest": 55613, "非物质文化遗产": 44642, "▁specials": 47450, "▁buoy": 53771, "▁boiling": 35554, "名列": 47455, "ishing": 3696, "▁heavenly": 51039, "印象": 19328, "Please": 15711, "服务中心": 16817, "▁Odd": 38404, "essed": 18497, "可以把": 43997, "idelines": 10294, "中药": 19076, "okemon": 25001, "这件事": 16980, "掌握了": 39741, "cept": 1600, "中对": 49474, "循": 5742, "饮料": 22410, "吃饱": 54792, "▁ferry": 39003, "▁Arctic": 34659, "}+\\\\": 7618, "▁FITNESS": 50459, "▁Safety": 17339, "▁vest": 33417, "累了": 34937, "▁Cover": 20900, "▁Restaurant": 31048, "isphere": 37066, "一出": 46040, "自来水": 55135, "再见": 37885, "▁electro": 10921, "▁mice": 21876, "▁accusations": 33499, "▁具体实施方式": 37937, "代表性": 50303, "▁boolean": 12548, "的一": 1983, "}}_{\\\\": 21548, "▁mergers": 44952, "▁distinction": 20571, "▁Vik": 26369, "becca": 30685, "entation": 41191, "grat": 25730, "▁hasht": 37274, "program": 19204, "躺": 11724, "▁bow": 12627, "Multiple": 51917, "▁Given": 13237, "▁Theme": 36781, "▁aspects": 8360, "▁irrig": 40863, "▁build": 1880, "▁recom": 55564, "一组": 32831, "▁Email": 17356, "帷幕": 36249, "▁merits": 37871, "▁ammunition": 39010, "▁април": 51019, "Care": 28887, "▁collaborative": 24158, "▁readonly": 26829, "Append": 39827, "▁Harold": 45786, "▁admiration": 55051, "ckets": 15206, "▁lovely": 9548, "gment": 5632, "nthesis": 37917, "ългария": 24541, "Voice": 53861, "眼镜": 23585, "napproxim": 39373, "这样才能": 39558, "▁drawers": 53395, "gebras": 23027, "喀": 4335, "▁recognition": 10970, "includes": 25642, "▁incurred": 40924, "▁connect": 2674, "▁north": 7820, "▁conduction": 39161, "几个": 6266, "光盘": 52963, "MzAw": 20201, "▁coats": 37060, "▁Buddy": 52412, "[]\\": 56149, "尽量": 11387, "▁Corpor": 11636, "员工的": 40292, "KS": 13121, "▁departure": 20763, "▁WAY": 38207, "升值": 51004, "架上": 44721, "}{(\\\\": 50497, "▁impact": 3772, "ndefine": 58865, "靓": 12766, "ados": 24679, "▁pee": 37589, "KF": 53752, "▁Tate": 53801, "resent": 2016, "▁clones": 58790, "为群众办实事": 57426, "▁rises": 26370, "兔子": 42981, "▁strawberry": 55118, "▁organisation": 17709, "第二百零": 55647, "▁flare": 28166, "contr": 49419, "бор": 33161, "的各种": 32180, "▁inserted": 23102, "▁поли": 29371, "washer": 37928, "行业发展": 44436, "▁Holdings": 49625, "下课": 58067, "ppled": 47617, "nEp": 48992, "反馈": 15114, "▁comics": 19810, "Rules": 45536, "▁Brooklyn": 19877, "▁travelling": 21197, "▁algorithm": 5105, "▁casual": 13873, "'})": 52219, "大学校": 56402, "NP": 23149, "Series": 31481, "为例": 22000, "京津冀": 53590, "他要": 43982, "och": 5077, "同时还": 44842, "<|unused148|>": 293, "▁libraries": 16156, "预约": 23233, "lit": 25394, "▁Univers": 32041, "▁resemble": 35836, "資訊": 15699, "▁JD": 48813, "igans": 55649, "位置": 15258, "候选": 27903, "吸取": 46162, "▁;": 7848, "лед": 9426, "labeled": 32251, "二期": 35283, "就用": 19844, "nTw": 25844, "raged": 39917, "addr": 19999, "剪辑": 58104, "Bob": 41848, "DEFA": 30733, "报价": 28604, "λ": 488, "▁Regulation": 47032, "nFirstly": 52211, "<|unused040|>": 185, "受了": 53373, "zing": 9487, "关联性": 51426, "裔": 11041, "finance": 50612, "▁attends": 56996, "refresh": 39908, "都是在": 27769, "▁Lot": 23482, "▁girls": 5855, "nLocated": 45598, "▁rockets": 45600, "▁Murphy": 26363, "▁taking": 2863, "▁std": 9504, "▁asymmetry": 27054, "WISE": 56500, "阜": 12600, "pick": 30315, "coloneqq": 53466, "存在的问题": 30714, "NDA": 42116, "▁ще": 53527, "派出": 12190, "nD": 1382, "▁folding": 32887, "valuate": 49723, "呆": 4129, "anol": 26964, "▁lie": 8894, "ardo": 22871, "Tex": 36191, "正确": 7041, "BV": 40167, "▁assisting": 36819, "和企业": 42307, "▁SIGN": 59428, "传承": 12381, "ROW": 48791, "cms": 49927, "fing": 40933, "▁nonzero": 27946, "aji": 53025, "▁execut": 16340, "优雅": 23182, "▁warmer": 31902, "▁boasts": 28538, "nBe": 9443, "差别": 23873, "▁heritage": 20032, "inte": 7711, "TAG": 37712, "Software": 41512, "辛苦": 15289, "带着": 7952, "瓶": 8588, "Origin": 53951, "▁argue": 11036, "可使": 52809, "▁chewing": 57029, "->": 1598, "▁clearly": 5396, "接下来的": 29206, "▁Jimmy": 22321, "ranked": 41271, "rogate": 40366, "<|im_end|>": 4, "▁Buc": 39183, "▁silhou": 40120, "▁Philadelphia": 16257, "ansom": 42041, "控制系统": 48209, "渍": 63586, "boldsymbol": 5282, "▁pronounced": 24918, "我没有": 24058, "uisine": 26842, "▁Gregory": 41842, "▁Maj": 27995, "▁binaries": 30799, "▁embro": 35183, "三八": 50058, "出席会议": 41029, "▁scorer": 51274, "anny": 11397, "稍微": 21168, "raw": 1769, "比亚迪": 34886, "ynamical": 43505, "nDuring": 11981, "▁migration": 18967, "▁Calling": 58337, "马克思主义": 44869, "▁cyl": 15909, "▁mercy": 26824, "зиден": 59073, "▁Enh": 41039, "挑": 6202, "upyter": 35012, "Send": 25774, "▁Cuba": 27442, "▁hurl": 58997, "▁Pioneer": 58459, "kit": 15384, "athlon": 57273, "会出现": 21198, "运行": 7252, "блика": 42459, "▁individuals": 5544, "结算": 18047, "▁inflow": 57170, "▁passage": 15072, "bean": 18040, "▁Easy": 19511, "▁Revenue": 36837, "▁clever": 19109, "团伙": 50931, "艾滋病": 40700, "▁'@": 24495, "拒": 6162, "icts": 17325, "▁title": 4476, "▁server": 5160, "▁neurological": 55542, "慎重": 49893, "▁beh": 1927, "encing": 15660, "baike": 3759, "▁Associated": 25530, "Ver": 13331, "▁fabulous": 19085, "вият": 50582, "states": 19129, "nStarting": 36683, "made": 12838, "▁Consult": 20934, "\\\\": 585, "淘汰": 17663, "迎": 11844, "OPLE": 47196, "tz": 21796, "MjY": 35070, "被他": 51486, "creative": 55724, "ver": 15498, "▁kill": 5591, "▁Along": 22083, "')\\\\": 35696, "▁overest": 47428, "Geometry": 50528, "惜": 5881, "去掉": 46685, "▁Luckily": 29619, "大量": 16273, "帮助": 4002, "互相": 17935, "折叠": 33424, "ческа": 43244, "amos": 37715, "保质": 51376, "意料": 37510, "opsis": 32631, "▁consultancy": 58038, "nCut": 58750, "▁interface": 6780, "bsp": 6229, "的外观": 59105, "▁Although": 6557, "election": 28582, "catalog": 43100, "▁importance": 7628, "NBA": 22298, "igm": 18311, "坏": 4643, "ria": 7155, "▁T": 630, "▁import": 1607, "他有": 45860, "ree": 18056, "html": 2401, "显示": 4722, "how": 4849, "▁vot": 4179, "iano": 12167, "搬": 6368, "痒": 62644, "获得了": 16093, "▁Puerto": 28828, "▁filesystem": 44164, "握": 6322, "烹饪": 37919, "类": 9516, "▁Ко": 19514, "▁riders": 23787, "▁Slim": 54581, "dag": 16683, "==": 1076, "每": 7379, "▁trained": 7325, "▁insects": 31042, "▁disconnected": 35810, "▁black": 2876, "着自己的": 35980, "▁shotgun": 41822, "rely": 6045, "ourable": 39830, "企稳": 56166, "*\\": 3940, "无数": 12910, "▁silence": 17669, "▁analys": 14253, "你想": 23563, "脑海": 29543, "不用": 8672, "▁revived": 58125, "是一件": 30602, "理想": 18336, "▁Volume": 26128, "************": 32065, "commut": 36734, "▁listings": 25851, "▁stresses": 38497, "该如何": 27367, "riminal": 48361, "HP": 11965, "决策": 13047, "溉": 7772, "要多": 34273, "interfaces": 49606, "erated": 40279, "ilibrium": 11085, "matht": 32966, "▁visc": 36329, "他和": 26955, "eanor": 40536, "▁Math": 15109, "所以说": 25718, "▁李": 37304, "▁leakage": 42581, "nNotes": 38067, "柔软": 31000, "▁com": 699, "▁reductions": 35266, "fas": 45203, "▁cheers": 57204, "也成为": 48885, "遗传": 23950, "肺癌": 37910, "▁Shoot": 57508, "▁Islanders": 58249, "为止": 19104, "附": 12620, "投身": 35609, "▁hierarchy": 22060, "▁Land": 8909, "复印": 21670, "▁folk": 21708, "Red": 4402, "▁Keith": 28002, "의": 13896, "和水": 38887, "產": 8613, "iers": 5216, "补贴": 14067, "▁Milk": 44356, "nRead": 12667, "摘": 6392, "▁prominent": 14904, "▁Dust": 57804, "轰": 11803, "重点": 4044, "▁ble": 11079, "▁Dy": 28282, "Age": 37584, "▁Kh": 18501, "潍坊": 47801, "公众": 8746, "▁ра": 6802, "酒店": 16125, "▁shade": 21441, "askubuntu": 14281, "▁melt": 17158, "nAdvertisement": 24674, "hw": 35256, "thereum": 41172, "▁splitting": 19649, "应当": 6288, "城里": 42338, "▁Ав": 49058, "nDam": 52935, "ッ": 2458, "dv": 34780, "ll": 15912, "▁presentation": 10614, "▁compass": 53288, "新房": 44889, "▁sleek": 34864, "▁States": 3557, "不知所": 54122, "▁CT": 19548, "shared": 19754, "Drawing": 32034, "晾": 6724, "▁lose": 5942, "迅速": 8290, "▁unfolding": 49213, "▁curry": 45922, "▁Storm": 23618, "都是": 2162, "ници": 12114, "▁Deg": 54207, "sys": 15692, "現代": 15881, "财险": 50237, "▁investing": 17240, "<jupyter_code>": 25, "关": 3659, "▁shore": 22778, "Mod": 4067, "iar": 16235, "▁everybody": 11091, "te": 15400, "缴纳": 18398, "parameters": 14266, "gged": 11442, "▁”\\": 46538, "亿美元的": 51469, "<0x0A>": 315, "LET": 43616, "秘": 9200, "访": 60655, "▁striking": 16761, "升起": 51510, "arliament": 16985, "▁her": 1019, "微微": 26799, "nReal": 34992, "▁Angels": 30557, "received": 50180, "中被": 44973, "construction": 31204, "榆林": 58708, "第八": 19676, "INFO": 27193, "▁simultane": 11185, "仇": 3271, "▁VP": 34373, "剩": 3815, "▁Fro": 19686, "问题": 1650, "lat": 16920, "ii": 4289, "▁preparing": 14194, "模糊": 23226, "計畫": 37186, "▁sample": 4694, "▁Someone": 23559, "黄河": 23797, "粤": 9535, "诀": 62993, "不舒服": 35064, "▁Namely": 50176, "的有": 17390, "統": 9652, "▁nine": 8508, "▁prophecy": 51508, "deg": 9494, "▁Louis": 9031, "▁Walk": 11389, "芬兰": 50488, "ugin": 21131, "▁bas": 2099, "nterms": 53334, "▁Helen": 33836, "▁pave": 34239, "▁conditioner": 45133, "Sum": 15605, "▁gain": 6126, "桂": 6980, "醉": 12106, "``": 11117, "eqref": 3312, "▁peppers": 39893, "▁twe": 12522, "▁Foreign": 18364, "咀": 4165, "▁myster": 15407, "处理好": 56764, "女孩子": 29181, "▁harmony": 30962, "jango": 25808, "等形式": 37995, "classification": 42837, "scan": 27719, "Iterator": 29424, "元旦": 35307, "▁occasionally": 15075, "管理人员": 35519, "▁assaulted": 44612, "畢": 8656, "▁imagination": 18268, "that": 16207, "从未": 18120, "▁NO": 11008, "shirts": 31927, "▁altering": 45602, "licates": 50778, "leges": 51216, "用于": 4983, "不复": 55368, "・": 2507, "▁freely": 18728, "▁pockets": 21838, "cerning": 49046, "▁scarce": 42857, "班级": 14434, "DoxyCodeLine": 45121, "▁pathways": 36877, "舌": 10239, "▁cul": 15132, "uminate": 27281, "};\\": 4604, "▁acoustic": 22716, "订阅": 36903, "格力": 50350, "▁UW": 59418, "▁sweep": 17963, "以上": 16820, "拉开": 27324, "▁breaking": 9157, "avor": 13368, "▁outage": 48392, ")/(": 25973, "上映": 19026, "余名": 30641, "pine": 34428, "忽略": 20550, "发现了": 21701, "激发了": 57445, "▁ignorant": 27777, "检察长": 56125, "▁suspension": 19388, "они": 44573, "▁exhaustive": 49495, ":": 31, "nAlex": 31243, "▁Mouse": 34291, "为什么会": 35971, "idel": 7315, "Cat": 26565, "▁DEL": 46073, "▁reliably": 37165, "▁subs": 7859, "本着": 41307, "Dom": 21082, "ammatory": 49102, "▁ubuntu": 23299, "ENC": 31976, "vised": 35167, "Performance": 39798, "stery": 12205, "▁pension": 21084, "Actions": 38897, "和田": 58171, "▁safer": 21949, "▁Vehicle": 37685, "高原": 30823, "▁manual": 11637, "love": 19697, "vec": 3894, "伦敦": 26397, "▁Grants": 54711, "dem": 12336, "rivial": 10354, "yd": 13542, "\\\\+::": 31174, "▁caus": 38566, "▁evacuation": 59004, "▁lobb": 15240, "▁obsess": 38538, "鼓舞": 34561, "ethe": 13003, "公交": 13138, "的一家": 51802, "▁Jordan": 14212, "wikipedia": 24183, "▁spect": 3053, "就有了": 45530, "信贷": 32135, "或是": 11808, "举例": 42751, "▁indisp": 51937, "▁descriptive": 40912, "al": 15249, "重任": 59459, "▁proteins": 20129, "恢复": 7770, "轮": 60499, "犯罪事实": 41074, "▁procurement": 47091, "▁deadlines": 38449, "unciation": 47336, "▁Ro": 9305, "▁heuristic": 43664, "当她": 58661, "记录": 6910, "stable": 13594, "▁picnic": 36859, "证人": 22153, "▁extra": 3490, "出的": 5372, "▁randomized": 38821, "当事人": 10491, "▁Gardens": 34277, "ouri": 17257, "點": 13530, "印象深刻": 52080, "nvari": 25895, "典": 3663, "▁trou": 5552, "▁posture": 36950, "实力的": 56368, "来得": 31240, "▁Connect": 12090, "auc": 20469, "悟空": 33096, "nproduct": 50529, "简介": 21897, "nedit": 46468, "▁attack": 3069, "Disc": 18779, "教室": 16996, "isset": 35854, "▁stimuli": 50862, "update": 9082, "▁Cra": 16747, "但对于": 39593, "余生": 56391, "回到了": 32032, "武器": 17831, "Close": 23175, "证件": 34103, "▁wiped": 37426, "这几天": 41183, "▁remod": 30275, "ragma": 38192, "UST": 12064, "igh": 19645, "dc": 10109, "▁limbs": 42541, "fee": 43879, "日益": 21094, "▁nomine": 24572, "▁corrupt": 22491, "▁smell": 14310, "rians": 28875, "▁innovations": 30658, "領導": 16543, "书写": 22655, "▁compos": 5500, "▁plugged": 35679, "▁clan": 39028, "▁brink": 52731, "__\":": 4703, "▁Cancer": 21887, "<0xB5>": 486, "▁pirate": 43445, "柄": 6914, "可再生能源": 54316, "aurs": 43628, "财产安全": 51762, "▁Coordinator": 46838, "庇": 5559, "▁ell": 16147, "更多": 17877, "是他": 22311, "▁compute": 10023, "▁mar": 5660, "▁nearly": 4735, "connect": 7044, "▁autism": 31293, "复发": 40123, "makebox": 44346, "▁inquire": 52886, "▁w": 572, "ortun": 2265, "▁Writers": 41960, "▁totally": 6796, "变革": 24900, "颤": 62706, "▁Opportun": 33666, "▁Thursday": 6170, "▁Divine": 38765, "▁Fifth": 38803, "nGoogle": 23960, "gue": 28350, "winning": 17665, "fe": 15828, "丛": 3147, "某的": 37281, "我們": 17869, "nStr": 24446, "nAppro": 52300, "▁clerk": 38003, "泼": 7552, "▁slowing": 32617, "collect": 26201, "▁Denmark": 31268, "UES": 26548, "anta": 7279, "рак": 37560, "mt": 9322, "istry": 5474, "noon": 8227, "恨不得": 57628, "^*\\\\": 24815, "nPR": 37913, "▁Gym": 47214, "remote": 33291, "▁heading": 12634, "<|unused136|>": 281, "這裡": 51974, "background": 12497, "近期": 10530, "交付": 18098, "▁Dec": 7898, "▁D": 723, "▁suff": 4415, "▁satisfying": 13541, "eca": 33642, "represented": 47075, "▁一种": 52901, "▁present": 1899, "每个月": 33700, "有多": 11406, "但由于": 30045, "▁implemented": 9440, "▁NHS": 32471, "▁forwards": 39463, "dt": 7372, "临": 60455, "nContent": 36542, "无量": 57517, "但他们": 38251, "Market": 50499, "[{\\\\": 35962, "umann": 34128, "以防": 47292, "▁ben": 2469, "所谓的": 16153, "利于": 11249, "Т": 550, "等领域": 33427, "south": 38953, "▁Cas": 12703, "ream": 1915, "数值": 35225, "▁Agreement": 22622, "▁punched": 50030, "弱势": 35881, "▁PCI": 35381, "色素": 56265, "▁compares": 28058, "糖果": 57044, "};": 12181, "Interface": 16906, "逃避": 30652, "▁tree": 5550, "▁ICO": 59506, "社": 9122, "肉": 10020, "÷": 180, "▁reserve": 16434, "After": 13295, "hence": 38457, "▁lubric": 43905, "▁Performance": 19831, "▁certificates": 29916, "笔录": 26932, "▁creation": 8321, "▁basics": 21390, "yme": 19346, "▁pecul": 28278, "▁chrome": 36403, "icious": 6743, "家长": 5060, "ulator": 13232, "▁Tur": 8165, "▁throne": 34766, "做强": 48304, "▁commanded": 49256, "▁facets": 43205, "漢": 7856, "配角": 54741, "ialis": 37592, "诉讼代理人": 29122, "▁poop": 52250, "MIN": 19808, "送达": 21153, "r": 87, "▁incorporates": 33171, "depend": 24658, "▁histor": 5510, "全年": 19200, "▁abdomen": 54081, "星辰": 52780, "▁observing": 22454, "chall": 55009, "十五日内": 35659, "▁Console": 41892, "▁Consulting": 46156, "▁automotive": 27762, "仙女": 46941, "▁firearm": 34804, "nFollow": 17745, "uggested": 50755, "名称": 15750, "细腻": 28946, "望着": 28590, "▁fantastic": 9360, "备考": 29304, "如不服本判决": 33210, "▁informational": 35919, "两委": 39164, "▁torn": 19678, "▁EM": 22261, "▁Christie": 40147, "olds": 3492, "另一半": 41965, "▁sulfur": 59202, "ricia": 39815, "我都会": 59497, "兒": 3635, "▁support": 1614, "Sigma": 6474, "▁CD": 7223, "瑜": 8516, "▁slope": 17221, "rust": 17577, "语法": 37757, "PI": 5089, "荧光": 41830, "▁organic": 11477, "nT": 749, "omez": 43813, "ن": 787, "States": 49530, "▁leftovers": 56807, "我们要": 13769, "▁dad": 10330, "▁Dock": 47708, "▁moral": 11854, "食品安全": 20880, "чен": 22874, "情侣": 37045, "nmany": 44077, "理解的": 46737, "被申请人": 59257, "reject": 59368, "inition": 8087, "Buf": 53994, "elia": 38774, "intell": 59225, "▁veh": 4208, "two": 18998, "▁swelling": 39021, "loaded": 21676, "趋": 61077, "▁essays": 22017, "——\\": 28924, "鉴定": 8923, "▁centers": 13183, "也没什么": 59543, "nine": 40209, "▁community": 2692, "超過": 15782, "可知": 39081, "▁discussion": 5693, "▁closing": 12656, "▁kind": 2113, "▁advisers": 50296, "▁Oprah": 59163, "葵": 10550, "▁cha": 12203, "term": 5984, "纽约": 18870, "量子": 29984, "社区": 4222, "▁inside": 3486, "男性": 19340, "existing": 31175, "可以将": 36571, "▁fisher": 34215, "▁flavors": 20719, "cially": 2564, "▁destiny": 35860, "itant": 38431, "▁embassy": 43808, "把钱": 59238, "许可": 15038, "▁protocols": 23976, "period": 16480, "▁libr": 5596, "借条": 33003, "报送": 44231, "安装": 7001, "穩": 9265, "▁Colts": 41032, "饺子": 34880, "▁imprisonment": 44928, "ratulations": 30567, "个人的": 23520, "结尾": 39948, "▁colle": 7031, "▁Бо": 27382, "Column": 19207, "甸": 8632, "透明的": 59221, "citet": 6492, "▁aver": 10092, "▁Temperature": 46956, "▁outright": 30197, "Qz": 34063, "▁stud": 1324, "Sunday": 30173, "erson": 19170, "choose": 27651, "才行": 50893, "intensity": 57818, "壮": 4837, "塌": 4758, "承担连带": 45652, "初期": 16627, "▁ubiquitous": 43053, "▁demands": 13175, "▁inflammatory": 40963, "降": 12626, "万人": 12414, "▁css": 52971, "nThrough": 20709, "▁innovative": 12231, "чи": 8303, "争议": 14170, "▁deliberately": 27299, "\\\\*": 49953, "药业": 50622, "▁independence": 16616, "时间是": 53653, "ERA": 58981, "Browser": 47608, "▁Sm": 4066, "▁Gut": 52997, "ember": 2079, "<|unused151|>": 296, "▁sane": 46704, "▁wall": 4274, "smallskip": 24884, "▁Take": 9292, "▁Domin": 23742, "▁ring": 6715, "puts": 43572, "profits": 45538, "峡": 5377, "▁flaws": 28653, "▁advisable": 53809, "就诊": 29993, "▁cohomology": 44902, "法律的": 52496, "▁two": 1074, "小镇": 21763, "sic": 52867, "▁existing": 5438, "ely": 18214, "sheets": 55012, "▁gu": 1308, "更新": 19674, "ration": 1920, "フ": 2475, "▁Reporter": 44953, "利好": 30438, "seed": 24675, "云计算": 36322, "RES": 21116, "▁approxim": 4393, "не": 3432, "▁maintained": 14057, "▁participating": 15589, "на": 19579, "▁Stewart": 23213, "▁BT": 30521, "同样是": 39752, "脾胃": 37432, "罪行": 49661, "▁>": 2856, "▁JS": 31978, "自己在": 24589, "ubuntu": 7085, "▁Rates": 48920, "创新的": 48931, "政委": 56951, "复合材料": 57593, "穿的": 57091, "▁corps": 36805, "极了": 39277, "洒": 7564, "商会": 26063, "+(\\\\": 51645, "求生": 59179, "rz": 58315, "▁tournaments": 33010, "tos": 50070, "▁predefined": 51664, "信的": 51945, "▁immensely": 41997, "的天": 16654, "空调": 15182, "radius": 25691, "subtitle": 42835, "总是": 6673, "endl": 36931, "big": 3125, "illo": 24109, "的范围": 43739, "学习贯彻": 58618, "恋": 5814, "▁defenses": 38295, "▁Published": 45675, "第三季度": 57953, "nDecember": 27433, "▁persist": 33389, "▁GM": 15684, "▁scheduling": 25866, "▁directly": 4074, "▁middle": 4866, "ква": 30382, "rom": 17441, "只能在": 50019, "▁errone": 45142, "Interest": 56659, "iffe": 43190, "失踪": 42585, "▁prep": 27662, "▁Anyway": 20512, "chini": 53035, "梅花": 40996, "adors": 56007, "为宜": 57885, "样本": 23200, "▁Postal": 57280, "▁md": 45263, "盘中": 34392, "专题": 13673, "reddit": 18669, "▁Kre": 33766, "▁Milton": 49913, "绎": 62596, "▁fortunate": 24047, "超出": 27947, "▁definitely": 4942, "▁Debor": 57165, "▁deliber": 16570, "▁room": 2430, "▁Hum": 18783, "始终坚持": 54366, "閉": 12529, "▁soul": 8251, "▁mechanical": 14153, "▁Total": 20845, "utor": 14906, "弧": 5656, "▁Violence": 46514, "压力": 5749, "▁Anton": 17090, "和技术": 32731, "nMonday": 15701, "海上": 24751, "▁Conc": 47750, "bys": 47231, "二楼": 43751, "心力": 53150, "pd": 20569, "▁competitive": 9837, "expensive": 25744, "liquid": 52596, "叹息": 57916, "最深": 55444, "共享": 11102, "arxiv": 5900, "盗": 8845, "工作机制": 55533, "▁showc": 33569, "<0x9E>": 463, "▁Explore": 44951, "▁increments": 57085, "发自": 53220, "山市": 19567, "总是在": 51141, "▁beef": 17470, "納": 9597, "▁value": 1830, "ti": 19108, "hile": 4550, "uset": 15385, "与其他": 27263, "nFe": 15850, "wing": 12048, "▁hue": 54208, "▁Socialist": 52944, "▁Corinthians": 57934, "著名的": 20014, "▁arg": 2660, "atics": 21077, "Drop": 28283, "▁occupancy": 42781, "▁generality": 31019, "底蕴": 40902, "nlow": 43131, "年份": 53612, "▁facebook": 24339, "塑料": 16173, "▁Walmart": 32704, "▁Lance": 43991, "我们家": 56765, "四川": 17727, "▁Church": 6885, "▁pert": 36574, "▁escap": 17132, "heck": 7093, "誓言": 51051, "▁Speech": 38830, "▁Co": 3352, "▁meaning": 5046, "可以从": 32003, "积分": 22319, "▁Adventure": 31770, "▁Joey": 44480, "工程项目": 49906, "▁granted": 12622, "Food": 47464, "Alex": 34374, "Dict": 40010, "ava": 3165, "▁environment": 3247, "LP": 10810, "▁recursive": 41396, "逻辑": 11346, "quot": 13478, "mount": 19153, "▁vendors": 18946, "▁Shift": 45979, "HS": 9799, "同意": 18667, "▁Clint": 53463, "bet": 29362, "appa": 4848, "▁slap": 35321, "民": 7403, "▁curl": 21496, "全班": 58943, "▁moments": 8231, "▁mentality": 31561, "▁subgraph": 39796, "太高": 38787, "▁BACK": 42961, "▁Bruce": 19213, "stackexchange": 4358, "▁wool": 29987, "学前": 43583, "眺": 8898, "▁Hels": 56713, "会成为": 52747, "celand": 32564, "pression": 9840, "▁habitat": 29072, "大型": 16576, "Cond": 23260, "的成功": 32601, "SSL": 38994, "暧": 6744, "ardless": 19300, "▁vacuum": 12010, "▁shap": 8670, "歼": 7336, "前线": 49477, "send": 12826, "物的": 12623, "未能": 16949, "得的": 39216, "nAround": 51392, "▁Palace": 26434, "RB": 41059, "整治工作": 49097, "时许": 25383, "一座": 16832, "持股": 30766, "心地": 51398, "贼": 11556, "▁performances": 13962, "青春": 9593, "委托": 8642, "▁\\\\)": 42724, "parents": 22724, "反对": 15175, "只剩": 44308, "但因为": 57796, "ees": 3775, "Try": 35572, "adding": 11016, "業務": 17184, "science": 28107, "nRe": 4609, "这两个": 19092, "ocr": 4364, "▁Reagan": 26822, "▁robustness": 27921, "▁AGA": 54432, "库里": 45572, "coff": 48592, "委会": 8885, "的企业": 17718, "COL": 28959, "带给": 31385, "▁Shaw": 29557, "fusion": 53164, "以下的": 39980, "行政机关": 54954, "▁Shortly": 58001, "▁stayed": 12426, "▁vertical": 11542, "Sort": 36642, "ulate": 5656, "李某某": 49309, "氯化": 53175, "▁FUCK": 54403, "▁intersect": 26728, "刻意": 32344, "nReturn": 44107, "为目的": 49183, "▁amended": 36183, "魄": 13208, "对他": 21817, "情趣": 55957, "对人体": 54773, "▁initi": 7316, "爱好": 15104, "▁entrepreneurial": 49781, "▁разпо": 43251, "inos": 10564, "amb": 1538, "usted": 29470, "杉": 6839, "exe": 25028, "不如": 19679, "▁unique": 3888, "万户": 47407, "突破": 8175, "resource": 18036, "тите": 32659, "Only": 19150, "▁costing": 39501, "covered": 53003, "▁assemblies": 56842, "祖": 9137, "ODY": 23136, "nInternet": 52022, "▁Conv": 41576, "calib": 31815, "维": 9840, "▁kindness": 29192, "dry": 44040, "备案": 20800, "▁speeds": 18159, "▁money": 2166, "▁TB": 32248, "etry": 29324, "▁category": 7551, "▁destroy": 8069, "nBased": 23006, "▁Earlier": 40462, "▁A": 647, "▁coward": 51834, "▁ign": 5032, "tem": 6467, "▁Press": 8283, "xx": 5758, "传感": 16475, "asket": 8035, "▁slopes": 33584, "▁enduring": 42157, "败": 60862, "款": 7303, "Network": 20182, "▁coordination": 27380, "nyou": 12955, "▁Sym": 26672, "▁intrigued": 41825, "nvoid": 9964, "Step": 18848, "스": 13828, "▁combat": 11689, "居民": 16073, "模块": 10317, "▁collision": 17008, "▁diaper": 43265, "主人": 16828, "▁observable": 25356, "seller": 58863, "▁Das": 51173, "▁gam": 15090, "▁bullpen": 50644, "nbackground": 54814, "▁У": 18277, "▁dilemma": 37930, "inate": 4417, "同时也是": 39283, "▁embraced": 34166, "▁qualifying": 29311, "▁$\\\\|": 38615, "XT": 36301, "噪声": 41747, "acles": 19026, "进行": 1540, "stract": 7320, "平台上": 34349, "chunk": 38045, "▁Functions": 45908, "▁reportedly": 17831, "▁expanded": 13883, "▁absent": 20432, "▁oath": 45328, "﻿\\": 51092, "ailable": 1895, "罕": 9872, "airs": 5981, "▁separation": 13021, "▁tales": 27703, "fall": 11661, "development": 28511, "每一个人": 34674, "▁Kenneth": 46413, "最开始": 56622, "宝宝": 7078, "icating": 16966, "nHouse": 35835, "been": 19952, "=&\\\\": 59391, "▁polish": 30228, "Public": 24471, "<0x9D>": 462, "▁Forrest": 58563, "江苏省": 21692, "才开始": 52846, "德州": 58377, "oded": 9132, "农家": 35030, "的地方": 7010, "毛": 7389, "Widget": 23772, "花椒": 39016, "分量": 55000, "▁multinational": 59523, "▁Gay": 25378, "vable": 14551, "要有": 15800, "Reference": 19887, "Wait": 28419, "gov": 11022, "文件夹": 58716, "▁така": 45073, "▁superfluid": 58037, "实行": 11770, "avirus": 35924, "▁transitions": 14919, "▁disposal": 25822, "chnical": 43387, "▁exclusively": 16986, "▁chalk": 38669, "agn": 10940, "FORMATION": 43709, "全省": 12168, "茵": 10405, "▁trivial": 16310, "Min": 13290, "😉": 63536, "口袋": 38023, "?": 36, "▁primarily": 10796, "▁admitting": 40284, "▁detached": 44109, "受害人": 39364, "疏": 8681, "▁Housing": 27072, "▁source": 3036, "quality": 12312, "▁workshops": 21988, "辜": 11813, "▁ro": 1039, "man": 16336, "▁AL": 11181, "▁datasets": 10825, "赞同": 42178, "也": 3204, "損": 6348, "▁vessel": 21709, "统筹": 17661, "塑": 4761, "▁plug": 7048, "一些": 2598, "nx": 11014, "▁Avenue": 14556, "aren": 15950, "▁inspiring": 20742, "wered": 12199, "ynam": 3286, "不喜欢": 19700, "▁costly": 21911, "两点": 41321, "宜居": 41639, "颈部": 48350, "喝茶": 46791, "iph": 50168, "Binary": 38842, "专业化": 43683, "▁quick": 2741, "差异": 12108, "▁bless": 9987, "也希望": 42233, "明确的": 31497, "也会有": 43511, "▁Ug": 32586, "outputs": 51740, "回合": 44552, "MNRAS": 35782, "格": 6976, "学费": 28449, "▁province": 17973, "电解": 38025, "▁unable": 9356, "▁Euro": 3274, "诫": 63349, "▁fees": 9057, "ceptor": 53421, "的数量": 35365, "▁ops": 56188, "▁qual": 5044, "火箭": 18384, "支持": 15626, "▁WHO": 30180, "pple": 31737, "▁disclosure": 22305, "▁inquiries": 37884, "龙头企业": 47748, "]{@{}": 48355, "往返": 18919, "▁matplotlib": 46382, "пад": 57226, "<0x3F>": 368, "bid": 29468, "▁KB": 40967, "▁Tours": 51832, "ocratic": 15812, "主观": 27747, "多样性": 43201, "跳": 11632, "被害人": 20630, "▁photometry": 37166, "粮": 9540, "▁KDE": 49418, "бва": 56094, "我们必须": 45163, "ottage": 25330, "并没有": 7719, "▁immediate": 10630, "▁weakly": 25980, "奴隶": 53126, "amount": 18445, "大幅度": 40038, "nAND": 55964, "▁Ron": 13243, "▁civil": 6074, "oko": 31960, "▁Brothers": 26151, "▁Mo": 7065, "海报": 36772, "淋巴": 35123, "Serial": 19431, "spectrum": 42637, "NY": 19002, "你需要": 37102, "▁letting": 12375, "▁upd": 4193, "}^{(": 8254, "computer": 38728, "白马": 51010, "一碗": 19248, "▁sperm": 37684, "brid": 9774, "▁plaintiff": 33518, "推进": 4618, "店铺": 26734, "▁data": 1394, "美德": 41601, "▁Hollow": 51674, "▁accessories": 17523, "▁developing": 7470, "目的地": 30740, "阳气": 52931, "ION": 3348, "▁arrogance": 56869, "坚持": 4650, "▁knees": 20945, "▁Keller": 58493, "▁planar": 30614, "▁Bold": 53210, "不同的是": 47380, "▁pressures": 26415, "</tr>": 64, "▁Glenn": 33530, "DM": 13266, "▁defeated": 20542, "▁Monster": 32161, "鞋子": 33989, "▁fluor": 40746, "的时候就": 44672, "娠": 5016, "▁Native": 17729, "真爱": 38721, "▁hesitate": 27181, "▁impression": 14410, "articles": 23418, "自己也": 41810, "INC": 49034, "athi": 59503, "等于": 19651, "医疗服务": 44314, "▁plot": 6958, "题目": 19107, "rength": 23691, "▁les": 12612, "来说": 3603, "ncan": 12720, "▁dis": 937, "▁columns": 13206, "▁grandmother": 24176, "▁rou": 27552, "普通": 15645, "▁synth": 39355, "▁offence": 38496, "双重": 41489, "杂草": 52265, "<0xA0>": 465, "▁thinkers": 52919, "orse": 9648, "Converter": 40961, "▁obsessed": 28203, "扼": 6102, "}+{\\\\": 58364, "▁accredited": 41815, "▁sim": 1227, "cost": 16437, "▁linearly": 23981, "▁traced": 35670, "▁explosions": 46627, "提炼": 48200, "▁Audio": 22411, "▁Parenthood": 53674, "empl": 52437, "▁Kind": 15622, "▁restoration": 24623, "▁animal": 8507, "丁": 3123, "}=-": 30306, "活力": 15329, "常用的": 32843, "▁син": 47615, "`\\": 8690, "ountain": 26121, "你就": 16111, "车队": 50300, "▁expand": 5330, "▁pam": 40888, "quad": 3145, "拉萨": 50279, "▁tragedy": 23017, "特殊的": 26417, "▁Programme": 37442, "cientific": 37129, "▁Dropbox": 59080, "消息": 18431, "▁scientifically": 55284, "statistics": 58127, "oter": 25522, "▁Stephen": 15166, "▁propaganda": 25853, "varrho": 30195, "▁fog": 28405, "员的": 31681, "▁educ": 3103, "▁gy": 25271, "'][": 52866, "第一款": 20662, "劈": 3833, "▁article": 3562, "比": 7384, "涨价": 38053, "技术创新": 42549, "▁Ment": 45689, "▁държа": 38605, "▁история": 58694, "yaml": 36018, "▁parents": 4294, "语气": 35894, "议员": 38142, "▁вла": 54286, "的笑容": 55032, "RU": 33588, "不必要的": 48004, "立即": 9537, "▁'": 1111, "▁poss": 1626, "▁routers": 54504, "▁Nigerian": 47169, "▁Ben": 6037, "产区": 54382, "▁Animal": 25581, "yz": 37767, "▁catcher": 48025, "東西": 17381, "▁worldwide": 11210, "▁hum": 2065, "兼容": 40136, "之乡": 54147, "ippi": 19299, "怯": 5804, "已": 5481, "True": 9651, "▁slit": 40213, "nPal": 51290, "凭什么": 53084, "terday": 6533, "nProfessional": 54325, "CV": 18695, "相关": 2804, "npost": 28903, "Another": 36112, "Did": 25696, "persistence": 55762, "▁outburst": 53932, "面板": 30253, "▁Ethiopia": 48508, "▁emergencies": 51940, "▁analyses": 18936, "esting": 52620, "市中心": 19301, "▁memory": 4891, "无机": 54418, "主持": 15553, "▁contribution": 7485, "uds": 22389, "▁manufacture": 7869, "']))": 58232, "▁Kardash": 49779, "index": 4425, "▁Hel": 7684, "▁posting": 10099, "[-\\\\": 55830, "hand": 16742, "▁UAV": 47300, "▁fren": 42471, "收取": 20089, "Ly": 43086, "雇佣": 45587, "心脏病": 45054, "NC": 11630, "▁disgu": 32717, "主要有": 29155, "tom": 35246, "大妈": 43693, "_)": 58874, "屬": 5330, "副部长": 38701, "uta": 46295, "nAnother": 9091, "▁packets": 25637, "▁skillet": 52165, "女性": 17622, "feit": 48135, "一带一路": 24442, "不愿": 26316, "nsylvania": 15396, "分的": 18356, "務": 3879, "▁па": 20745, "idal": 15212, "二维": 22329, "resses": 33237, "驯": 63956, "是人类": 52749, "▁ship": 7336, "▁journalism": 23288, "并非": 12139, "parallel": 16662, "▁trillion": 24017, "<0xD9>": 522, "自由": 15756, "悠久": 39229, "号码": 23628, "▁onions": 30214, "yll": 30621, "圾": 4630, "▁Hur": 17304, "▁theirs": 30559, "OWER": 33833, "▁Heroes": 39911, "我们还": 48406, "ochastic": 15687, "网络安全": 30257, "▁shared": 6210, "▁cargo": 27093, "▁vine": 20027, "生动的": 54042, "▁irres": 32295, "▁ner": 38555, "oltzmann": 39892, "美女": 21733, "▁Installation": 40493, "pop": 10462, "Out": 7877, "▁male": 7453, "策划": 21086, "干了": 43269, "日活动": 40999, "▁Deals": 55871, "▁Mak": 32701, "▁supplement": 12529, "/\"": 5826, "▁proportional": 16744, "抗菌": 52710, "▁Town": 10799, "тия": 33350, "▁Do": 2994, "pin": 12061, "avan": 28932, "▁Roche": 32716, "▁decks": 37478, "▁Caps": 47561, "▁imposing": 32281, "皂": 8805, "▁oceans": 43181, "▁em": 1186, "igenous": 22854, "▁Pel": 27138, "▁mathematic": 51606, "leq": 2959, "accept": 17168, "劳务": 25202, "width": 2122, "▁viewpoints": 53813, "刑罚": 56608, "▁Tro": 21030, "▁Remove": 22734, "▁adoption": 16839, "▁almond": 34653, "听众": 51924, "玲": 8425, "紧接着": 39281, "湖区": 50738, "芳": 10327, "▁Martha": 38364, "▁END": 35657, "长辈": 43338, "拆": 6151, "沿途": 44768, "Excel": 50609, "*;\\": 36548, "▁charset": 39236, "他又": 29661, "▁\\\"'": 37798, "朝廷": 40444, "norm": 10018, "▁Item": 24685, "加水": 53789, "nQuality": 44407, "▁marri": 4509, "▁Та": 37111, "便秘": 32183, "$(\\\\": 29166, "光学": 30967, "▁quantitative": 22366, "▁BN": 59287, "▁thriller": 37627, "▁Analytics": 30704, "▁Medicaid": 26937, "乡亲": 50820, "迫使": 52057, "▁staggering": 43966, "▁Pharmaceutical": 57936, "Limit": 36448, "▁potassium": 50386, "要学会": 51616, "保护": 3926, "▁prescriptions": 50112, "icons": 16317, "▁flexible": 12630, "град": 53948, "nneed": 52825, "▁serm": 37956, "FTWARE": 38178, "美白": 55128, "的光": 16144, "法律法规": 22278, "▁toxicity": 54968, "algic": 55138, "就会被": 48649, "結合": 17364, "▁critics": 19033, "▁listens": 52981, "同伴": 43636, "报告显示": 56219, "寡": 5235, "trial": 58422, "葛": 10537, "▁TWO": 46197, "Instance": 12077, "ão": 14605, "▁spe": 1130, "▁cumbersome": 59055, "▁routinely": 30893, "▁Korean": 15744, "▁framing": 48048, ")|": 10556, "eration": 6291, "▁Fac": 17347, "ntake": 49719, "金山": 28439, "umin": 6421, "接触": 8118, "subscribe": 25314, "代表大会": 33708, "▁rejects": 57429, "潇洒": 47434, "观点": 10189, "inary": 3303, "单元": 9770, "▁ѝ": 37008, "ogan": 29894, "VALUE": 36844, "}^{(\\\\": 38169, "▁deform": 33495, "▁sweetness": 42241, "▁Tre": 8998, "nparticular": 50597, "RF": 18492, "来不及": 43881, "均可": 39616, "想知道": 43684, "钻": 61672, "iov": 25952, "▁products": 3062, "不同于": 33877, "CONN": 52720, "▁ut": 3544, "乙": 3198, "▁Cock": 39816, "宽松": 27523, "OWN": 19263, "秉持": 53055, "经常": 5694, "▁Marx": 28950, "之作": 47190, "▁guys": 4227, "氛围": 10740, "Channel": 19090, "▁utmost": 39721, "▁BTC": 51499, "sequences": 50949, "闺蜜": 32036, "▁nails": 27616, "▁voters": 11050, "})}": 21502, "erencing": 57999, "稀土": 44096, "▁Rural": 56348, "简单的": 13636, "rect": 2855, "▁scripts": 20957, "▁volley": 40234, "bt": 4119, "▁simplified": 23533, "▁Pam": 36179, "▁Drug": 23911, "▁villains": 51395, "看到了": 13566, "倒": 3472, "万物": 24018, "▁us": 745, "▁dense": 14802, "nfortunately": 17416, "商铺": 38424, "▁enjoys": 21696, "却是": 15007, "有": 6792, "身体": 4202, "ifi": 16138, "堤": 4745, "conf": 7717, "▁parenting": 31074, "▁peaked": 46208, "绝望": 30520, "▁ticks": 52207, "omatic": 13762, "saved": 53975, "cript": 3090, "▁gateway": 31929, "▁ids": 56737, "TABLE": 49554, "Font": 22343, "▁disrupt": 24241, "▁early": 2784, "\\\\%$": 12942, "身份证": 17005, "▁weaken": 24587, "KD": 33896, "污水处理": 43240, "出不": 49729, "津津": 58510, "▁among": 3043, "illas": 37215, "与你": 36133, "▁aromatic": 58198, "antis": 43221, "eron": 13754, "收纳": 39801, "ounty": 38046, "'\\\"": 23069, "拿出": 20320, "跃": 11609, "ETH": 23342, "logged": 44966, "Acknowledgements": 35477, "不肯": 37844, "▁ARM": 41541, "▁spawned": 58965, "▁northeast": 39389, "▁Mush": 55502, "rown": 3500, "▁affiliated": 24126, "体验": 6339, "Frame": 14133, "▁Beginning": 51372, "▁Gaia": 57022, "▁Neut": 43301, "基地": 18912, "营收": 22746, "削减": 51377, "下旬": 36087, "June": 35095, "▁willing": 6222, "何况": 27235, "评级": 37325, "听到": 11206, "▁Nationals": 46015, "着你": 37208, "Callback": 21844, "<b/>": 72, "огра": 26278, "入口": 15916, "汾": 7476, "▁disconnect": 33399, "animation": 52771, "在他们": 36973, "und": 18662, "▁accretion": 20318, "velopment": 32750, "據": 6475, "▁tum": 13102, "了不少": 22557, "▁buildings": 9989, "▁morality": 31994, "ousel": 39597, "—": 1669, "▁synonymous": 56110, "nSw": 35567, "▁Following": 17196, "ACK": 10967, "▁difficulties": 17484, "resistant": 41384, "债权人": 47816, "阱": 12609, "Port": 14585, "将自己": 39280, "†": 1676, "чка": 55030, "DAR": 57941, "та": 1799, "▁Privacy": 17228, "车身": 31472, "▁expedition": 43119, "ascular": 22448, "▁Sat": 12343, "▁logarithm": 49539, "<0x1A>": 331, "妇女": 12680, "wo": 1014, "▁Though": 12171, "▁recess": 34750, "▁formulate": 36247, "家校": 57824, "▁fever": 26085, "easy": 40321, "▁mix": 3839, "▁cryst": 10295, "olly": 14136, "DER": 37571, "▁monoton": 36184, "也就是": 7388, "каза": 55104, "Cre": 48532, "账单": 55027, "大师": 15487, "细微": 51949, "组委会": 53182, "▁HEAD": 55244, "现": 8424, "jon": 53479, "大喊": 57971, "最大的": 7480, "▁superior": 12059, "▁stylish": 23516, "▁makeup": 16441, "▁Spectrum": 52481, "connections": 54012, "在工作中": 50199, "▁citizen": 16537, "▁param": 23016, "表达了": 41742, "诊断": 13783, "▁Curry": 45432, "就知道": 35247, "▁bacterial": 39453, "去年": 7109, "nHer": 20768, "相连": 25289, "Tile": 43215, "▁fi": 42785, "▁interception": 56489, "ceptions": 18387, "可谓": 18957, "装机": 49711, "▁level": 1827, "▁Seven": 28047, "aton": 16637, "net": 1790, "▁UINT": 56740, "▁connectivity": 20996, "▁neutr": 12172, "围棋": 54357, "▁loud": 11638, "認識": 19139, "ене": 26730, "星座": 23256, "▁Unit": 18897, "inas": 33834, "基金会": 27698, "▁GNU": 26384, "driver": 21727, "▁obj": 20246, "▁raised": 7176, "选中": 55410, "▁Productions": 48667, "▁reminder": 20394, "▁fol": 5896, "乏力": 47811, "漠": 7855, "联系方式": 48040, "$;\\": 35571, "▁preval": 20536, "▁celebrated": 18134, "storm": 19744, "tok": 23591, "▁wing": 14535, "宗旨": 27330, "tD": 39454, "太难": 52489, "NTI": 30738, "陈某": 28254, "苹果": 9523, "感叹": 29244, "▁inhabitants": 33231, "▁slack": 39479, "▁faced": 12616, "▁sooner": 19701, "▁branding": 33142, "kw": 14466, "壹": 4846, "险": 12641, "▁mistakes": 13199, "▁golf": 13585, "▁plethora": 44360, "листи": 57471, "國內": 17910, "zilla": 23620, "▁Javascript": 41596, "▁Not": 3063, "▁realised": 25970, "guns": 43975, "我记得": 46246, "▁politically": 24147, "▁regulators": 32256, "orth": 2488, "▁sandbox": 59550, "▁Gamb": 57736, "▁echoed": 54028, "il": 15272, "▁blind": 12228, "▁exercise": 7414, "▁pork": 24882, "▁constantly": 9424, "▁gods": 23334, "nInformation": 38691, "▁Spons": 38987, "▁firefighters": 40781, "养老": 9885, "▁pla": 29777, "▁cath": 35616, "届中国": 55828, "otted": 7736, "机": 6829, "\\\\+\\\\_\\\\": 19111, "▁Allen": 16780, "的首": 23705, "▁fing": 10897, "▁би": 16623, "ulance": 35857, "妆": 61662, "停放": 44112, "医生": 6848, "phire": 53087, "游击": 58576, "▁sentence": 9554, "преде": 41669, "南京市": 50984, "胞": 10071, "cient": 7436, "▁Whitney": 48024, "这一次": 22925, "▁Mat": 7158, "ahan": 31001, "▁opp": 1945, "flag": 22417, "setting": 31573, "andem": 44756, "▁symbols": 15549, "他用": 49339, "lp": 25819, "党委": 9145, "战略": 6680, "配置": 9217, "ón": 15057, "▁amplitudes": 21378, "佣": 3373, "折磨": 31677, "ABLE": 12286, "▁Gaz": 37896, "篮板": 28941, "万元": 4161, "▁crappy": 38716, "倡": 3483, "▁zombies": 39847, "▁traces": 27709, "nAssuming": 45030, "嗓": 4398, "▁suits": 19907, "ATER": 35470, "ties": 2995, "等奖": 14840, "▁Rid": 20348, "性的": 4621, "Asp": 53993, "放弃了": 34339, "不知不觉": 35073, "allow": 9364, "▁Bread": 48408, "makers": 15210, "▁modifications": 21772, "售后": 42381, "<|unused039|>": 184, "▁five": 2972, "控制": 15896, "设置在": 36803, "\":\"「": 56126, "报纸": 32308, "\\\\#": 49733, "га": 4769, "▁helpful": 6901, "▁hospital": 7067, "的他": 31021, "了解到": 17768, "par": 1291, "▁steer": 38085, "▁ransom": 52524, "George": 54474, "▁Tiger": 30359, "地形": 43355, "▁requ": 1417, "irts": 12824, "幕": 5530, "微博上": 55497, "Can": 11858, "我和": 12501, "世纪": 8533, "fc": 9790, "▁geometric": 18096, "▁avid": 35801, "接触到": 56586, "▁Run": 11607, "icro": 3017, "大数据": 15155, "▁bronze": 35875, "▁Diane": 45756, "乱的": 56721, "▁biomass": 54560, "铸": 62182, "▁discord": 52505, "Tri": 37132, "笔记": 17477, "▁optics": 38861, "ради": 31450, "黄金": 10412, "uka": 34208, "感动": 14171, "用了": 16350, "▁Aven": 32779, "gc": 39255, "eqnarray": 2810, "結構": 15902, "▁tofu": 56539, "▁neuron": 43805, "的父母": 42287, "十条": 26947, "▁diving": 29908, "▁Impact": 30734, "▁structure": 3307, "分许": 55955, "▁unnecessary": 18664, "▁fibers": 28695, "▁dialog": 10425, "naments": 24484, "双方": 5734, "▁astonishing": 39240, "▁prescribed": 23488, "▁ends": 7836, "▁tech": 10652, "▁stopping": 14995, "Pix": 49362, "会比较": 59101, "ruction": 3252, "通信": 11733, "key": 17468, "▁library": 7097, "水平和": 49461, "▁Cos": 18475, "▁planting": 32297, "▁reduction": 8795, "sticks": 55246, "usan": 49311, "fitted": 56047, "▁hyperparameters": 48365, "Doxy": 19338, "护航": 33153, "▁mt": 47904, "证明了": 47779, "Vol": 18980, "藏着": 48419, "CAC": 49790, "▁majors": 40751, "栅": 6953, "句子": 19185, "▁comfortably": 30764, "格兰": 29994, "还算": 39307, "nBrad": 57669, "▁Graham": 22373, "變化": 16379, "式": 5640, "没问题": 55862, "▁twice": 7755, "Ray": 29911, "▁professionally": 30326, "▁hosted": 15012, "这些问题": 34811, "ga": 19703, "无形": 37682, "sg": 10258, "▁HAVE": 23321, "▁crab": 49346, "都应该": 47601, "吸入": 44382, "▁coc": 28741, "▁citiz": 6296, "▁respondents": 27209, "▁homosexual": 30925, "MDM": 49088, "深刻的": 25735, "学士": 48031, "▁omitted": 32736, "手表": 37108, "▁compromised": 33093, "▁Carpenter": 58430, "▁prom": 2252, "应及时": 58145, "▁Rack": 55140, "▁III": 11309, "tim": 6113, "▁homelessness": 57574, "哈登": 44208, "nNever": 21871, "special": 22057, "eday": 31549, "nmass": 33743, "织": 9824, "量大": 47414, "▁nut": 6230, "ahaw": 33956, "丢": 3153, "▁blurred": 55815, "隐患": 12103, "冻": 61741, "下达": 38730, "启蒙": 44487, "訴": 11184, "开场": 48289, "▁pointer": 21782, "优势": 5798, "▁Zar": 54803, "因为这个": 52137, "首发": 31354, "▁uniqueness": 39661, "assion": 16283, "站": 9315, "account": 16390, "▁capture": 9032, "含量": 13470, "▁hone": 35855, "▁£": 7531, "nj": 13564, "YC": 45446, "▁holomorphic": 46365, "怜": 5795, "▁Out": 5968, "带上": 33252, "▁latter": 7950, "select": 6968, "▁Chest": 53926, "▁Maine": 22177, "党的十九大": 51717, "bab": 39121, "旱": 6631, "▁sitcom": 59516, "惬意": 56790, "超过了": 29469, "▁floats": 57997, "仙": 3285, "▁Ill": 8729, "</strong>": 52, "叫我": 43466, "▁FAR": 59365, "nDo": 8557, "和我": 18373, "告诉记者": 25183, "most": 2315, "一番": 25733, "員工": 16656, "):=\\\\": 40683, "illet": 42024, "▁cropped": 58278, "▁Polic": 56474, "▁Aus": 48501, "▁suffer": 12004, "▁ratios": 16845, "▁volatile": 31538, "▁quickly": 4125, "▁IE": 29700, "H": 45, "的目光": 57896, "专门的": 50334, "涛": 7636, "中期": 28363, "*\\\"": 55639, "▁cocoa": 48465, "▁shortcuts": 46364, "▁Twin": 31740, "▁disruptive": 48829, "vare": 4697, "Whether": 54808, "华盛": 36719, "▁women": 2591, "将要": 49438, "▁SUSY": 50439, "▁employs": 30999, "cible": 39128, "nWed": 54400, "蒸": 10578, "▁Про": 41887, "}%\\": 12143, "▁tragic": 26083, "维修": 15228, "证明原告": 54129, "出轨": 29776, "之际": 19650, "failed": 40538, "▁peculiar": 30532, "nWhenever": 52258, "▁Suz": 30741, "Expl": 35615, "▁предста": 42597, "%;": 20649, "▁Dragon": 20097, "▁kidnapped": 46604, "处长": 49372, "已在": 32205, "igate": 12162, "正式启动": 59298, "平和": 37887, "month": 12147, "▁Luc": 15841, "▁suspected": 21216, "▁Registry": 52958, "消毒": 15198, "nier": 57592, "nch": 6855, "彪": 5699, "党和": 29037, "nent": 29183, "▁committees": 36697, "▁urge": 21662, "uming": 14537, "@{}}": 48075, "nGovernment": 54906, "▁premiums": 35620, "cean": 8651, "更多的是": 31363, "▁\\\"@": 49551, "）（": 50654, "fab": 33385, "▁explains": 10829, "ICY": 55215, "дра": 58439, "Transform": 31418, "招生": 12208, "▁inferred": 30657, "▁landmarks": 47757, "]:": 14395, "越来越大": 46150, "▁tan": 28149, "▁eBook": 52387, "欠款": 41354, "anz": 27670, "▁admired": 45212, "感觉自己": 54100, "Phase": 42937, "ano": 7356, "EventHandler": 55629, "▁tensions": 34700, "▁settlers": 50363, "▁Vitamin": 45674, "私": 9191, "▁Ba": 13452, "▁km": 9877, "мата": 28717, "李嘉": 57145, "▁ensuring": 16353, "▁harder": 10111, "▁mega": 33918, "▁iter": 10032, "▁notions": 34727, "▁condo": 35699, "▁Nuclear": 37406, "▁settlements": 41193, "竞争力": 21059, "▁criter": 21970, "▁illustrations": 31555, "njust": 31707, "BACK": 43595, "认罪": 48673, "tick": 38564, "nStat": 44510, "真": 8884, "▁Bachelor": 35314, "▁Mi": 18592, "不可思议": 46659, "▁John": 3074, "为中国": 33793, "▁homage": 48383, "▁interfaces": 23269, "▁LeBron": 56282, "我现在": 26438, "estion": 11761, "iere": 18237, "▁migr": 34764, "号为": 41583, "▁Administrator": 39885, "▁landscape": 12554, "中间": 10676, "soci": 2385, "▁estim": 3664, "▁rich": 6766, "▁Beck": 19637, "掌控": 32775, "nonce": 54805, "▁midfield": 25795, "▁personality": 12449, "/-": 23918, "顶层": 56673,
[...]
