{
  "version": "1.0",
  "truncation": {
    "direction": "Right",
    "max_length": 1024,
    "strategy": "LongestFirst",
    "stride": 0
  },
  "padding": null,
  "added_tokens": [
    {
      "id": 0,
      "content": "<unk>",
      "single_word": false,
      "lstrip": false,
      "rstrip": false,
      "normalized": true,
      "special": true
    },
    {
      "id": 1,
      "content": "<s>",
      "single_word": false,
      "lstrip": false,
      "rstrip": false,
      "normalized": false,
      "special": true
    },
    {
      "id": 2,
      "content": "</s>",
      "single_word": false,
      "lstrip": false,
      "rstrip": false,
      "normalized": false,
      "special": true
    },
    {
      "id": 3,
      "content": "<|im_start|>",
      "single_word": false,
      "lstrip": false,
      "rstrip": false,
      "normalized": false,
      "special": true
    },
    {
      "id": 4,
      "content": "<|im_end|>",
      "single_word": false,
      "lstrip": false,
      "rstrip": false,
      "normalized": false,
      "special": true
    },
    {
      "id": 5,
      "content": "<|im_sep|>",
      "single_word": false,
      "lstrip": false,
      "rstrip": false,
      "normalized": false,
      "special": true
    },
    {
      "id": 6,
      "content": "<|startoftext|>",
      "single_word": false,
      "lstrip": false,
      "rstrip": false,
      "normalized": true,
      "special": true
    },
    {
      "id": 7,
      "content": "<|endoftext|>",
      "single_word": false,
      "lstrip": false,
      "rstrip": false,
      "normalized": true,
      "special": true
    }
  ],
  "normalizer": {
    "type": "Sequence",
    "normalizers": [
      {
        "type": "Prepend",
        "prepend": "▁"
      },
      {
        "type": "Replace",
        "pattern": {
          "String": " "
        },
        "content": "▁"
      }
    ]
  },
  "pre_tokenizer": null,
  "post_processor": {
    "type": "TemplateProcessing",
    "single": [
      {
        "Sequence": {
          "id": "A",
          "type_id": 0
        }
      }
    ],
    "pair": [
      {
        "Sequence": {
          "id": "A",
          "type_id": 0
        }
      },
      {
        "Sequence": {
          "id": "B",
          "type_id": 1
        }
      }
    ],
    "special_tokens": {}
  },
  "decoder": {
    "type": "Sequence",
    "decoders": [
      {
        "type": "Replace",
        "pattern": {
          "String": "▁"
        },
        "content": " "
      },
      {
        "type": "ByteFallback"
      },
      {
        "type": "Fuse"
      },
      {
        "type": "Strip",
        "content": " ",
        "start": 1,
        "stop": 0
      }
    ]
  },
  "model": {
    "type": "BPE",
    "dropout": null,
    "unk_token": "<unk>",
    "continuing_subword_prefix": null,
    "end_of_word_suffix": null,
    "fuse_unk": true,
    "byte_fallback": true,
    "vocab": {
      "<unk>": 0,
      "<s>": 1,
      "</s>": 2,
      "<|im_start|>": 3,
      "<|im_end|>": 4,
      "<|im_sep|>": 5,
      "<|startoftext|>": 6,
      "<|endoftext|>": 7,
      "!": 8,
      "\"": 9,
      "$": 10,
      "%": 11,
      "&": 12,
      "'": 13,
      "(": 14,
      ")": 15,
      ",": 16,
      "-": 17,
      ".": 18,
      "0": 19,
      "1": 20,
      "2": 21,
      "3": 22,
      "4": 23,
      "5": 24,
      "6": 25,
      "7": 26,
      "8": 27,
      "9": 28,
      ":": 29,
      "?": 30,
      "A": 31,
      "B": 32,
      "C": 33,
      "D": 34,
      "E": 35,
      "F": 36,
      "G": 37,
      "H": 38,
      "I": 39,
      "J": 40,
      "K": 41,
      "L": 42,
      "M": 43,
      "N": 44,
      "O": 45,
      "P": 46,
      "Q": 47,
      "R": 48,
      "S": 49,
      "T": 50,
      "U": 51,
      "V": 52,
      "W": 53,
      "X": 54,
      "Y": 55,
      "Z": 56,
      "[": 57,
      "]": 58,
      "a": 59,
      "b": 60,
      "c": 61,
      "d": 62,
      "e": 63,
      "f": 64,
      "g": 65,
      "h": 66,
      "i": 67,
      "j": 68,
      "k": 69,
      "l": 70,
      "m": 71,
      "n": 72,
      "o": 73,
      "p": 74,
      "q": 75,
      "r": 76,
      "s": 77,
      "t": 78,
      "u": 79,
      "v": 80,
      "w": 81,
      "x": 82,
      "y": 83,
      "z": 84,
      "é": 85,
      "ï": 86,
      "—": 87,
      "’": 88,
      "▁": 89,
      "、": 90,
      "。": 91,
      "《": 92,
      "》": 93,
      "「": 94,
      "」": 95,
      "㓤": 96,
      "㖭": 97,
      "㖿": 98,
      "㗇": 99,
      "㗎": 100,
      "㗱": 101,
      "㗲": 102,
      "㗾": 103,
      "㘉": 104,
      "㤿": 105,
      "㦒": 106,
      "㧻": 107,
      "㧾": 108,
      "㨆": 109,
      "㨘": 110,
      "㨴": 111,
      "㩒": 112,
      "㩧": 113,
      "㬹": 114,
      "㷫": 115,
      "㹃": 116,
      "㿭": 117,
      "䁓": 118,
      "䁪": 119,
      "䁯": 120,
      "䆲": 121,
      "䉺": 122,
      "䏭": 123,
      "䟕": 124,
      "䟴": 125,
      "䠋": 126,
      "䪴": 127,
      "䭤": 128,
      "一": 129,
      "丁": 130,
      "七": 131,
      "三": 132,
      "上": 133,
      "下": 134,
      "不": 135,
      "且": 136,
      "世": 137,
      "丘": 138,
      "丙": 139,
      "丟": 140,
      "両": 141,
      "並": 142,
      "丫": 143,
      "中": 144,
      "串": 145,
      "丸": 146,
      "丹": 147,
      "主": 148,
      "久": 149,
      "之": 150,
      "乎": 151,
      "乏": 152,
      "乒": 153,
      "乓": 154,
      "乖": 155,
      "乘": 156,
      "乙": 157,
      "乜": 158,
      "九": 159,
      "乞": 160,
      "也": 161,
      "乳": 162,
      "乸": 163,
      "乾": 164,
      "亁": 165,
      "亂": 166,
      "了": 167,
      "争": 168,
      "事": 169,
      "二": 170,
      "互": 171,
      "五": 172,
      "井": 173,
      "些": 174,
      "亞": 175,
      "亡": 176,
      "交": 177,
      "亦": 178,
      "亨": 179,
      "享": 180,
      "京": 181,
      "亭": 182,
      "亮": 183,
      "亳": 184,
      "人": 185,
      "仁": 186,
      "仄": 187,
      "仆": 188,
      "仇": 189,
      "今": 190,
      "介": 191,
      "仔": 192,
      "他": 193,
      "仗": 194,
      "付": 195,
      "仙": 196,
      "代": 197,
      "令": 198,
      "以": 199,
      "仰": 200,
      "仲": 201,
      "件": 202,
      "任": 203,
      "份": 204,
      "仿": 205,
      "企": 206,
      "伊": 207,
      "伏": 208,
      "伐": 209,
      "休": 210,
      "伕": 211,
      "伙": 212,
      "伯": 213,
      "估": 214,
      "伶": 215,
      "伸": 216,
      "似": 217,
      "但": 218,
      "佈": 219,
      "位": 220,
      "低": 221,
      "住": 222,
      "佐": 223,
      "佔": 224,
      "何": 225,
      "佗": 226,
      "佛": 227,
      "作": 228,
      "你": 229,
      "佢": 230,
      "佣": 231,
      "佬": 232,
      "佳": 233,
      "佻": 234,
      "使": 235,
      "侄": 236,
      "來": 237,
      "例": 238,
      "侍": 239,
      "侖": 240,
      "供": 241,
      "依": 242,
      "侵": 243,
      "侶": 244,
      "便": 245,
      "係": 246,
      "促": 247,
      "俄": 248,
      "俐": 249,
      "俗": 250,
      "保": 251,
      "俠": 252,
      "信": 253,
      "俬": 254,
      "修": 255,
      "俸": 256,
      "俾": 257,
      "倆": 258,
      "倉": 259,
      "個": 260,
      "倍": 261,
      "倒": 262,
      "倔": 263,
      "候": 264,
      "倚": 265,
      "借": 266,
      "倫": 267,
      "值": 268,
      "假": 269,
      "偈": 270,
      "偉": 271,
      "偏": 272,
      "做": 273,
      "停": 274,
      "健": 275,
      "側": 276,
      "偵": 277,
      "偶": 278,
      "偷": 279,
      "傅": 280,
      "傑": 281,
      "傘": 282,
      "備": 283,
      "傢": 284,
      "催": 285,
      "傭": 286,
      "傳": 287,
      "債": 288,
      "傷": 289,
      "傻": 290,
      "傾": 291,
      "像": 292,
      "僑": 293,
      "僧": 294,
      "僭": 295,
      "僱": 296,
      "價": 297,
      "僻": 298,
      "儀": 299,
      "億": 300,
      "儉": 301,
      "優": 302,
      "儲": 303,
      "兀": 304,
      "元": 305,
      "兄": 306,
      "充": 307,
      "先": 308,
      "光": 309,
      "克": 310,
      "兌": 311,
      "免": 312,
      "兒": 313,
      "兔": 314,
      "兜": 315,
      "入": 316,
      "內": 317,
      "全": 318,
      "兩": 319,
      "八": 320,
      "公": 321,
      "六": 322,
      "共": 323,
      "兵": 324,
      "其": 325,
      "具": 326,
      "典": 327,
      "兼": 328,
      "内": 329,
      "冇": 330,
      "冊": 331,
      "再": 332,
      "冒": 333,
      "冕": 334,
      "冚": 335,
      "冠": 336,
      "冤": 337,
      "冧": 338,
      "冬": 339,
      "冰": 340,
      "况": 341,
      "冷": 342,
      "准": 343,
      "凍": 344,
      "凜": 345,
      "凳": 346,
      "凶": 347,
      "凸": 348,
      "凹": 349,
      "出": 350,
      "刀": 351,
      "刁": 352,
      "分": 353,
      "切": 354,
      "刊": 355,
      "刑": 356,
      "列": 357,
      "初": 358,
      "判": 359,
      "別": 360,
      "刨": 361,
      "利": 362,
      "刮": 363,
      "到": 364,
      "制": 365,
      "刷": 366,
      "刺": 367,
      "刻": 368,
      "剃": 369,
      "則": 370,
      "削": 371,
      "前": 372,
      "剒": 373,
      "剔": 374,
      "剛": 375,
      "剝": 376,
      "剩": 377,
      "剪": 378,
      "副": 379,
      "割": 380,
      "創": 381,
      "剷": 382,
      "劃": 383,
      "劄": 384,
      "劇": 385,
      "劈": 386,
      "劉": 387,
      "劏": 388,
      "劑": 389,
      "劖": 390,
      "力": 391,
      "功": 392,
      "加": 393,
      "劣": 394,
      "助": 395,
      "努": 396,
      "劫": 397,
      "勁": 398,
      "勒": 399,
      "動": 400,
      "務": 401,
      "勝": 402,
      "勞": 403,
      "勢": 404,
      "勤": 405,
      "勵": 406,
      "勸": 407,
      "勻": 408,
      "勾": 409,
      "勿": 410,
      "包": 411,
      "匆": 412,
      "化": 413,
      "北": 414,
      "匙": 415,
      "匪": 416,
      "匯": 417,
      "匹": 418,
      "匿": 419,
      "區": 420,
      "十": 421,
      "千": 422,
      "卅": 423,
      "升": 424,
      "午": 425,
      "半": 426,
      "卑": 427,
      "卒": 428,
      "南": 429,
      "博": 430,
      "卜": 431,
      "占": 432,
      "卡": 433,
      "卦": 434,
      "印": 435,
      "危": 436,
      "即": 437,
      "卷": 438,
      "卸": 439,
      "厘": 440,
      "厚": 441,
      "原": 442,
      "厠": 443,
      "厨": 444,
      "厭": 445,
      "厴": 446,
      "去": 447,
      "參": 448,
      "又": 449,
      "叉": 450,
      "及": 451,
      "友": 452,
      "反": 453,
      "叔": 454,
      "取": 455,
      "受": 456,
      "叠": 457,
      "口": 458,
      "古": 459,
      "句": 460,
      "另": 461,
      "只": 462,
      "叫": 463,
      "叭": 464,
      "叮": 465,
      "可": 466,
      "台": 467,
      "史": 468,
      "右": 469,
      "司": 470,
      "叻": 471,
      "吃": 472,
      "各": 473,
      "合": 474,
      "吉": 475,
      "吊": 476,
      "吋": 477,
      "同": 478,
      "名": 479,
      "吐": 480,
      "向": 481,
      "吒": 482,
      "吓": 483,
      "吔": 484,
      "吖": 485,
      "君": 486,
      "吞": 487,
      "吟": 488,
      "吠": 489,
      "吡": 490,
      "吥": 491,
      "否": 492,
      "吧": 493,
      "含": 494,
      "吱": 495,
      "吸": 496,
      "吹": 497,
      "吻": 498,
      "吼": 499,
      "吽": 500,
      "呀": 501,
      "呂": 502,
      "呃": 503,
      "呆": 504,
      "呈": 505,
      "告": 506,
      "呎": 507,
      "呔": 508,
      "呡": 509,
      "呢": 510,
      "呣": 511,
      "呤": 512,
      "周": 513,
      "呯": 514,
      "呱": 515,
      "味": 516,
      "呵": 517,
      "呷": 518,
      "呻": 519,
      "呼": 520,
      "命": 521,
      "咀": 522,
      "咁": 523,
      "咇": 524,
      "咈": 525,
      "咋": 526,
      "和": 527,
      "咑": 528,
      "咒": 529,
      "咓": 530,
      "咔": 531,
      "咕": 532,
      "咖": 533,
      "咗": 534,
      "咘": 535,
      "咜": 536,
      "咦": 537,
      "咧": 538,
      "咩": 539,
      "咪": 540,
      "咬": 541,
      "咭": 542,
      "咯": 543,
      "咳": 544,
      "咸": 545,
      "咹": 546,
      "咾": 547,
      "咿": 548,
      "品": 549,
      "哄": 550,
      "哇": 551,
      "哈": 552,
      "哋": 553,
      "响": 554,
      "哎": 555,
      "哚": 556,
      "員": 557,
      "哣": 558,
      "哥": 559,
      "哦": 560,
      "哨": 561,
      "哩": 562,
      "哭": 563,
      "哼": 564,
      "哽": 565,
      "哾": 566,
      "唂": 567,
      "唆": 568,
      "唇": 569,
      "唉": 570,
      "唊": 571,
      "唎": 572,
      "唏": 573,
      "唐": 574,
      "唓": 575,
      "唔": 576,
      "唚": 577,
      "唞": 578,
      "唥": 579,
      "唦": 580,
      "唧": 581,
      "唨": 582,
      "售": 583,
      "唯": 584,
      "唱": 585,
      "唿": 586,
      "啃": 587,
      "啄": 588,
      "商": 589,
      "啉": 590,
      "啊": 591,
      "啋": 592,
      "問": 593,
      "啖": 594,
      "啗": 595,
      "啜": 596,
      "啞": 597,
      "啡": 598,
      "啤": 599,
      "啥": 600,
      "啦": 601,
      "啩": 602,
      "啪": 603,
      "啫": 604,
      "啱": 605,
      "啲": 606,
      "啷": 607,
      "啹": 608,
      "啽": 609,
      "喀": 610,
      "喂": 611,
      "喃": 612,
      "善": 613,
      "喇": 614,
      "喉": 615,
      "喊": 616,
      "喎": 617,
      "喐": 618,
      "喘": 619,
      "喜": 620,
      "喝": 621,
      "喧": 622,
      "喪": 623,
      "喫": 624,
      "單": 625,
      "喱": 626,
      "喳": 627,
      "喴": 628,
      "喵": 629,
      "喺": 630,
      "喼": 631,
      "嗅": 632,
      "嗌": 633,
      "嗍": 634,
      "嗏": 635,
      "嗒": 636,
      "嗗": 637,
      "嗙": 638,
      "嗚": 639,
      "嗜": 640,
      "嗤": 641,
      "嗦": 642,
      "嗰": 643,
      "嗱": 644,
      "嗲": 645,
      "嗿": 646,
      "嘅": 647,
      "嘈": 648,
      "嘉": 649,
      "嘍": 650,
      "嘔": 651,
      "嘗": 652,
      "嘛": 653,
      "嘜": 654,
      "嘞": 655,
      "嘟": 656,
      "嘢": 657,
      "嘥": 658,
      "嘩": 659,
      "嘭": 660,
      "嘮": 661,
      "嘴": 662,
      "嘶": 663,
      "嘸": 664,
      "嘺": 665,
      "嘻": 666,
      "噁": 667,
      "噃": 668,
      "噉": 669,
      "噍": 670,
      "噎": 671,
      "噏": 672,
      "噒": 673,
      "噔": 674,
      "噚": 675,
      "噠": 676,
      "器": 677,
      "噪": 678,
      "噬": 679,
      "噱": 680,
      "噴": 681,
      "噸": 682,
      "噹": 683,
      "噼": 684,
      "嚇": 685,
      "嚎": 686,
      "嚕": 687,
      "嚙": 688,
      "嚟": 689,
      "嚡": 690,
      "嚤": 691,
      "嚨": 692,
      "嚬": 693,
      "嚱": 694,
      "嚴": 695,
      "嚹": 696,
      "嚼": 697,
      "嚿": 698,
      "囉": 699,
      "囊": 700,
      "囋": 701,
      "囑": 702,
      "囗": 703,
      "囚": 704,
      "四": 705,
      "囝": 706,
      "回": 707,
      "囟": 708,
      "因": 709,
      "囡": 710,
      "囪": 711,
      "困": 712,
      "固": 713,
      "圈": 714,
      "國": 715,
      "圍": 716,
      "園": 717,
      "圓": 718,
      "圖": 719,
      "團": 720,
      "土": 721,
      "在": 722,
      "地": 723,
      "圳": 724,
      "圾": 725,
      "址": 726,
      "均": 727,
      "坊": 728,
      "坐": 729,
      "坑": 730,
      "坡": 731,
      "坤": 732,
      "坦": 733,
      "坺": 734,
      "垃": 735,
      "型": 736,
      "垢": 737,
      "埃": 738,
      "埋": 739,
      "城": 740,
      "埔": 741,
      "埕": 742,
      "埗": 743,
      "埞": 744,
      "域": 745,
      "埠": 746,
      "埲": 747,
      "執": 748,
      "基": 749,
      "堂": 750,
      "堅": 751,
      "堆": 752,
      "堪": 753,
      "報": 754,
      "場": 755,
      "塊": 756,
      "塑": 757,
      "塔": 758,
      "塘": 759,
      "塞": 760,
      "填": 761,
      "塵": 762,
      "境": 763,
      "墓": 764,
      "墘": 765,
      "墜": 766,
      "增": 767,
      "墟": 768,
      "墨": 769,
      "墩": 770,
      "墮": 771,
      "墳": 772,
      "壅": 773,
      "壆": 774,
      "壓": 775,
      "壞": 776,
      "壢": 777,
      "士": 778,
      "壬": 779,
      "壺": 780,
      "壽": 781,
      "夏": 782,
      "夕": 783,
      "外": 784,
      "多": 785,
      "夜": 786,
      "夠": 787,
      "夢": 788,
      "大": 789,
      "天": 790,
      "太": 791,
      "夫": 792,
      "夭": 793,
      "央": 794,
      "失": 795,
      "夷": 796,
      "夾": 797,
      "奀": 798,
      "奄": 799,
      "奇": 800,
      "奉": 801,
      "契": 802,
      "奔": 803,
      "套": 804,
      "奧": 805,
      "奪": 806,
      "奮": 807,
      "女": 808,
      "奴": 809,
      "奶": 810,
      "奸": 811,
      "好": 812,
      "如": 813,
      "妓": 814,
      "妖": 815,
      "妙": 816,
      "妝": 817,
      "妥": 818,
      "妨": 819,
      "妹": 820,
      "妻": 821,
      "姆": 822,
      "姊": 823,
      "始": 824,
      "姐": 825,
      "姑": 826,
      "姓": 827,
      "委": 828,
      "姣": 829,
      "姦": 830,
      "姨": 831,
      "姪": 832,
      "姻": 833,
      "姿": 834,
      "威": 835,
      "娃": 836,
      "娘": 837,
      "娛": 838,
      "娩": 839,
      "娶": 840,
      "娼": 841,
      "婄": 842,
      "婆": 843,
      "婚": 844,
      "婦": 845,
      "婿": 846,
      "媒": 847,
      "媽": 848,
      "嫁": 849,
      "嫂": 850,
      "嫋": 851,
      "嫌": 852,
      "嫖": 853,
      "嫩": 854,
      "嫲": 855,
      "嬌": 856,
      "嬰": 857,
      "嬲": 858,
      "嬸": 859,
      "子": 860,
      "孕": 861,
      "孖": 862,
      "字": 863,
      "存": 864,
      "孝": 865,
      "季": 866,
      "孤": 867,
      "孫": 868,
      "孭": 869,
      "孱": 870,
      "學": 871,
      "孻": 872,
      "孿": 873,
      "宅": 874,
      "守": 875,
      "安": 876,
      "完": 877,
      "宗": 878,
      "官": 879,
      "定": 880,
      "宜": 881,
      "客": 882,
      "宣": 883,
      "室": 884,
      "宮": 885,
      "害": 886,
      "宴": 887,
      "宵": 888,
      "家": 889,
      "容": 890,
      "宿": 891,
      "寂": 892,
      "寄": 893,
      "密": 894,
      "富": 895,
      "寒": 896,
      "寞": 897,
      "察": 898,
      "寡": 899,
      "寥": 900,
      "實": 901,
      "寧": 902,
      "審": 903,
      "寫": 904,
      "寬": 905,
      "寮": 906,
      "寵": 907,
      "寶": 908,
      "寸": 909,
      "寺": 910,
      "封": 911,
      "射": 912,
      "將": 913,
      "專": 914,
      "尊": 915,
      "尋": 916,
      "對": 917,
      "導": 918,
      "小": 919,
      "少": 920,
      "尖": 921,
      "尚": 922,
      "尤": 923,
      "尬": 924,
      "就": 925,
      "尷": 926,
      "尺": 927,
      "尼": 928,
      "尾": 929,
      "尿": 930,
      "局": 931,
      "屁": 932,
      "居": 933,
      "屆": 934,
      "屈": 935,
      "屋": 936,
      "屍": 937,
      "屎": 938,
      "屐": 939,
      "展": 940,
      "屘": 941,
      "屙": 942,
      "層": 943,
      "屬": 944,
      "山": 945,
      "岩": 946,
      "岸": 947,
      "峰": 948,
      "島": 949,
      "崖": 950,
      "崗": 951,
      "崩": 952,
      "嶼": 953,
      "巉": 954,
      "川": 955,
      "州": 956,
      "巡": 957,
      "巢": 958,
      "工": 959,
      "左": 960,
      "差": 961,
      "己": 962,
      "已": 963,
      "巴": 964,
      "巷": 965,
      "巾": 966,
      "市": 967,
      "布": 968,
      "希": 969,
      "帑": 970,
      "帖": 971,
      "帝": 972,
      "師": 973,
      "席": 974,
      "帳": 975,
      "帶": 976,
      "常": 977,
      "帽": 978,
      "幅": 979,
      "幕": 980,
      "幢": 981,
      "幣": 982,
      "幫": 983,
      "干": 984,
      "平": 985,
      "年": 986,
      "幸": 987,
      "幹": 988,
      "幼": 989,
      "幽": 990,
      "幾": 991,
      "庇": 992,
      "序": 993,
      "底": 994,
      "店": 995,
      "府": 996,
      "度": 997,
      "座": 998,
      "庫": 999,
      "庭": 1000,
      "庵": 1001,
      "康": 1002,
      "廁": 1003,
      "廂": 1004,
      "廈": 1005,
      "廉": 1006,
      "廊": 1007,
      "廚": 1008,
      "廟": 1009,
      "廠": 1010,
      "廢": 1011,
      "廣": 1012,
      "廳": 1013,
      "延": 1014,
      "建": 1015,
      "廿": 1016,
      "弄": 1017,
      "弊": 1018,
      "式": 1019,
      "弓": 1020,
      "引": 1021,
      "弗": 1022,
      "弟": 1023,
      "弦": 1024,
      "弱": 1025,
      "張": 1026,
      "強": 1027,
      "强": 1028,
      "彈": 1029,
      "彌": 1030,
      "彎": 1031,
      "彙": 1032,
      "形": 1033,
      "彩": 1034,
      "彭": 1035,
      "影": 1036,
      "往": 1037,
      "待": 1038,
      "徇": 1039,
      "律": 1040,
      "後": 1041,
      "徑": 1042,
      "徒": 1043,
      "得": 1044,
      "徙": 1045,
      "從": 1046,
      "復": 1047,
      "微": 1048,
      "徵": 1049,
      "德": 1050,
      "心": 1051,
      "必": 1052,
      "忌": 1053,
      "忍": 1054,
      "志": 1055,
      "忘": 1056,
      "忙": 1057,
      "忠": 1058,
      "快": 1059,
      "念": 1060,
      "忽": 1061,
      "忿": 1062,
      "怒": 1063,
      "怕": 1064,
      "怖": 1065,
      "思": 1066,
      "怡": 1067,
      "急": 1068,
      "性": 1069,
      "怨": 1070,
      "怪": 1071,
      "恃": 1072,
      "恆": 1073,
      "恐": 1074,
      "恤": 1075,
      "恥": 1076,
      "恨": 1077,
      "恩": 1078,
      "息": 1079,
      "恰": 1080,
      "悉": 1081,
      "悍": 1082,
      "悔": 1083,
      "患": 1084,
      "悲": 1085,
      "悶": 1086,
      "悼": 1087,
      "情": 1088,
      "惑": 1089,
      "惜": 1090,
      "惟": 1091,
      "惠": 1092,
      "惡": 1093,
      "惱": 1094,
      "想": 1095,
      "惹": 1096,
      "愈": 1097,
      "意": 1098,
      "愛": 1099,
      "感": 1100,
      "慈": 1101,
      "態": 1102,
      "慌": 1103,
      "慕": 1104,
      "慘": 1105,
      "慢": 1106,
      "慣": 1107,
      "慪": 1108,
      "慮": 1109,
      "慰": 1110,
      "慳": 1111,
      "慶": 1112,
      "慾": 1113,
      "憂": 1114,
      "憎": 1115,
      "憐": 1116,
      "憑": 1117,
      "憤": 1118,
      "憩": 1119,
      "憶": 1120,
      "懂": 1121,
      "應": 1122,
      "懦": 1123,
      "懲": 1124,
      "懵": 1125,
      "懶": 1126,
      "懷": 1127,
      "戀": 1128,
      "戇": 1129,
      "成": 1130,
      "我": 1131,
      "戒": 1132,
      "或": 1133,
      "戙": 1134,
      "戚": 1135,
      "戟": 1136,
      "戥": 1137,
      "截": 1138,
      "戰": 1139,
      "戲": 1140,
      "戴": 1141,
      "戶": 1142,
      "戽": 1143,
      "房": 1144,
      "所": 1145,
      "扁": 1146,
      "扇": 1147,
      "手": 1148,
      "才": 1149,
      "扎": 1150,
      "扑": 1151,
      "扒": 1152,
      "打": 1153,
      "托": 1154,
      "扠": 1155,
      "扣": 1156,
      "扤": 1157,
      "扭": 1158,
      "扮": 1159,
      "扯": 1160,
      "扱": 1161,
      "扲": 1162,
      "扳": 1163,
      "扶": 1164,
      "批": 1165,
      "扽": 1166,
      "找": 1167,
      "承": 1168,
      "技": 1169,
      "抄": 1170,
      "抆": 1171,
      "把": 1172,
      "抌": 1173,
      "抑": 1174,
      "抓": 1175,
      "投": 1176,
      "抖": 1177,
      "抗": 1178,
      "折": 1179,
      "抦": 1180,
      "披": 1181,
      "抬": 1182,
      "抰": 1183,
      "抱": 1184,
      "抳": 1185,
      "抵": 1186,
      "抹": 1187,
      "押": 1188,
      "抽": 1189,
      "抿": 1190,
      "拃": 1191,
      "拆": 1192,
      "拉": 1193,
      "拋": 1194,
      "拍": 1195,
      "拎": 1196,
      "拐": 1197,
      "拒": 1198,
      "拓": 1199,
      "拖": 1200,
      "拗": 1201,
      "拘": 1202,
      "拚": 1203,
      "招": 1204,
      "拜": 1205,
      "拫": 1206,
      "括": 1207,
      "拮": 1208,
      "拯": 1209,
      "拳": 1210,
      "拼": 1211,
      "拾": 1212,
      "拿": 1213,
      "持": 1214,
      "指": 1215,
      "挈": 1216,
      "按": 1217,
      "挐": 1218,
      "挑": 1219,
      "挖": 1220,
      "挨": 1221,
      "挫": 1222,
      "挲": 1223,
      "挹": 1224,
      "挼": 1225,
      "挽": 1226,
      "挾": 1227,
      "捅": 1228,
      "捉": 1229,
      "捋": 1230,
      "捐": 1231,
      "捕": 1232,
      "捧": 1233,
      "捨": 1234,
      "捱": 1235,
      "捲": 1236,
      "捵": 1237,
      "捶": 1238,
      "捷": 1239,
      "捹": 1240,
      "捻": 1241,
      "捽": 1242,
      "掂": 1243,
      "掃": 1244,
      "授": 1245,
      "掉": 1246,
      "掌": 1247,
      "排": 1248,
      "掕": 1249,
      "掗": 1250,
      "掘": 1251,
      "掙": 1252,
      "掛": 1253,
      "掟": 1254,
      "掠": 1255,
      "採": 1256,
      "探": 1257,
      "掣": 1258,
      "接": 1259,
      "控": 1260,
      "推": 1261,
      "掩": 1262,
      "措": 1263,
      "掬": 1264,
      "掱": 1265,
      "掹": 1266,
      "揀": 1267,
      "揅": 1268,
      "揇": 1269,
      "揈": 1270,
      "揉": 1271,
      "提": 1272,
      "插": 1273,
      "揗": 1274,
      "揚": 1275,
      "換": 1276,
      "揞": 1277,
      "握": 1278,
      "揢": 1279,
      "揤": 1280,
      "揦": 1281,
      "揩": 1282,
      "揪": 1283,
      "揭": 1284,
      "揮": 1285,
      "援": 1286,
      "揸": 1287,
      "搉": 1288,
      "損": 1289,
      "搏": 1290,
      "搓": 1291,
      "搖": 1292,
      "搗": 1293,
      "搜": 1294,
      "搞": 1295,
      "搣": 1296,
      "搦": 1297,
      "搪": 1298,
      "搬": 1299,
      "搭": 1300,
      "搲": 1301,
      "搵": 1302,
      "搶": 1303,
      "搽": 1304,
      "摑": 1305,
      "摘": 1306,
      "摙": 1307,
      "摜": 1308,
      "摟": 1309,
      "摩": 1310,
      "摱": 1311,
      "摳": 1312,
      "摵": 1313,
      "摷": 1314,
      "摸": 1315,
      "摺": 1316,
      "摼": 1317,
      "撇": 1318,
      "撈": 1319,
      "撍": 1320,
      "撐": 1321,
      "撒": 1322,
      "撚": 1323,
      "撞": 1324,
      "撠": 1325,
      "撤": 1326,
      "撥": 1327,
      "撩": 1328,
      "撬": 1329,
      "播": 1330,
      "撲": 1331,
      "撳": 1332,
      "撴": 1333,
      "撻": 1334,
      "撼": 1335,
      "擁": 1336,
      "擂": 1337,
      "擅": 1338,
      "擇": 1339,
      "擊": 1340,
      "擋": 1341,
      "操": 1342,
      "擎": 1343,
      "擏": 1344,
      "擒": 1345,
      "擔": 1346,
      "擗": 1347,
      "擘": 1348,
      "據": 1349,
      "擝": 1350,
      "擠": 1351,
      "擦": 1352,
      "擯": 1353,
      "擰": 1354,
      "擲": 1355,
      "擴": 1356,
      "擸": 1357,
      "擺": 1358,
      "擾": 1359,
      "攜": 1360,
      "攝": 1361,
      "攞": 1362,
      "攣": 1363,
      "攤": 1364,
      "攪": 1365,
      "攬": 1366,
      "支": 1367,
      "攰": 1368,
      "收": 1369,
      "改": 1370,
      "攻": 1371,
      "放": 1372,
      "政": 1373,
      "故": 1374,
      "效": 1375,
      "敏": 1376,
      "救": 1377,
      "敗": 1378,
      "教": 1379,
      "敢": 1380,
      "散": 1381,
      "敦": 1382,
      "敬": 1383,
      "整": 1384,
      "數": 1385,
      "文": 1386,
      "斑": 1387,
      "斗": 1388,
      "料": 1389,
      "斜": 1390,
      "斟": 1391,
      "斤": 1392,
      "斧": 1393,
      "斬": 1394,
      "斯": 1395,
      "新": 1396,
      "斷": 1397,
      "方": 1398,
      "於": 1399,
      "施": 1400,
      "旁": 1401,
      "旅": 1402,
      "旋": 1403,
      "族": 1404,
      "旗": 1405,
      "既": 1406,
      "日": 1407,
      "旦": 1408,
      "旨": 1409,
      "早": 1410,
      "旱": 1411,
      "旺": 1412,
      "昂": 1413,
      "明": 1414,
      "昏": 1415,
      "易": 1416,
      "昔": 1417,
      "星": 1418,
      "春": 1419,
      "是": 1420,
      "時": 1421,
      "晏": 1422,
      "晒": 1423,
      "晚": 1424,
      "晝": 1425,
      "晦": 1426,
      "晨": 1427,
      "普": 1428,
      "景": 1429,
      "晰": 1430,
      "晶": 1431,
      "智": 1432,
      "晾": 1433,
      "暇": 1434,
      "暈": 1435,
      "暉": 1436,
      "暑": 1437,
      "暖": 1438,
      "暗": 1439,
      "暢": 1440,
      "暫": 1441,
      "暴": 1442,
      "曆": 1443,
      "曉": 1444,
      "曚": 1445,
      "曝": 1446,
      "曬": 1447,
      "曱": 1448,
      "曲": 1449,
      "曳": 1450,
      "更": 1451,
      "書": 1452,
      "曼": 1453,
      "曾": 1454,
      "替": 1455,
      "最": 1456,
      "會": 1457,
      "月": 1458,
      "有": 1459,
      "朋": 1460,
      "服": 1461,
      "朗": 1462,
      "朘": 1463,
      "望": 1464,
      "朝": 1465,
      "期": 1466,
      "木": 1467,
      "未": 1468,
      "末": 1469,
      "本": 1470,
      "朱": 1471,
      "朵": 1472,
      "李": 1473,
      "杏": 1474,
      "材": 1475,
      "村": 1476,
      "杖": 1477,
      "杜": 1478,
      "束": 1479,
      "杠": 1480,
      "杯": 1481,
      "杰": 1482,
      "東": 1483,
      "松": 1484,
      "板": 1485,
      "枉": 1486,
      "析": 1487,
      "枕": 1488,
      "林": 1489,
      "枚": 1490,
      "果": 1491,
      "枝": 1492,
      "枱": 1493,
      "枳": 1494,
      "枴": 1495,
      "架": 1496,
      "柄": 1497,
      "某": 1498,
      "柑": 1499,
      "染": 1500,
      "柔": 1501,
      "柚": 1502,
      "查": 1503,
      "柯": 1504,
      "柱": 1505,
      "柳": 1506,
      "柴": 1507,
      "査": 1508,
      "柿": 1509,
      "栗": 1510,
      "校": 1511,
      "核": 1512,
      "根": 1513,
      "格": 1514,
      "桂": 1515,
      "桃": 1516,
      "框": 1517,
      "案": 1518,
      "桑": 1519,
      "桔": 1520,
      "桶": 1521,
      "桿": 1522,
      "梁": 1523,
      "梅": 1524,
      "梆": 1525,
      "梗": 1526,
      "梘": 1527,
      "條": 1528,
      "梧": 1529,
      "梨": 1530,
      "梭": 1531,
      "梯": 1532,
      "械": 1533,
      "梳": 1534,
      "棄": 1535,
      "棉": 1536,
      "棋": 1537,
      "棍": 1538,
      "棖": 1539,
      "棚": 1540,
      "棟": 1541,
      "森": 1542,
      "棹": 1543,
      "棺": 1544,
      "椅": 1545,
      "植": 1546,
      "椒": 1547,
      "椗": 1548,
      "椰": 1549,
      "楊": 1550,
      "楚": 1551,
      "業": 1552,
      "極": 1553,
      "楷": 1554,
      "概": 1555,
      "榛": 1556,
      "榜": 1557,
      "榮": 1558,
      "榴": 1559,
      "構": 1560,
      "槌": 1561,
      "槍": 1562,
      "槓": 1563,
      "槽": 1564,
      "樂": 1565,
      "樑": 1566,
      "樓": 1567,
      "樖": 1568,
      "標": 1569,
      "樟": 1570,
      "模": 1571,
      "樣": 1572,
      "横": 1573,
      "樹": 1574,
      "樽": 1575,
      "橇": 1576,
      "橋": 1577,
      "橙": 1578,
      "橛": 1579,
      "機": 1580,
      "橡": 1581,
      "橫": 1582,
      "檔": 1583,
      "檢": 1584,
      "檬": 1585,
      "檳": 1586,
      "檸": 1587,
      "櫃": 1588,
      "櫈": 1589,
      "欄": 1590,
      "權": 1591,
      "欖": 1592,
      "欠": 1593,
      "次": 1594,
      "欣": 1595,
      "欺": 1596,
      "款": 1597,
      "歇": 1598,
      "歉": 1599,
      "歌": 1600,
      "歎": 1601,
      "歐": 1602,
      "歡": 1603,
      "止": 1604,
      "正": 1605,
      "步": 1606,
      "武": 1607,
      "歧": 1608,
      "歪": 1609,
      "歲": 1610,
      "歳": 1611,
      "歷": 1612,
      "歸": 1613,
      "歹": 1614,
      "死": 1615,
      "殆": 1616,
      "殊": 1617,
      "殘": 1618,
      "殮": 1619,
      "殯": 1620,
      "段": 1621,
      "殺": 1622,
      "殼": 1623,
      "殽": 1624,
      "毀": 1625,
      "母": 1626,
      "每": 1627,
      "毒": 1628,
      "比": 1629,
      "毛": 1630,
      "毡": 1631,
      "毫": 1632,
      "氈": 1633,
      "氏": 1634,
      "民": 1635,
      "氛": 1636,
      "氣": 1637,
      "水": 1638,
      "永": 1639,
      "氹": 1640,
      "汀": 1641,
      "汁": 1642,
      "求": 1643,
      "汗": 1644,
      "汞": 1645,
      "江": 1646,
      "池": 1647,
      "污": 1648,
      "汪": 1649,
      "決": 1650,
      "汽": 1651,
      "沈": 1652,
      "沉": 1653,
      "沊": 1654,
      "沒": 1655,
      "沓": 1656,
      "沖": 1657,
      "沙": 1658,
      "沬": 1659,
      "河": 1660,
      "油": 1661,
      "治": 1662,
      "沽": 1663,
      "沿": 1664,
      "況": 1665,
      "泉": 1666,
      "泊": 1667,
      "泌": 1668,
      "法": 1669,
      "泛": 1670,
      "泡": 1671,
      "波": 1672,
      "泥": 1673,
      "注": 1674,
      "泰": 1675,
      "泳": 1676,
      "泵": 1677,
      "洋": 1678,
      "洌": 1679,
      "洗": 1680,
      "洞": 1681,
      "津": 1682,
      "洩": 1683,
      "洲": 1684,
      "活": 1685,
      "派": 1686,
      "流": 1687,
      "浪": 1688,
      "浭": 1689,
      "浮": 1690,
      "浴": 1691,
      "海": 1692,
      "浸": 1693,
      "消": 1694,
      "涉": 1695,
      "涌": 1696,
      "涕": 1697,
      "液": 1698,
      "涸": 1699,
      "涼": 1700,
      "淋": 1701,
      "淒": 1702,
      "淘": 1703,
      "淚": 1704,
      "淡": 1705,
      "淤": 1706,
      "淥": 1707,
      "淨": 1708,
      "淫": 1709,
      "淰": 1710,
      "深": 1711,
      "淵": 1712,
      "混": 1713,
      "淺": 1714,
      "添": 1715,
      "清": 1716,
      "減": 1717,
      "渠": 1718,
      "渡": 1719,
      "渣": 1720,
      "渧": 1721,
      "測": 1722,
      "港": 1723,
      "渴": 1724,
      "游": 1725,
      "湊": 1726,
      "湖": 1727,
      "湘": 1728,
      "湧": 1729,
      "湯": 1730,
      "湴": 1731,
      "溏": 1732,
      "源": 1733,
      "準": 1734,
      "溚": 1735,
      "溜": 1736,
      "溝": 1737,
      "溦": 1738,
      "溪": 1739,
      "溫": 1740,
      "溶": 1741,
      "溼": 1742,
      "滅": 1743,
      "滋": 1744,
      "滑": 1745,
      "滘": 1746,
      "滮": 1747,
      "滯": 1748,
      "滲": 1749,
      "滴": 1750,
      "滾": 1751,
      "滿": 1752,
      "漁": 1753,
      "漆": 1754,
      "漏": 1755,
      "演": 1756,
      "漫": 1757,
      "漬": 1758,
      "漸": 1759,
      "漿": 1760,
      "潑": 1761,
      "潔": 1762,
      "潛": 1763,
      "潞": 1764,
      "潤": 1765,
      "潦": 1766,
      "潮": 1767,
      "潲": 1768,
      "潺": 1769,
      "澎": 1770,
      "澳": 1771,
      "激": 1772,
      "濃": 1773,
      "濕": 1774,
      "濟": 1775,
      "濫": 1776,
      "濱": 1777,
      "瀄": 1778,
      "瀉": 1779,
      "瀑": 1780,
      "瀝": 1781,
      "瀟": 1782,
      "灒": 1783,
      "灘": 1784,
      "灣": 1785,
      "火": 1786,
      "灰": 1787,
      "灶": 1788,
      "灼": 1789,
      "災": 1790,
      "炆": 1791,
      "炎": 1792,
      "炒": 1793,
      "炕": 1794,
      "炖": 1795,
      "炙": 1796,
      "炠": 1797,
      "炩": 1798,
      "炬": 1799,
      "炭": 1800,
      "炮": 1801,
      "炸": 1802,
      "為": 1803,
      "烈": 1804,
      "烏": 1805,
      "烚": 1806,
      "烤": 1807,
      "烹": 1808,
      "烽": 1809,
      "焊": 1810,
      "焗": 1811,
      "焙": 1812,
      "焚": 1813,
      "無": 1814,
      "焦": 1815,
      "焫": 1816,
      "然": 1817,
      "煀": 1818,
      "煎": 1819,
      "煙": 1820,
      "煞": 1821,
      "煤": 1822,
      "照": 1823,
      "煨": 1824,
      "煩": 1825,
      "煮": 1826,
      "煱": 1827,
      "煲": 1828,
      "煽": 1829,
      "熄": 1830,
      "熏": 1831,
      "熗": 1832,
      "熟": 1833,
      "熱": 1834,
      "燂": 1835,
      "燈": 1836,
      "燒": 1837,
      "燕": 1838,
      "燙": 1839,
      "營": 1840,
      "燥": 1841,
      "燦": 1842,
      "燭": 1843,
      "燶": 1844,
      "爆": 1845,
      "爐": 1846,
      "爛": 1847,
      "爪": 1848,
      "爬": 1849,
      "爭": 1850,
      "爲": 1851,
      "父": 1852,
      "爸": 1853,
      "爹": 1854,
      "爺": 1855,
      "爽": 1856,
      "爾": 1857,
      "牀": 1858,
      "牆": 1859,
      "片": 1860,
      "版": 1861,
      "牌": 1862,
      "牙": 1863,
      "牛": 1864,
      "物": 1865,
      "牯": 1866,
      "特": 1867,
      "牽": 1868,
      "犀": 1869,
      "犯": 1870,
      "狀": 1871,
      "狂": 1872,
      "狐": 1873,
      "狗": 1874,
      "狡": 1875,
      "狼": 1876,
      "猛": 1877,
      "猜": 1878,
      "猴": 1879,
      "猶": 1880,
      "猾": 1881,
      "獄": 1882,
      "獅": 1883,
      "獎": 1884,
      "獨": 1885,
      "獲": 1886,
      "獵": 1887,
      "獸": 1888,
      "率": 1889,
      "玉": 1890,
      "王": 1891,
      "玩": 1892,
      "玫": 1893,
      "玲": 1894,
      "玳": 1895,
      "玻": 1896,
      "珍": 1897,
      "珠": 1898,
      "班": 1899,
      "現": 1900,
      "球": 1901,
      "理": 1902,
      "琴": 1903,
      "瑁": 1904,
      "瑞": 1905,
      "瑰": 1906,
      "璃": 1907,
      "環": 1908,
      "瓏": 1909,
      "瓜": 1910,
      "瓣": 1911,
      "瓦": 1912,
      "瓷": 1913,
      "甘": 1914,
      "甚": 1915,
      "甜": 1916,
      "生": 1917,
      "產": 1918,
      "甦": 1919,
      "用": 1920,
      "甩": 1921,
      "甫": 1922,
      "田": 1923,
      "由": 1924,
      "甲": 1925,
      "申": 1926,
      "甴": 1927,
      "男": 1928,
      "甸": 1929,
      "畀": 1930,
      "界": 1931,
      "留": 1932,
      "畢": 1933,
      "略": 1934,
      "番": 1935,
      "畫": 1936,
      "異": 1937,
      "當": 1938,
      "疊": 1939,
      "疏": 1940,
      "疑": 1941,
      "疚": 1942,
      "疫": 1943,
      "疴": 1944,
      "疼": 1945,
      "痄": 1946,
      "病": 1947,
      "症": 1948,
      "痕": 1949,
      "痛": 1950,
      "痠": 1951,
      "痢": 1952,
      "痧": 1953,
      "痰": 1954,
      "痱": 1955,
      "痴": 1956,
      "痺": 1957,
      "痾": 1958,
      "瘀": 1959,
      "瘋": 1960,
      "瘌": 1961,
      "瘟": 1962,
      "瘡": 1963,
      "瘤": 1964,
      "瘦": 1965,
      "瘺": 1966,
      "療": 1967,
      "癌": 1968,
      "癐": 1969,
      "癖": 1970,
      "癡": 1971,
      "癢": 1972,
      "癦": 1973,
      "癩": 1974,
      "癪": 1975,
      "癮": 1976,
      "癱": 1977,
      "癲": 1978,
      "登": 1979,
      "發": 1980,
      "白": 1981,
      "百": 1982,
      "的": 1983,
      "皆": 1984,
      "皇": 1985,
      "皮": 1986,
      "皺": 1987,
      "皿": 1988,
      "盃": 1989,
      "盅": 1990,
      "盆": 1991,
      "益": 1992,
      "盒": 1993,
      "盔": 1994,
      "盛": 1995,
      "盜": 1996,
      "盞": 1997,
      "盟": 1998,
      "盡": 1999,
      "監": 2000,
      "盤": 2001,
      "盪": 2002,
      "目": 2003,
      "盲": 2004,
      "直": 2005,
      "相": 2006,
      "省": 2007,
      "眈": 2008,
      "眉": 2009,
      "真": 2010,
      "眠": 2011,
      "眯": 2012,
      "眼": 2013,
      "眾": 2014,
      "着": 2015,
      "睄": 2016,
      "睇": 2017,
      "睛": 2018,
      "睡": 2019,
      "督": 2020,
      "睥": 2021,
      "睦": 2022,
      "睩": 2023,
      "睬": 2024,
      "睸": 2025,
      "睺": 2026,
      "瞄": 2027,
      "瞇": 2028,
      "瞓": 2029,
      "矇": 2030,
      "矋": 2031,
      "矛": 2032,
      "矜": 2033,
      "知": 2034,
      "矩": 2035,
      "短": 2036,
      "矮": 2037,
      "石": 2038,
      "矺": 2039,
      "砂": 2040,
      "砌": 2041,
      "研": 2042,
      "砣": 2043,
      "砲": 2044,
      "破": 2045,
      "砵": 2046,
      "砸": 2047,
      "硬": 2048,
      "碌": 2049,
      "碎": 2050,
      "碗": 2051,
      "碟": 2052,
      "碧": 2053,
      "碰": 2054,
      "確": 2055,
      "碼": 2056,
      "磁": 2057,
      "磅": 2058,
      "磚": 2059,
      "磧": 2060,
      "磨": 2061,
      "礙": 2062,
      "礦": 2063,
      "示": 2064,
      "社": 2065,
      "祇": 2066,
      "祈": 2067,
      "祕": 2068,
      "祝": 2069,
      "神": 2070,
      "祠": 2071,
      "票": 2072,
      "祭": 2073,
      "祿": 2074,
      "禁": 2075,
      "禍": 2076,
      "福": 2077,
      "禮": 2078,
      "禽": 2079,
      "禾": 2080,
      "秀": 2081,
      "私": 2082,
      "秋": 2083,
      "科": 2084,
      "秒": 2085,
      "秘": 2086,
      "租": 2087,
      "秤": 2088,
      "秧": 2089,
      "秩": 2090,
      "移": 2091,
      "稀": 2092,
      "稅": 2093,
      "稈": 2094,
      "程": 2095,
      "税": 2096,
      "稚": 2097,
      "稟": 2098,
      "種": 2099,
      "稱": 2100,
      "稻": 2101,
      "稿": 2102,
      "穀": 2103,
      "穌": 2104,
      "積": 2105,
      "穩": 2106,
      "究": 2107,
      "空": 2108,
      "穿": 2109,
      "突": 2110,
      "窄": 2111,
      "窒": 2112,
      "窗": 2113,
      "窟": 2114,
      "窩": 2115,
      "窮": 2116,
      "窿": 2117,
      "竇": 2118,
      "竊": 2119,
      "立": 2120,
      "站": 2121,
      "竟": 2122,
      "章": 2123,
      "童": 2124,
      "竪": 2125,
      "竭": 2126,
      "端": 2127,
      "競": 2128,
      "竹": 2129,
      "竿": 2130,
      "笈": 2131,
      "笑": 2132,
      "笛": 2133,
      "笠": 2134,
      "符": 2135,
      "笨": 2136,
      "笪": 2137,
      "第": 2138,
      "筆": 2139,
      "等": 2140,
      "筋": 2141,
      "筍": 2142,
      "筒": 2143,
      "答": 2144,
      "策": 2145,
      "筲": 2146,
      "筷": 2147,
      "箍": 2148,
      "箕": 2149,
      "算": 2150,
      "管": 2151,
      "箭": 2152,
      "箱": 2153,
      "節": 2154,
      "範": 2155,
      "篇": 2156,
      "築": 2157,
      "篤": 2158,
      "篩": 2159,
      "篷": 2160,
      "篸": 2161,
      "簕": 2162,
      "簡": 2163,
      "簫": 2164,
      "簽": 2165,
      "簾": 2166,
      "簿": 2167,
      "籃": 2168,
      "籌": 2169,
      "籍": 2170,
      "籠": 2171,
      "籤": 2172,
      "籬": 2173,
      "籮": 2174,
      "籲": 2175,
      "米": 2176,
      "籽": 2177,
      "粉": 2178,
      "粒": 2179,
      "粗": 2180,
      "粟": 2181,
      "粥": 2182,
      "粵": 2183,
      "粹": 2184,
      "粽": 2185,
      "精": 2186,
      "糊": 2187,
      "糕": 2188,
      "糖": 2189,
      "糟": 2190,
      "糧": 2191,
      "系": 2192,
      "糾": 2193,
      "紀": 2194,
      "約": 2195,
      "紅": 2196,
      "紋": 2197,
      "納": 2198,
      "紐": 2199,
      "純": 2200,
      "紗": 2201,
      "紙": 2202,
      "級": 2203,
      "紛": 2204,
      "素": 2205,
      "索": 2206,
      "紥": 2207,
      "紮": 2208,
      "累": 2209,
      "細": 2210,
      "紳": 2211,
      "紹": 2212,
      "終": 2213,
      "組": 2214,
      "結": 2215,
      "絕": 2216,
      "絞": 2217,
      "絡": 2218,
      "統": 2219,
      "絲": 2220,
      "綁": 2221,
      "經": 2222,
      "綜": 2223,
      "綠": 2224,
      "綢": 2225,
      "綫": 2226,
      "維": 2227,
      "綱": 2228,
      "網": 2229,
      "綿": 2230,
      "緊": 2231,
      "緋": 2232,
      "緒": 2233,
      "線": 2234,
      "緝": 2235,
      "緣": 2236,
      "編": 2237,
      "緬": 2238,
      "練": 2239,
      "緻": 2240,
      "縫": 2241,
      "縮": 2242,
      "縱": 2243,
      "總": 2244,
      "績": 2245,
      "繁": 2246,
      "繑": 2247,
      "織": 2248,
      "繚": 2249,
      "繡": 2250,
      "繩": 2251,
      "繳": 2252,
      "繼": 2253,
      "纈": 2254,
      "續": 2255,
      "纏": 2256,
      "纜": 2257,
      "缸": 2258,
      "缺": 2259,
      "缽": 2260,
      "罅": 2261,
      "罌": 2262,
      "罐": 2263,
      "罩": 2264,
      "罪": 2265,
      "置": 2266,
      "罰": 2267,
      "署": 2268,
      "罵": 2269,
      "罷": 2270,
      "羅": 2271,
      "羈": 2272,
      "羊": 2273,
      "美": 2274,
      "羞": 2275,
      "群": 2276,
      "羨": 2277,
      "義": 2278,
      "羹": 2279,
      "羽": 2280,
      "翁": 2281,
      "翅": 2282,
      "習": 2283,
      "翕": 2284,
      "翠": 2285,
      "翡": 2286,
      "翳": 2287,
      "翹": 2288,
      "翻": 2289,
      "翼": 2290,
      "老": 2291,
      "考": 2292,
      "者": 2293,
      "而": 2294,
      "耍": 2295,
      "耐": 2296,
      "耕": 2297,
      "耙": 2298,
      "耨": 2299,
      "耳": 2300,
      "耶": 2301,
      "耷": 2302,
      "耽": 2303,
      "聊": 2304,
      "聖": 2305,
      "聚": 2306,
      "聞": 2307,
      "聯": 2308,
      "聰": 2309,
      "聲": 2310,
      "職": 2311,
      "聽": 2312,
      "聾": 2313,
      "肅": 2314,
      "肆": 2315,
      "肉": 2316,
      "肋": 2317,
      "肌": 2318,
      "肚": 2319,
      "肝": 2320,
      "股": 2321,
      "肥": 2322,
      "肩": 2323,
      "肯": 2324,
      "育": 2325,
      "肺": 2326,
      "胃": 2327,
      "胅": 2328,
      "背": 2329,
      "胎": 2330,
      "胡": 2331,
      "胸": 2332,
      "能": 2333,
      "脅": 2334,
      "脆": 2335,
      "脈": 2336,
      "脊": 2337,
      "脢": 2338,
      "脫": 2339,
      "脯": 2340,
      "脷": 2341,
      "脹": 2342,
      "脽": 2343,
      "脾": 2344,
      "腍": 2345,
      "腎": 2346,
      "腐": 2347,
      "腥": 2348,
      "腦": 2349,
      "腩": 2350,
      "腫": 2351,
      "腮": 2352,
      "腯": 2353,
      "腰": 2354,
      "腳": 2355,
      "腸": 2356,
      "腹": 2357,
      "腿": 2358,
      "膈": 2359,
      "膉": 2360,
      "膊": 2361,
      "膏": 2362,
      "膚": 2363,
      "膝": 2364,
      "膠": 2365,
      "膳": 2366,
      "膶": 2367,
      "膽": 2368,
      "臂": 2369,
      "臊": 2370,
      "臘": 2371,
      "臟": 2372,
      "臠": 2373,
      "臣": 2374,
      "臥": 2375,
      "臨": 2376,
      "自": 2377,
      "臭": 2378,
      "至": 2379,
      "致": 2380,
      "舂": 2381,
      "與": 2382,
      "興": 2383,
      "舉": 2384,
      "舊": 2385,
      "舌": 2386,
      "舍": 2387,
      "舒": 2388,
      "舔": 2389,
      "舖": 2390,
      "舗": 2391,
      "舞": 2392,
      "舟": 2393,
      "舦": 2394,
      "航": 2395,
      "般": 2396,
      "船": 2397,
      "艇": 2398,
      "艔": 2399,
      "艘": 2400,
      "艙": 2401,
      "良": 2402,
      "艱": 2403,
      "色": 2404,
      "芋": 2405,
      "芒": 2406,
      "芙": 2407,
      "芝": 2408,
      "芥": 2409,
      "芭": 2410,
      "芯": 2411,
      "花": 2412,
      "芹": 2413,
      "芽": 2414,
      "苑": 2415,
      "若": 2416,
      "苦": 2417,
      "英": 2418,
      "茂": 2419,
      "茄": 2420,
      "茅": 2421,
      "茶": 2422,
      "荃": 2423,
      "草": 2424,
      "荏": 2425,
      "荔": 2426,
      "荷": 2427,
      "莉": 2428,
      "莊": 2429,
      "莢": 2430,
      "莫": 2431,
      "菇": 2432,
      "菊": 2433,
      "菌": 2434,
      "菓": 2435,
      "菜": 2436,
      "菠": 2437,
      "菢": 2438,
      "菩": 2439,
      "華": 2440,
      "菲": 2441,
      "萊": 2442,
      "萬": 2443,
      "落": 2444,
      "葉": 2445,
      "葡": 2446,
      "董": 2447,
      "葫": 2448,
      "葬": 2449,
      "葵": 2450,
      "葺": 2451,
      "蒐": 2452,
      "蒔": 2453,
      "蒙": 2454,
      "蒜": 2455,
      "蒲": 2456,
      "蒸": 2457,
      "蓄": 2458,
      "蓆": 2459,
      "蓉": 2460,
      "蓋": 2461,
      "蓮": 2462,
      "蔔": 2463,
      "蔗": 2464,
      "蔘": 2465,
      "蔥": 2466,
      "蔫": 2467,
      "蔸": 2468,
      "蕃": 2469,
      "蕉": 2470,
      "蕎": 2471,
      "蕩": 2472,
      "蕾": 2473,
      "薄": 2474,
      "薑": 2475,
      "薦": 2476,
      "薪": 2477,
      "薯": 2478,
      "薳": 2479,
      "藉": 2480,
      "藍": 2481,
      "藏": 2482,
      "藕": 2483,
      "藝": 2484,
      "藤": 2485,
      "藥": 2486,
      "藹": 2487,
      "蘆": 2488,
      "蘇": 2489,
      "蘋": 2490,
      "蘑": 2491,
      "蘭": 2492,
      "蘿": 2493,
      "虎": 2494,
      "虔": 2495,
      "處": 2496,
      "虛": 2497,
      "號": 2498,
      "虧": 2499,
      "虱": 2500,
      "虹": 2501,
      "蚊": 2502,
      "蛀": 2503,
      "蛇": 2504,
      "蛋": 2505,
      "蛛": 2506,
      "蛤": 2507,
      "蜂": 2508,
      "蜆": 2509,
      "蜘": 2510,
      "蜜": 2511,
      "蜢": 2512,
      "蝄": 2513,
      "蝕": 2514,
      "蝗": 2515,
      "蝦": 2516,
      "蝴": 2517,
      "蝶": 2518,
      "蝸": 2519,
      "蝻": 2520,
      "螄": 2521,
      "螆": 2522,
      "融": 2523,
      "螺": 2524,
      "蟀": 2525,
      "蟧": 2526,
      "蟬": 2527,
      "蟲": 2528,
      "蟹": 2529,
      "蟻": 2530,
      "蠄": 2531,
      "蠅": 2532,
      "蠔": 2533,
      "蠟": 2534,
      "蠢": 2535,
      "蠱": 2536,
      "血": 2537,
      "衆": 2538,
      "行": 2539,
      "術": 2540,
      "街": 2541,
      "衛": 2542,
      "衝": 2543,
      "衞": 2544,
      "衡": 2545,
      "衣": 2546,
      "表": 2547,
      "衫": 2548,
      "衰": 2549,
      "袋": 2550,
      "袍": 2551,
      "袖": 2552,
      "被": 2553,
      "袱": 2554,
      "裁": 2555,
      "裂": 2556,
      "裇": 2557,
      "裏": 2558,
      "裔": 2559,
      "裙": 2560,
      "補": 2561,
      "裝": 2562,
      "裡": 2563,
      "裸": 2564,
      "裹": 2565,
      "製": 2566,
      "褂": 2567,
      "複": 2568,
      "褓": 2569,
      "褪": 2570,
      "褲": 2571,
      "褸": 2572,
      "襟": 2573,
      "襪": 2574,
      "襯": 2575,
      "襲": 2576,
      "西": 2577,
      "要": 2578,
      "覆": 2579,
      "見": 2580,
      "規": 2581,
      "視": 2582,
      "親": 2583,
      "覺": 2584,
      "覽": 2585,
      "觀": 2586,
      "角": 2587,
      "解": 2588,
      "觥": 2589,
      "觸": 2590,
      "言": 2591,
      "訂": 2592,
      "計": 2593,
      "訊": 2594,
      "討": 2595,
      "訓": 2596,
      "託": 2597,
      "記": 2598,
      "訪": 2599,
      "設": 2600,
      "許": 2601,
      "訴": 2602,
      "診": 2603,
      "註": 2604,
      "証": 2605,
      "詐": 2606,
      "評": 2607,
      "詞": 2608,
      "詢": 2609,
      "試": 2610,
      "話": 2611,
      "該": 2612,
      "誇": 2613,
      "誌": 2614,
      "認": 2615,
      "誓": 2616,
      "誕": 2617,
      "誘": 2618,
      "語": 2619,
      "誠": 2620,
      "誡": 2621,
      "誤": 2622,
      "說": 2623,
      "誰": 2624,
      "課": 2625,
      "誹": 2626,
      "誼": 2627,
      "調": 2628,
      "談": 2629,
      "請": 2630,
      "諒": 2631,
      "論": 2632,
      "諗": 2633,
      "諦": 2634,
      "諭": 2635,
      "諮": 2636,
      "諷": 2637,
      "諸": 2638,
      "謀": 2639,
      "謂": 2640,
      "謎": 2641,
      "謙": 2642,
      "講": 2643,
      "謝": 2644,
      "謢": 2645,
      "證": 2646,
      "識": 2647,
      "譜": 2648,
      "警": 2649,
      "譬": 2650,
      "譯": 2651,
      "議": 2652,
      "護": 2653,
      "譽": 2654,
      "讀": 2655,
      "變": 2656,
      "讓": 2657,
      "讚": 2658,
      "谷": 2659,
      "豆": 2660,
      "豉": 2661,
      "豎": 2662,
      "豐": 2663,
      "象": 2664,
      "豪": 2665,
      "豬": 2666,
      "貌": 2667,
      "貓": 2668,
      "負": 2669,
      "財": 2670,
      "貢": 2671,
      "貧": 2672,
      "貨": 2673,
      "販": 2674,
      "貪": 2675,
      "責": 2676,
      "貴": 2677,
      "貶": 2678,
      "買": 2679,
      "貸": 2680,
      "費": 2681,
      "貼": 2682,
      "貿": 2683,
      "賀": 2684,
      "賄": 2685,
      "資": 2686,
      "賊": 2687,
      "賒": 2688,
      "賓": 2689,
      "賜": 2690,
      "賞": 2691,
      "賠": 2692,
      "賢": 2693,
      "賣": 2694,
      "賤": 2695,
      "質": 2696,
      "賬": 2697,
      "賭": 2698,
      "賴": 2699,
      "賺": 2700,
      "購": 2701,
      "賽": 2702,
      "贈": 2703,
      "贊": 2704,
      "贏": 2705,
      "贓": 2706,
      "贖": 2707,
      "赤": 2708,
      "赦": 2709,
      "赧": 2710,
      "走": 2711,
      "赴": 2712,
      "起": 2713,
      "趁": 2714,
      "超": 2715,
      "越": 2716,
      "趕": 2717,
      "趣": 2718,
      "趨": 2719,
      "趯": 2720,
      "足": 2721,
      "趴": 2722,
      "趷": 2723,
      "趾": 2724,
      "趿": 2725,
      "跀": 2726,
      "跁": 2727,
      "跌": 2728,
      "跑": 2729,
      "跛": 2730,
      "距": 2731,
      "跟": 2732,
      "跣": 2733,
      "跤": 2734,
      "跨": 2735,
      "跪": 2736,
      "路": 2737,
      "跳": 2738,
      "踎": 2739,
      "踏": 2740,
      "踢": 2741,
      "踩": 2742,
      "踭": 2743,
      "踱": 2744,
      "踹": 2745,
      "蹄": 2746,
      "蹈": 2747,
      "蹟": 2748,
      "蹤": 2749,
      "躀": 2750,
      "躁": 2751,
      "躂": 2752,
      "躉": 2753,
      "躍": 2754,
      "躝": 2755,
      "身": 2756,
      "躭": 2757,
      "車": 2758,
      "軍": 2759,
      "軒": 2760,
      "軚": 2761,
      "軟": 2762,
      "軨": 2763,
      "軭": 2764,
      "軸": 2765,
      "較": 2766,
      "載": 2767,
      "輋": 2768,
      "輔": 2769,
      "輕": 2770,
      "輛": 2771,
      "輪": 2772,
      "輸": 2773,
      "輾": 2774,
      "轆": 2775,
      "轉": 2776,
      "轟": 2777,
      "辛": 2778,
      "辣": 2779,
      "辦": 2780,
      "辭": 2781,
      "辮": 2782,
      "辯": 2783,
      "農": 2784,
      "迎": 2785,
      "近": 2786,
      "返": 2787,
      "迪": 2788,
      "迫": 2789,
      "迷": 2790,
      "迹": 2791,
      "追": 2792,
      "迾": 2793,
      "退": 2794,
      "送": 2795,
      "逃": 2796,
      "逆": 2797,
      "透": 2798,
      "逐": 2799,
      "途": 2800,
      "逗": 2801,
      "通": 2802,
      "速": 2803,
      "造": 2804,
      "逢": 2805,
      "連": 2806,
      "週": 2807,
      "進": 2808,
      "逸": 2809,
      "逼": 2810,
      "遁": 2811,
      "遇": 2812,
      "遊": 2813,
      "運": 2814,
      "遍": 2815,
      "過": 2816,
      "道": 2817,
      "達": 2818,
      "違": 2819,
      "遞": 2820,
      "遠": 2821,
      "遢": 2822,
      "遣": 2823,
      "適": 2824,
      "遭": 2825,
      "遮": 2826,
      "遲": 2827,
      "選": 2828,
      "遺": 2829,
      "避": 2830,
      "邀": 2831,
      "還": 2832,
      "邊": 2833,
      "邋": 2834,
      "邏": 2835,
      "那": 2836,
      "邨": 2837,
      "邪": 2838,
      "郁": 2839,
      "郊": 2840,
      "郎": 2841,
      "部": 2842,
      "郵": 2843,
      "都": 2844,
      "鄉": 2845,
      "鄧": 2846,
      "鄰": 2847,
      "鄺": 2848,
      "酉": 2849,
      "酌": 2850,
      "配": 2851,
      "酒": 2852,
      "酥": 2853,
      "酸": 2854,
      "酹": 2855,
      "醃": 2856,
      "醉": 2857,
      "醋": 2858,
      "醒": 2859,
      "醜": 2860,
      "醫": 2861,
      "醬": 2862,
      "釀": 2863,
      "釋": 2864,
      "里": 2865,
      "重": 2866,
      "野": 2867,
      "量": 2868,
      "金": 2869,
      "釘": 2870,
      "針": 2871,
      "釣": 2872,
      "鈍": 2873,
      "鈒": 2874,
      "鈔": 2875,
      "鈕": 2876,
      "鈪": 2877,
      "鈴": 2878,
      "鉎": 2879,
      "鉗": 2880,
      "鉛": 2881,
      "鉤": 2882,
      "鉸": 2883,
      "鉻": 2884,
      "銀": 2885,
      "銃": 2886,
      "銅": 2887,
      "銷": 2888,
      "銹": 2889,
      "銻": 2890,
      "鋁": 2891,
      "鋅": 2892,
      "鋒": 2893,
      "鋤": 2894,
      "鋪": 2895,
      "鋸": 2896,
      "鋼": 2897,
      "錄": 2898,
      "錐": 2899,
      "錢": 2900,
      "錦": 2901,
      "錫": 2902,
      "錯": 2903,
      "錶": 2904,
      "鍋": 2905,
      "鍍": 2906,
      "鍚": 2907,
      "鍟": 2908,
      "鍵": 2909,
      "鍾": 2910,
      "鎅": 2911,
      "鎖": 2912,
      "鎚": 2913,
      "鏈": 2914,
      "鏟": 2915,
      "鏡": 2916,
      "鐘": 2917,
      "鐳": 2918,
      "鐵": 2919,
      "鐸": 2920,
      "鑊": 2921,
      "鑲": 2922,
      "鑼": 2923,
      "鑽": 2924,
      "鑿": 2925,
      "長": 2926,
      "門": 2927,
      "閂": 2928,
      "閃": 2929,
      "閉": 2930,
      "開": 2931,
      "閏": 2932,
      "閒": 2933,
      "間": 2934,
      "閘": 2935,
      "閣": 2936,
      "閪": 2937,
      "闆": 2938,
      "闊": 2939,
      "闌": 2940,
      "闖": 2941,
      "關": 2942,
      "阱": 2943,
      "防": 2944,
      "阻": 2945,
      "阿": 2946,
      "陀": 2947,
      "附": 2948,
      "降": 2949,
      "限": 2950,
      "院": 2951,
      "陣": 2952,
      "除": 2953,
      "陪": 2954,
      "陰": 2955,
      "陳": 2956,
      "陶": 2957,
      "陷": 2958,
      "陸": 2959,
      "陽": 2960,
      "隊": 2961,
      "隍": 2962,
      "階": 2963,
      "隔": 2964,
      "隙": 2965,
      "際": 2966,
      "障": 2967,
      "隧": 2968,
      "隨": 2969,
      "險": 2970,
      "隱": 2971,
      "隻": 2972,
      "雀": 2973,
      "雄": 2974,
      "雅": 2975,
      "集": 2976,
      "雌": 2977,
      "雕": 2978,
      "雖": 2979,
      "雙": 2980,
      "雜": 2981,
      "雞": 2982,
      "離": 2983,
      "難": 2984,
      "雨": 2985,
      "雪": 2986,
      "雯": 2987,
      "雲": 2988,
      "零": 2989,
      "雷": 2990,
      "雹": 2991,
      "電": 2992,
      "需": 2993,
      "霆": 2994,
      "震": 2995,
      "霍": 2996,
      "霎": 2997,
      "霖": 2998,
      "霞": 2999,
      "霧": 3000,
      "露": 3001,
      "霸": 3002,
      "霹": 3003,
      "靈": 3004,
      "青": 3005,
      "靚": 3006,
      "靜": 3007,
      "非": 3008,
      "靠": 3009,
      "面": 3010,
      "革": 3011,
      "靶": 3012,
      "鞋": 3013,
      "鞍": 3014,
      "鞦": 3015,
      "鞭": 3016,
      "韆": 3017,
      "韌": 3018,
      "韓": 3019,
      "韞": 3020,
      "音": 3021,
      "響": 3022,
      "頁": 3023,
      "頂": 3024,
      "項": 3025,
      "順": 3026,
      "須": 3027,
      "預": 3028,
      "頒": 3029,
      "頗": 3030,
      "領": 3031,
      "頭": 3032,
      "頸": 3033,
      "頻": 3034,
      "題": 3035,
      "額": 3036,
      "顏": 3037,
      "願": 3038,
      "類": 3039,
      "顧": 3040,
      "顯": 3041,
      "風": 3042,
      "飄": 3043,
      "飛": 3044,
      "食": 3045,
      "飯": 3046,
      "飲": 3047,
      "飼": 3048,
      "飽": 3049,
      "飾": 3050,
      "餅": 3051,
      "餉": 3052,
      "養": 3053,
      "餐": 3054,
      "餓": 3055,
      "餘": 3056,
      "餡": 3057,
      "館": 3058,
      "餵": 3059,
      "餸": 3060,
      "餿": 3061,
      "饅": 3062,
      "饊": 3063,
      "饑": 3064,
      "首": 3065,
      "香": 3066,
      "馬": 3067,
      "馳": 3068,
      "馴": 3069,
      "駁": 3070,
      "駐": 3071,
      "駕": 3072,
      "駛": 3073,
      "騎": 3074,
      "騙": 3075,
      "騮": 3076,
      "騰": 3077,
      "騷": 3078,
      "騾": 3079,
      "驕": 3080,
      "驗": 3081,
      "驚": 3082,
      "骨": 3083,
      "骰": 3084,
      "骲": 3085,
      "骹": 3086,
      "骼": 3087,
      "骾": 3088,
      "髀": 3089,
      "體": 3090,
      "高": 3091,
      "髮": 3092,
      "髻": 3093,
      "鬆": 3094,
      "鬍": 3095,
      "鬚": 3096,
      "鬥": 3097,
      "鬧": 3098,
      "鬼": 3099,
      "魂": 3100,
      "魚": 3101,
      "魯": 3102,
      "魷": 3103,
      "鮑": 3104,
      "鮮": 3105,
      "鯁": 3106,
      "鯊": 3107,
      "鯨": 3108,
      "鯭": 3109,
      "鱗": 3110,
      "鱷": 3111,
      "鳥": 3112,
      "鳳": 3113,
      "鴛": 3114,
      "鴣": 3115,
      "鴦": 3116,
      "鴨": 3117,
      "鴿": 3118,
      "鵑": 3119,
      "鵝": 3120,
      "鶴": 3121,
      "鷂": 3122,
      "鷄": 3123,
      "鷓": 3124,
      "鷹": 3125,
      "鹵": 3126,
      "鹹": 3127,
      "鹽": 3128,
      "鹿": 3129,
      "麂": 3130,
      "麒": 3131,
      "麗": 3132,
      "麝": 3133,
      "麟": 3134,
      "麥": 3135,
      "麵": 3136,
      "麻": 3137,
      "黃": 3138,
      "黎": 3139,
      "黏": 3140,
      "黐": 3141,
      "黑": 3142,
      "默": 3143,
      "點": 3144,
      "黨": 3145,
      "鼓": 3146,
      "鼠": 3147,
      "鼻": 3148,
      "鼾": 3149,
      "齃": 3150,
      "齊": 3151,
      "齋": 3152,
      "齒": 3153,
      "齡": 3154,
      "齣": 3155,
      "齧": 3156,
      "龍": 3157,
      "龕": 3158,
      "龜": 3159,
      "！": 3160,
      "，": 3161,
      "：": 3162,
      "？": 3163,
      "𠌥": 3164,
      "𠓼": 3165,
      "𠜱": 3166,
      "𠝹": 3167,
      "𠮨": 3168,
      "𠮩": 3169,
      "𠰋": 3170,
      "𠰲": 3171,
      "𠱁": 3172,
      "𠱂": 3173,
      "𠱃": 3174,
      "𠱓": 3175,
      "𠱸": 3176,
      "𠲵": 3177,
      "𠳏": 3178,
      "𠳖": 3179,
      "𠴕": 3180,
      "𠵈": 3181,
      "𠵼": 3182,
      "𠵿": 3183,
      "𠶜": 3184,
      "𠸊": 3185,
      "𠸎": 3186,
      "𠸏": 3187,
      "𠹌": 3188,
      "𠹭": 3189,
      "𠹹": 3190,
      "𠹻": 3191,
      "𠺘": 3192,
      "𠺝": 3193,
      "𠺢": 3194,
      "𠺫": 3195,
      "𠺬": 3196,
      "𠻘": 3197,
      "𠻹": 3198,
      "𠼭": 3199,
      "𠼮": 3200,
      "𠼰": 3201,
      "𠼱": 3202,
      "𠼻": 3203,
      "𠽌": 3204,
      "𠽤": 3205,
      "𠾍": 3206,
      "𠾭": 3207,
      "𠾴": 3208,
      "𠾵": 3209,
      "𠾶": 3210,
      "𠿫": 3211,
      "𠿬": 3212,
      "𠿭": 3213,
      "𡀝": 3214,
      "𡀞": 3215,
      "𡁯": 3216,
      "𡁷": 3217,
      "𡁸": 3218,
      "𡁻": 3219,
      "𡂖": 3220,
      "𡃀": 3221,
      "𡃁": 3222,
      "𡃈": 3223,
      "𡃤": 3224,
      "𡃴": 3225,
      "𡃵": 3226,
      "𡄽": 3227,
      "𡆀": 3228,
      "𡆇": 3229,
      "𡇙": 3230,
      "𡲢": 3231,
      "𢃇": 3232,
      "𢆡": 3233,
      "𢚖": 3234,
      "𢛴": 3235,
      "𢝵": 3236,
      "𢞵": 3237,
      "𢤹": 3238,
      "𢫏": 3239,
      "𢫕": 3240,
      "𢫦": 3241,
      "𢭃": 3242,
      "𢯊": 3243,
      "𢯎": 3244,
      "𢱑": 3245,
      "𢱕": 3246,
      "𢱢": 3247,
      "𢲈": 3248,
      "𢲡": 3249,
      "𢲲": 3250,
      "𢳂": 3251,
      "𢳆": 3252,
      "𢵄": 3253,
      "𢵌": 3254,
      "𢵧": 3255,
      "𢶍": 3256,
      "𢶠": 3257,
      "𢶤": 3258,
      "𢺋": 3259,
      "𢺳": 3260,
      "𣘚": 3261,
      "𣚺": 3262,
      "𣲷": 3263,
      "𤌍": 3264,
      "𤓓": 3265,
      "𤶸": 3266,
      "𤷪": 3267,
      "𤺧": 3268,
      "𥀬": 3269,
      "𥄫": 3270,
      "𥅈": 3271,
      "𥇣": 3272,
      "𥋇": 3273,
      "𥔿": 3274,
      "𦂗": 3275,
      "𦂥": 3276,
      "𦉘": 3277,
      "𦛚": 3278,
      "𦟌": 3279,
      "𦡆": 3280,
      "𦢊": 3281,
      "𦣇": 3282,
      "𦧲": 3283,
      "𦧺": 3284,
      "𦻐": 3285,
      "𧊅": 3286,
      "𧕴": 3287,
      "𧘹": 3288,
      "𧝞": 3289,
      "𧣈": 3290,
      "𧶄": 3291,
      "𨀤": 3292,
      "𨂽": 3293,
      "𨂾": 3294,
      "𨃩": 3295,
      "𨅝": 3296,
      "𨆯": 3297,
      "𨈇": 3298,
      "𨉖": 3299,
      "𨋢": 3300,
      "𨳊": 3301,
      "𨳍": 3302,
      "𨳒": 3303,
      "𨶙": 3304,
      "𩓥": 3305,
      "𩗴": 3306,
      "𩜠": 3307,
      "𩟔": 3308,
      "𩩍": 3309,
      "𩬎": 3310,
      "𪘁": 3311,
      "𪘲": 3312,
      "𪙛": 3313,
      "𪚩": 3314,
      "𫫃": 3315,
      "𫬿": 3316,
      "𫭊": 3317,
      "𫲭": 3318,
      "𬜐": 3319,
      "𬦠": 3320,
      "𬧊": 3321,
      "𬧯": 3322,
      "e▁": 3323,
      "▁t": 3324,
      "s▁": 3325,
      "t▁": 3326,
      "in": 3327,
      "er": 3328,
      "o▁": 3329,
      "▁th": 3330,
      "d▁": 3331,
      "ou": 3332,
      "an": 3333,
      "y▁": 3334,
      "on": 3335,
      "en": 3336,
      "ing": 3337,
      "or": 3338,
      "▁s": 3339,
      "ar": 3340,
      "ll": 3341,
      "it": 3342,
      "▁the▁": 3343,
      "ha": 3344,
      "is▁": 3345,
      "re": 3346,
      "he▁": 3347,
      "you": 3348,
      "▁to▁": 3349,
      "▁a": 3350,
      "▁I": 3351,
      "at": 3352,
      "om": 3353,
      "st": 3354,
      "▁w": 3355,
      "and▁": 3356,
      "e▁t": 3357,
      "▁T": 3358,
      ",▁": 3359,
      "ed▁": 3360,
      "of": 3361,
      "ow": 3362,
      "es": 3363,
      "al": 3364,
      "ing▁": 3365,
      "ch": 3366,
      "'t▁": 3367,
      "▁m": 3368,
      "▁佢": 3369,
      "for": 3370,
      "'s▁": 3371,
      "▁b": 3372,
      "le": 3373,
      "▁H": 3374,
      "▁c": 3375,
      "her": 3376,
      "li": 3377,
      "ed": 3378,
      "ver": 3379,
      "ri": 3380,
      "all": 3381,
      "ve▁": 3382,
      "im": 3383,
      "us": 3384,
      "oo": 3385,
      ",▁s": 3386,
      "▁d": 3387,
      "▁我": 3388,
      "is": 3389,
      "el": 3390,
      "gh": 3391,
      "▁h": 3392,
      "as": 3393,
      "ir": 3394,
      "ot": 3395,
      "e.": 3396,
      "ay": 3397,
      "at▁": 3398,
      "ck": 3399,
      "▁you": 3400,
      "et": 3401,
      ",▁so▁": 3402,
      "ill": 3403,
      "▁p": 3404,
      "as▁": 3405,
      "▁f": 3406,
      "it▁": 3407,
      "op": 3408,
      "ter": 3409,
      "es▁": 3410,
      "▁The▁": 3411,
      "▁g": 3412,
      "ak": 3413,
      "▁你": 3414,
      "le▁": 3415,
      "ith": 3416,
      "ong": 3417,
      "▁W": 3418,
      "un": 3419,
      "be": 3420,
      "qu": 3421,
      "s.": 3422,
      "ly▁": 3423,
      "are▁": 3424,
      "▁He▁": 3425,
      "id": 3426,
      "os": 3427,
      "on't▁": 3428,
      "▁ha": 3429,
      "ad": 3430,
      "bu": 3431,
      "▁A": 3432,
      "ay▁": 3433,
      "his▁": 3434,
      "ur": 3435,
      "he": 3436,
      "▁Y": 3437,
      "ac": 3438,
      "am": 3439,
      "up": 3440,
      "ic": 3441,
      "ot▁": 3442,
      "ent": 3443,
      "ld▁": 3444,
      "now": 3445,
      "▁to": 3446,
      "▁S": 3447,
      "ome▁": 3448,
      "ion": 3449,
      "▁You": 3450,
      "e▁to▁": 3451,
      "so▁": 3452,
      "th": 3453,
      "ne": 3454,
      ",▁and▁": 3455,
      "se": 3456,
      "and": 3457,
      "ant": 3458,
      "▁that▁": 3459,
      "▁the": 3460,
      "▁呢": 3461,
      "ally▁": 3462,
      "ab": 3463,
      "out▁": 3464,
      "do": 3465,
      "ear": 3466,
      "ite▁": 3467,
      "en▁": 3468,
      "ro": 3469,
      "lik": 3470,
      "▁l": 3471,
      "ook": 3472,
      "wh": 3473,
      "one▁": 3474,
      "sh": 3475,
      "n't▁": 3476,
      "very▁": 3477,
      "if": 3478,
      "ag": 3479,
      "igh": 3480,
      "▁of": 3481,
      "y.": 3482,
      "quite▁": 3483,
      "was▁": 3484,
      "with": 3485,
      "ec": 3486,
      "▁this▁": 3487,
      "et▁": 3488,
      "il": 3489,
      "ra": 3490,
      "hat▁": 3491,
      "▁in": 3492,
      "▁st": 3493,
      "ust▁": 3494,
      "be▁": 3495,
      "▁and▁": 3496,
      "really▁": 3497,
      "▁is▁": 3498,
      "啊？": 3499,
      "one": 3500,
      "ould▁": 3501,
      "not▁": 3502,
      "ex": 3503,
      "com": 3504,
      "▁I'": 3505,
      "him": 3506,
      "but▁": 3507,
      "▁can": 3508,
      "know": 3509,
      "唔好": 3510,
      "has▁": 3511,
      "▁as▁": 3512,
      "my▁": 3513,
      "oun": 3514,
      "eop": 3515,
      "ld": 3516,
      "per": 3517,
      "ork": 3518,
      "，我": 3519,
      "真係": 3520,
      "▁Wh": 3521,
      "▁This▁": 3522,
      "ig": 3523,
      "pl": 3524,
      "ul": 3525,
      "have▁": 3526,
      "ed▁to▁": 3527,
      "em": 3528,
      "▁M": 3529,
      "out": 3530,
      "e▁the▁": 3531,
      "ere▁": 3532,
      "e's▁": 3533,
      "ake▁": 3534,
      "ell": 3535,
      "ut": 3536,
      "▁D": 3537,
      "it's▁": 3538,
      "ing▁a": 3539,
      "go": 3540,
      "uch": 3541,
      "▁with": 3542,
      "bo": 3543,
      "our": 3544,
      "▁wh": 3545,
      "hat": 3546,
      "▁for": 3547,
      "ent▁": 3548,
      "end": 3549,
      "▁tim": 3550,
      "ely▁": 3551,
      "ain": 3552,
      "ep": 3553,
      ",▁but▁": 3554,
      "ce▁": 3555,
      "car": 3556,
      "re▁": 3557,
      "ang": 3558,
      "so": 3559,
      "eat": 3560,
      "id▁": 3561,
      "mor": 3562,
      "ough": 3563,
      "ev": 3564,
      "will": 3565,
      "other": 3566,
      "ays▁": 3567,
      "here▁": 3568,
      "a▁": 3569,
      "ick": 3570,
      "can": 3571,
      "sp": 3572,
      "your": 3573,
      "ack": 3574,
      "it.": 3575,
      "'re▁": 3576,
      "mat": 3577,
      "ing.": 3578,
      "ud": 3579,
      "ink": 3580,
      "fter": 3581,
      "▁sh": 3582,
      "um": 3583,
      "over": 3584,
      "rom": 3585,
      "any▁": 3586,
      "fri": 3587,
      "e▁th": 3588,
      "ese▁": 3589,
      "▁don't▁": 3590,
      "irl": 3591,
      "alk": 3592,
      "▁It": 3593,
      "▁I▁w": 3594,
      "▁my▁": 3595,
      "s▁to▁": 3596,
      "es.": 3597,
      "ever": 3598,
      "ed.": 3599,
      "no▁": 3600,
      "ad▁": 3601,
      "ef": 3602,
      "pp": 3603,
      "ood": 3604,
      "eople▁": 3605,
      "ing▁to▁": 3606,
      "▁then": 3607,
      "do▁": 3608,
      "▁the▁b": 3609,
      "㗎。": 3610,
      "，你": 3611,
      "der": 3612,
      "don't▁": 3613,
      "ng": 3614,
      "iv": 3615,
      "ong▁": 3616,
      "any": 3617,
      "▁the▁t": 3618,
      "，佢": 3619,
      "ation": 3620,
      "ome": 3621,
      "son": 3622,
      "▁your": 3623,
      "▁have▁": 3624,
      "an▁": 3625,
      "ea": 3626,
      "you▁": 3627,
      "▁In": 3628,
      "ous": 3629,
      "▁the▁p": 3630,
      "cl": 3631,
      "con": 3632,
      "鍾意": 3633,
      "ct": 3634,
      "都唔": 3635,
      "int": 3636,
      "day▁": 3637,
      "work": 3638,
      "s▁of": 3639,
      "▁She▁": 3640,
      "啦。": 3641,
      "▁It's▁": 3642,
      "own": 3643,
      "▁今": 3644,
      "res": 3645,
      "just▁": 3646,
      "ant▁to▁": 3647,
      "，唔": 3648,
      "▁his▁": 3649,
      "me▁": 3650,
      "喇。": 3651,
      "ast": 3652,
      "▁on": 3653,
      "▁he▁": 3654,
      "est": 3655,
      "▁they▁": 3656,
      "而家": 3657,
      "end▁": 3658,
      "▁個": 3659,
      "wo▁": 3660,
      "嘅。": 3661,
      "ive▁": 3662,
      "off": 3663,
      "ight▁": 3664,
      "▁I▁": 3665,
      "look": 3666,
      "▁thing": 3667,
      "art": 3668,
      "girl": 3669,
      "get": 3670,
      "use▁": 3671,
      "▁him": 3672,
      "mo": 3673,
      "not": 3674,
      "sa": 3675,
      "some▁": 3676,
      "▁them": 3677,
      "ight": 3678,
      "ood▁": 3679,
      "comp": 3680,
      "fin": 3681,
      "▁O": 3682,
      "▁tr": 3683,
      "in▁the▁": 3684,
      "urn": 3685,
      "by▁": 3686,
      "▁As▁": 3687,
      "▁My▁": 3688,
      "▁L": 3689,
      "有啲": 3690,
      "go▁": 3691,
      "▁E": 3692,
      "had▁": 3693,
      "ast▁": 3694,
      "get▁": 3695,
      "let": 3696,
      "old": 3697,
      "ist": 3698,
      "▁If": 3699,
      "▁do": 3700,
      "▁I'm": 3701,
      "，但": 3702,
      "year": 3703,
      "he's▁": 3704,
      "su": 3705,
      "▁Th": 3706,
      "I'": 3707,
      "▁that": 3708,
      "ish": 3709,
      "ess": 3710,
      "bl": 3711,
      "ing▁s": 3712,
      "le.": 3713,
      "ong▁K": 3714,
      "need▁to▁": 3715,
      "mone": 3716,
      "matter": 3717,
      "eal": 3718,
      "s▁are▁": 3719,
      "ard": 3720,
      "ff": 3721,
      "old▁": 3722,
      "from": 3723,
      "se▁": 3724,
      "eel": 3725,
      ",▁as▁": 3726,
      "come▁": 3727,
      "day": 3728,
      "香港": 3729,
      "I▁w": 3730,
      "gr": 3731,
      "▁re": 3732,
      "▁her": 3733,
      "ly": 3734,
      "ate▁": 3735,
      "still": 3736,
      "act": 3737,
      "朋友": 3738,
      "ew": 3739,
      "▁B": 3740,
      "成日": 3741,
      "▁C": 3742,
      "▁N": 3743,
      "like▁t": 3744,
      "read": 3745,
      "▁be": 3746,
      "au": 3747,
      "都係": 3748,
      "▁the▁s": 3749,
      "dr": 3750,
      "aw": 3751,
      "lo": 3752,
      "▁there▁": 3753,
      "▁be▁": 3754,
      "does": 3755,
      "▁take▁": 3756,
      "been": 3757,
      "ose▁": 3758,
      "no": 3759,
      "like▁": 3760,
      "a▁b": 3761,
      "e!": 3762,
      "she▁": 3763,
      "▁think": 3764,
      "ould": 3765,
      "a▁p": 3766,
      "ut▁": 3767,
      "ark": 3768,
      "itt": 3769,
      "ust": 3770,
      "e▁of": 3771,
      "我哋": 3772,
      "atch": 3773,
      "new": 3774,
      "ber": 3775,
      "ass": 3776,
      "▁Don't▁": 3777,
      "ong▁Kong": 3778,
      "people▁": 3779,
      "sel": 3780,
      "▁ther": 3781,
      "eat▁": 3782,
      ",▁so": 3783,
      "好多": 3784,
      "ost▁": 3785,
      "e?": 3786,
      "ort": 3787,
      "ght": 3788,
      "er.": 3789,
      "jo": 3790,
      "ca": 3791,
      "可以": 3792,
      ",▁he▁": 3793,
      "young": 3794,
      "a▁l": 3795,
      "we▁": 3796,
      "▁can't▁": 3797,
      "vi": 3798,
      "ret": 3799,
      "doesn't▁": 3800,
      "個人": 3801,
      "s▁and▁": 3802,
      "ound▁": 3803,
      "喺度": 3804,
      "唔係": 3805,
      "▁我哋": 3806,
      "▁com": 3807,
      "bod": 3808,
      "▁has▁": 3809,
      "were▁": 3810,
      "▁He's▁": 3811,
      "ool": 3812,
      "▁hav": 3813,
      "▁When": 3814,
      "how": 3815,
      "俾人": 3816,
      "，好": 3817,
      "▁tak": 3818,
      "▁mone": 3819,
      "▁啲": 3820,
      "av": 3821,
      "乜嘢": 3822,
      "llar": 3823,
      "ect": 3824,
      "▁I've▁": 3825,
      "friend": 3826,
      "▁P": 3827,
      "啦！": 3828,
      "who▁": 3829,
      "唔到": 3830,
      "on▁the▁": 3831,
      "▁How": 3832,
      "ound": 3833,
      "self": 3834,
      "a▁s": 3835,
      "back": 3836,
      "ing▁the▁": 3837,
      "▁so▁": 3838,
      "▁talk": 3839,
      "cc": 3840,
      "ip": 3841,
      "sid": 3842,
      "s▁in": 3843,
      "hey▁": 3844,
      "row": 3845,
      ",▁and": 3846,
      "▁their": 3847,
      "po": 3848,
      "▁had▁": 3849,
      "even": 3850,
      "ire": 3851,
      "▁time▁": 3852,
      "a▁m": 3853,
      "s▁the▁": 3854,
      "hav": 3855,
      "ile▁": 3856,
      "much": 3857,
      "所以": 3858,
      "ree▁": 3859,
      "，所以": 3860,
      "▁go": 3861,
      "lat": 3862,
      "▁a▁": 3863,
      "fore▁": 3864,
      "ways▁": 3865,
      "oth": 3866,
      "e,▁so▁": 3867,
      "good": 3868,
      "▁two▁": 3869,
      "ers▁": 3870,
      "，真係": 3871,
      "ard▁": 3872,
      "hin": 3873,
      "▁to▁the▁": 3874,
      "▁F": 3875,
      "▁有": 3876,
      "▁佢哋": 3877,
      "idn't▁": 3878,
      "a▁f": 3879,
      "co": 3880,
      "soon": 3881,
      "fir": 3882,
      "e▁to": 3883,
      "every": 3884,
      "we": 3885,
      "ame▁": 3886,
      "ouldn't▁": 3887,
      "iz": 3888,
      "，就": 3889,
      "sc": 3890,
      "each": 3891,
      "like▁that": 3892,
      "a▁c": 3893,
      "for▁": 3894,
      "anyth": 3895,
      "gu": 3896,
      "ily▁": 3897,
      "▁al": 3898,
      "person": 3899,
      "bout▁": 3900,
      "dis": 3901,
      "ey": 3902,
      "ru": 3903,
      "ry▁": 3904,
      "一個": 3905,
      "pro": 3906,
      "，唔好": 3907,
      "▁It▁": 3908,
      "▁After": 3909,
      "▁up": 3910,
      "▁His▁": 3911,
      "man": 3912,
      "some": 3913,
      "ant▁": 3914,
      "ed▁the▁": 3915,
      "night▁": 3916,
      "佢哋": 3917,
      "air": 3918,
      "ock": 3919,
      "ole▁": 3920,
      "way": 3921,
      "alread": 3922,
      "ok": 3923,
      "自己": 3924,
      "in▁": 3925,
      "ess▁": 3926,
      "oss": 3927,
      "friend▁": 3928,
      "y▁to▁": 3929,
      "屋企": 3930,
      "▁turn": 3931,
      "etter": 3932,
      "more▁": 3933,
      "after": 3934,
      "ty▁": 3935,
      "▁I▁don't▁": 3936,
      "omet": 3937,
      "ade▁": 3938,
      "dollar": 3939,
      "ph": 3940,
      "wor": 3941,
      "▁嗰": 3942,
      "▁was▁": 3943,
      "▁If▁you": 3944,
      "was": 3945,
      "would▁": 3946,
      "▁a▁l": 3947,
      "▁To": 3948,
      "▁Why▁": 3949,
      "ind": 3950,
      "opp": 3951,
      "▁What▁": 3952,
      "▁今日": 3953,
      "sm": 3954,
      "say": 3955,
      "uck": 3956,
      "want": 3957,
      "st▁": 3958,
      "'ve▁": 3959,
      "got▁": 3960,
      "ace▁": 3961,
      "▁it▁": 3962,
      "es▁to▁": 3963,
      "▁You▁": 3964,
      "body▁": 3965,
      "佢。": 3966,
      "lic": 3967,
      "e,▁": 3968,
      "rain": 3969,
      "'t": 3970,
      "pri": 3971,
      "ull": 3972,
      "ght▁": 3973,
      "▁all": 3974,
      "about▁": 3975,
      "ater": 3976,
      "▁work": 3977,
      "also▁": 3978,
      "letely▁": 3979,
      ",▁I": 3980,
      "eep": 3981,
      "when": 3982,
      "bus": 3983,
      "，一": 3984,
      "or▁": 3985,
      "arri": 3986,
      "▁bo": 3987,
      "ure": 3988,
      "well": 3989,
      "經已": 3990,
      "都冇": 3991,
      "stud": 3992,
      "ing▁for": 3993,
      "see▁": 3994,
      "like▁to▁": 3995,
      "already▁": 3996,
      "'ll": 3997,
      "eg": 3998,
      "同佢": 3999,
      "of▁": 4000,
      "▁still": 4001,
      "咁多": 4002,
      "ign": 4003,
      "▁喺": 4004,
      "oss▁": 4005,
      "ble": 4006,
      "ank": 4007,
      "rem": 4008,
      "app": 4009,
      "down": 4010,
      "uff": 4011,
      "啲嘢": 4012,
      "elp": 4013,
      "I'm": 4014,
      "got": 4015,
      "only▁": 4016,
      "can't▁": 4017,
      "'s": 4018,
      "by": 4019,
      "feel": 4020,
      "▁They▁": 4021,
      "always▁": 4022,
      "under": 4023,
      "▁呢個": 4024,
      "morn": 4025,
      "anc": 4026,
      "▁such": 4027,
      "▁as": 4028,
      "▁we▁": 4029,
      "▁how": 4030,
      "gether": 4031,
      "eak": 4032,
      "如果": 4033,
      "ather": 4034,
      "all▁": 4035,
      "，有": 4036,
      "att": 4037,
      "▁will": 4038,
      "▁That▁": 4039,
      "ach": 4040,
      "▁一": 4041,
      "he▁was▁": 4042,
      "公司": 4043,
      "ens": 4044,
      "▁sa": 4045,
      "al▁": 4046,
      "pr": 4047,
      "，不": 4048,
      "▁then▁": 4049,
      "enc": 4050,
      "▁the▁c": 4051,
      "lef": 4052,
      "dri": 4053,
      "long": 4054,
      "▁He▁is▁": 4055,
      "sever": 4056,
      "▁should▁": 4057,
      "into▁": 4058,
      "mak": 4059,
      "▁You're▁": 4060,
      "him.": 4061,
      "之後": 4062,
      "▁cour": 4063,
      "iff": 4064,
      "a▁g": 4065,
      "fl": 4066,
      "ol": 4067,
      "oup": 4068,
      "ed▁with": 4069,
      "▁pl": 4070,
      "▁These▁": 4071,
      "br": 4072,
      "eas": 4073,
      "make▁": 4074,
      "唔知": 4075,
      "▁tri": 4076,
      ",▁then": 4077,
      "ave▁": 4078,
      "ry": 4079,
      "en't▁": 4080,
      "ed▁up": 4081,
      "want▁to▁": 4082,
      "▁J": 4083,
      "見到": 4084,
      "in▁a": 4085,
      "ed▁by▁": 4086,
      "▁there's▁": 4087,
      "ele": 4088,
      "因為": 4089,
      "▁some▁": 4090,
      "▁the▁m": 4091,
      "leep": 4092,
      "▁comp": 4093,
      "soon▁as▁": 4094,
      "人哋": 4095,
      "▁at▁": 4096,
      "chool": 4097,
      "▁Hong▁Kong": 4098,
      "t.": 4099,
      "what▁": 4100,
      "▁唔好": 4101,
      "，而家": 4102,
      "▁We▁": 4103,
      "are▁you": 4104,
      "I▁": 4105,
      "wr": 4106,
      "wear": 4107,
      "噉。": 4108,
      "und": 4109,
      "but": 4110,
      "eful": 4111,
      "ich": 4112,
      "喎。": 4113,
      "話，": 4114,
      "est▁": 4115,
      "ash": 4116,
      "been▁": 4117,
      "if▁you": 4118,
      "exp": 4119,
      "▁things▁": 4120,
      "㗎！": 4121,
      "，點": 4122,
      "▁tw": 4123,
      "ind▁": 4124,
      "liv": 4125,
      "▁too▁": 4126,
      "able▁": 4127,
      "▁Today▁": 4128,
      "梗係": 4129,
      "leas": 4130,
      "ask": 4131,
      "must▁": 4132,
      "今日": 4133,
      "lice▁": 4134,
      ",▁so▁it's▁": 4135,
      "become▁": 4136,
      "▁Some▁": 4137,
      "age▁": 4138,
      "▁I▁was▁": 4139,
      "▁R": 4140,
      "▁There▁": 4141,
      "job": 4142,
      "better": 4143,
      "其實": 4144,
      "邊個": 4145,
      "▁these▁": 4146,
      "ity▁": 4147,
      "for▁you": 4148,
      "said▁": 4149,
      "，但係": 4150,
      "Chin": 4151,
      "啊！": 4152,
      "ine▁": 4153,
      ",▁you": 4154,
      "imp": 4155,
      "buy▁": 4156,
      "▁the▁tim": 4157,
      "completely▁": 4158,
      "find▁": 4159,
      "ment▁": 4160,
      "出嚟": 4161,
      "orrow": 4162,
      "rep": 4163,
      "e▁the": 4164,
      "▁must▁": 4165,
      "way▁": 4166,
      "order": 4167,
      "▁se": 4168,
      "usb": 4169,
      "ett": 4170,
      "play": 4171,
      "wa": 4172,
      "ous▁": 4173,
      "art▁": 4174,
      "▁what▁": 4175,
      "money▁": 4176,
      "say▁": 4177,
      "▁a▁b": 4178,
      "▁people▁": 4179,
      "act▁": 4180,
      "room": 4181,
      "ap": 4182,
      "ib": 4183,
      "mer": 4184,
      "made▁": 4185,
      "▁G": 4186,
      "▁not▁": 4187,
      "覺得": 4188,
      "ition": 4189,
      "ing▁in": 4190,
      "ent.": 4191,
      "whole▁": 4192,
      "ext": 4193,
      "good▁": 4194,
      "keep": 4195,
      "ub": 4196,
      "us▁": 4197,
      "ven": 4198,
      "呢個": 4199,
      "happ": 4200,
      "before▁": 4201,
      "▁of▁": 4202,
      "e▁thing": 4203,
      "▁three▁": 4204,
      "its▁": 4205,
      "into": 4206,
      "s▁that▁": 4207,
      "嘢。": 4208,
      "▁tell": 4209,
      "▁do▁": 4210,
      "▁together": 4211,
      "▁Your": 4212,
      "，不過": 4213,
      "咗。": 4214,
      "女仔": 4215,
      "，係": 4216,
      "，冇": 4217,
      "e▁and▁": 4218,
      "around▁": 4219,
      "of▁the▁": 4220,
      "▁Last▁": 4221,
      "▁Just▁": 4222,
      "Hong▁Kong": 4223,
      "▁唔": 4224,
      "▁有啲": 4225,
      "onth": 4226,
      "str": 4227,
      "e▁that▁": 4228,
      "▁feel": 4229,
      "▁The▁b": 4230,
      "▁go▁": 4231,
      "beca": 4232,
      "▁He▁was▁": 4233,
      "▁when": 4234,
      "ial": 4235,
      "tain": 4236,
      "▁老": 4237,
      "㗎？": 4238,
      "an▁a": 4239,
      "▁gu": 4240,
      "ittle▁": 4241,
      "several": 4242,
      "ful": 4243,
      "give▁": 4244,
      "y,▁so▁": 4245,
      "▁ch": 4246,
      "兩個": 4247,
      "arg": 4248,
      "rest": 4249,
      "▁con": 4250,
      "even▁": 4251,
      "ress": 4252,
      "noth": 4253,
      "▁As▁for": 4254,
      "cr": 4255,
      "cover": 4256,
      "ix": 4257,
      "many▁": 4258,
      "好似": 4259,
      "細路": 4260,
      "▁want▁to▁": 4261,
      "▁mor": 4262,
      "udd": 4263,
      "e,▁and▁": 4264,
      "help": 4265,
      "ies▁": 4266,
      "ug": 4267,
      "watch": 4268,
      "▁琴": 4269,
      "架車": 4270,
      "e▁is▁": 4271,
      "et.": 4272,
      "again": 4273,
      "careful": 4274,
      "night": 4275,
      "s?": 4276,
      "快啲": 4277,
      "食。": 4278,
      "ed▁and▁": 4279,
      "lish": 4280,
      "ric": 4281,
      "ents▁": 4282,
      "ometh": 4283,
      "ax": 4284,
      "low": 4285,
      "such": 4286,
      "wif": 4287,
      "▁sp": 4288,
      "▁He▁has▁": 4289,
      "▁I'll": 4290,
      "didn't▁": 4291,
      "diff": 4292,
      "pret": 4293,
      "reat": 4294,
      "very": 4295,
      "acc": 4296,
      "go▁to▁": 4297,
      "ail": 4298,
      "hand": 4299,
      "s,▁so▁": 4300,
      "人。": 4301,
      "enough": 4302,
      "red▁": 4303,
      "lear": 4304,
      "▁per": 4305,
      "▁look": 4306,
      "big": 4307,
      "e-": 4308,
      "邊度": 4309,
      "erv": 4310,
      "out.": 4311,
      "▁Do▁": 4312,
      "都幾": 4313,
      "s▁with": 4314,
      "▁I▁have▁": 4315,
      "▁佢係": 4316,
      "boy": 4317,
      "a▁t": 4318,
      "e,": 4319,
      "fra": 4320,
      "med": 4321,
      "▁條": 4322,
      "頭先": 4323,
      "▁at": 4324,
      "going▁to▁": 4325,
      "ctor": 4326,
      "a▁h": 4327,
      "peop": 4328,
      "s,▁": 4329,
      "有冇": 4330,
      "▁till": 4331,
      "ord": 4332,
      "red": 4333,
      "let▁": 4334,
      "right": 4335,
      "ots▁of": 4336,
      "▁All": 4337,
      "out▁of": 4338,
      "▁In▁f": 4339,
      "busin": 4340,
      "min": 4341,
      "y?": 4342,
      "▁n": 4343,
      "，仲": 4344,
      "you're▁": 4345,
      "▁a▁s": 4346,
      "▁about▁": 4347,
      "ed▁in": 4348,
      "▁by▁": 4349,
      "here's▁": 4350,
      "▁呢啲": 4351,
      "，我哋": 4352,
      "le▁to▁": 4353,
      "ob": 4354,
      "put▁": 4355,
      "得好": 4356,
      "都好": 4357,
      "▁br": 4358,
      "▁in▁the▁": 4359,
      "ult": 4360,
      "▁who▁": 4361,
      "▁them.": 4362,
      "ly.": 4363,
      "won": 4364,
      "件事": 4365,
      "出去": 4366,
      "喎！": 4367,
      "記得": 4368,
      "都有": 4369,
      "er▁s": 4370,
      "ice▁": 4371,
      "▁course▁": 4372,
      "a▁w": 4373,
      "aper": 4374,
      "every▁": 4375,
      "pay▁": 4376,
      "y-": 4377,
      "同我": 4378,
      "都要": 4379,
      "▁int": 4380,
      "play▁": 4381,
      "because▁": 4382,
      "oll": 4383,
      "小心": 4384,
      "點解": 4385,
      "reg": 4386,
      "▁time.": 4387,
      "▁Now": 4388,
      "wants▁to▁": 4389,
      "hot": 4390,
      "大家": 4391,
      "學生": 4392,
      "應該": 4393,
      "inter": 4394,
      "▁those▁": 4395,
      "▁I▁s": 4396,
      "ing▁on": 4397,
      "shir": 4398,
      "should▁": 4399,
      "ember": 4400,
      "▁On": 4401,
      "▁trou": 4402,
      "I▁was▁": 4403,
      "augh": 4404,
      "y!": 4405,
      "▁其實": 4406,
      "咁大": 4407,
      "幾個": 4408,
      "水。": 4409,
      "，要": 4410,
      "▁this": 4411,
      "ons": 4412,
      "▁the▁f": 4413,
      "reas": 4414,
      "▁peop": 4415,
      "▁off": 4416,
      "真係好": 4417,
      "me.": 4418,
      "ron": 4419,
      "sur": 4420,
      "sleep": 4421,
      "walk": 4422,
      "y're▁": 4423,
      "ers.": 4424,
      "rec": 4425,
      "chang": 4426,
      "ent▁to▁": 4427,
      "why▁": 4428,
      "ousand▁": 4429,
      "▁Just▁now": 4430,
      "sk": 4431,
      "▁it": 4432,
      "▁is": 4433,
      "呢度": 4434,
      "唔會": 4435,
      "oman": 4436,
      "usband▁": 4437,
      "▁one▁": 4438,
      "ance▁": 4439,
      "for▁m": 4440,
      "▁that▁he▁": 4441,
      "rok": 4442,
      "▁the▁po": 4443,
      "years▁": 4444,
      "de": 4445,
      "d▁to▁": 4446,
      "kid": 4447,
      "me": 4448,
      "▁如果": 4449,
      "y▁is▁": 4450,
      "has": 4451,
      "fort": 4452,
      "▁cl": 4453,
      "▁dis": 4454,
      "▁him.": 4455,
      "days▁": 4456,
      "sw": 4457,
      "▁而家": 4458,
      "得。": 4459,
      "t▁of": 4460,
      "eng": 4461,
      "▁The▁t": 4462,
      "▁get▁": 4463,
      "able": 4464,
      "will▁be▁": 4465,
      "do▁you": 4466,
      "hard": 4467,
      "won't▁": 4468,
      "▁it.": 4469,
      "你。": 4470,
      "嗰陣": 4471,
      "▁she▁": 4472,
      "rel": 4473,
      "▁to▁be▁": 4474,
      "stre": 4475,
      "right▁": 4476,
      "ought▁": 4477,
      ",▁the▁": 4478,
      "me▁to▁": 4479,
      "rough": 4480,
      "s,▁and▁": 4481,
      "做嘢": 4482,
      "知道": 4483,
      "one.": 4484,
      "▁a▁m": 4485,
      "omorrow": 4486,
      "ush": 4487,
      "▁didn't▁": 4488,
      "▁What": 4489,
      "ild": 4490,
      "everal": 4491,
      "first": 4492,
      "like▁that.": 4493,
      "call": 4494,
      "did▁": 4495,
      "咩？": 4496,
      "唔使": 4497,
      "喇！": 4498,
      "▁tra": 4499,
      "▁am": 4500,
      "▁There's▁": 4501,
      "ing▁and▁": 4502,
      "▁from": 4503,
      "amn": 4504,
      "never": 4505,
      "speak": 4506,
      "▁I▁want▁to▁": 4507,
      "▁that's▁": 4508,
      "a▁lot▁": 4509,
      "▁money▁": 4510,
      "first▁": 4511,
      "I▁don't▁": 4512,
      "marri": 4513,
      "一齊": 4514,
      "去。": 4515,
      "啱啱": 4516,
      "晒。": 4517,
      "淨係": 4518,
      "生意": 4519,
      "食飯": 4520,
      "▁so": 4521,
      "▁the▁w": 4522,
      "lip": 4523,
      "▁to▁take▁": 4524,
      "able.": 4525,
      "ing▁about▁": 4526,
      "ccer": 4527,
      "aur": 4528,
      "fam": 4529,
      "hous": 4530,
      "most▁": 4531,
      "school": 4532,
      "件衫": 4533,
      "ion.": 4534,
      "nex": 4535,
      "raw": 4536,
      "exam": 4537,
      "▁Every": 4538,
      "drink": 4539,
      "Chinese▁": 4540,
      "▁琴晚": 4541,
      "bor": 4542,
      "ten": 4543,
      "▁other": 4544,
      "可能": 4545,
      "囉。": 4546,
      "ary▁": 4547,
      "lif": 4548,
      ",▁so▁you": 4549,
      "▁fir": 4550,
      "▁你要": 4551,
      "▁呢間": 4552,
      "finish": 4553,
      "▁As▁soon▁as▁": 4554,
      "▁Last▁night▁": 4555,
      "di": 4556,
      "iec": 4557,
      "▁阿": 4558,
      "先至": 4559,
      "啊。": 4560,
      "電話": 4561,
      "stuff": 4562,
      "▁me▁": 4563,
      "ally": 4564,
      "seem": 4565,
      "bre": 4566,
      "cook": 4567,
      "s!": 4568,
      "▁le": 4569,
      "呀？": 4570,
      "有人": 4571,
      "ed▁my▁": 4572,
      "light": 4573,
      "▁down": 4574,
      "it▁was▁": 4575,
      "movi": 4576,
      "cer": 4577,
      "lots▁of": 4578,
      "㗎喇。": 4579,
      "仔。": 4580,
      "咗一": 4581,
      "init": 4582,
      "ing▁with": 4583,
      "start": 4584,
      "ale▁": 4585,
      "open": 4586,
      "▁Where▁": 4587,
      "eca": 4588,
      "said": 4589,
      "▁how▁to▁": 4590,
      "undred▁": 4591,
      "extrem": 4592,
      "a▁d": 4593,
      "fre": 4594,
      "gain": 4595,
      "lost▁": 4596,
      "ment": 4597,
      "vis": 4598,
      "嘅，": 4599,
      "▁a▁f": 4600,
      "urry▁": 4601,
      "up▁and▁": 4602,
      "▁stud": 4603,
      "umber": 4604,
      "▁Every▁": 4605,
      "I've▁": 4606,
      "nois": 4607,
      "coll": 4608,
      "both": 4609,
      "giv": 4610,
      "high": 4611,
      "ually▁": 4612,
      "▁it's▁": 4613,
      "▁頭先": 4614,
      "喇，": 4615,
      "幫我": 4616,
      "▁te": 4617,
      "itch": 4618,
      "you▁can": 4619,
      "ately▁": 4620,
      "▁bu": 4621,
      "▁come▁": 4622,
      "▁you▁": 4623,
      "need": 4624,
      "someone▁": 4625,
      "lease▁": 4626,
      "bout": 4627,
      "ek": 4628,
      "ier": 4629,
      "lf": 4630,
      "part": 4631,
      "someth": 4632,
      "老細": 4633,
      "老豆": 4634,
      "醫生": 4635,
      "ing▁w": 4636,
      "or.": 4637,
      "it!": 4638,
      "stand": 4639,
      "▁could▁": 4640,
      "iss": 4641,
      "es▁are▁": 4642,
      "▁girl": 4643,
      "does▁": 4644,
      "ester": 4645,
      "blem": 4646,
      "left▁": 4647,
      "diffic": 4648,
      "wonder": 4649,
      "extremely▁": 4650,
      "呢間": 4651,
      "s▁have▁": 4652,
      "inc": 4653,
      "eri": 4654,
      "▁thousand▁": 4655,
      "one▁to▁": 4656,
      "on't": 4657,
      "resp": 4658,
      "he▁is▁": 4659,
      "▁ad": 4660,
      "e▁this▁": 4661,
      "▁he's▁": 4662,
      "ad.": 4663,
      "ship": 4664,
      "girlfriend▁": 4665,
      "d.": 4666,
      "gam": 4667,
      "y,▁": 4668,
      "個仔": 4669,
      "有個": 4670,
      "老公": 4671,
      "inv": 4672,
      "ing?": 4673,
      "ed▁for": 4674,
      "list": 4675,
      "rice▁": 4676,
      "▁got▁": 4677,
      "▁of▁the▁": 4678,
      "himself": 4679,
      "efinit": 4680,
      "nglish": 4681,
      "udden": 4682,
      "full": 4683,
      "luck": 4684,
      "what": 4685,
      "呢啲": 4686,
      "唔得": 4687,
      "日日": 4688,
      "聽日": 4689,
      "che": 4690,
      "▁mo": 4691,
      "▁佢話": 4692,
      "rid": 4693,
      "ently▁": 4694,
      "likes▁to▁": 4695,
      "e▁than": 4696,
      "▁No▁": 4697,
      "▁I▁don't▁know": 4698,
      "▁said▁": 4699,
      "pay": 4700,
      "▁and": 4701,
      "▁very▁": 4702,
      "▁quite▁": 4703,
      "先。": 4704,
      "大佬": 4705,
      "老婆": 4706,
      "outh": 4707,
      "y▁and▁": 4708,
      "you.": 4709,
      "ed▁by": 4710,
      "ess.": 4711,
      ",▁so▁he▁": 4712,
      "illeg": 4713,
      "ure▁": 4714,
      "eat.": 4715,
      "ump": 4716,
      "▁In▁fact▁": 4717,
      "I▁can't▁": 4718,
      "e,▁but▁": 4719,
      "husband▁": 4720,
      "ner": 4721,
      "run": 4722,
      "ys▁": 4723,
      "㗎，": 4724,
      "好大": 4725,
      "差佬": 4726,
      "條女": 4727,
      "it?": 4728,
      "▁after": 4729,
      "ower": 4730,
      "ing▁is▁": 4731,
      "▁我想": 4732,
      "▁young": 4733,
      "quick": 4734,
      "▁She's▁": 4735,
      "about": 4736,
      "plac": 4737,
      "omeone▁": 4738,
      "girlfriend": 4739,
      "how▁can": 4740,
      "restaur": 4741,
      "細路仔": 4742,
      "efinitely▁": 4743,
      "kind▁": 4744,
      "女朋友": 4745,
      "畀我": 4746,
      "▁than": 4747,
      "▁through": 4748,
      "enter": 4749,
      "ing!": 4750,
      "▁you.": 4751,
      "▁Who▁": 4752,
      "I'll": 4753,
      "▁have▁to▁": 4754,
      "▁For": 4755,
      "fraid▁": 4756,
      "ecause▁": 4757,
      "just": 4758,
      "my": 4759,
      "rac": 4760,
      "ue▁": 4761,
      "唔鍾意": 4762,
      "問題": 4763,
      "啫。": 4764,
      "好鍾意": 4765,
      "就係": 4766,
      "波士": 4767,
      "s▁on": 4768,
      "▁say": 4769,
      "here.": 4770,
      "▁At": 4771,
      "▁this▁matter": 4772,
      "cont": 4773,
      "day.": 4774,
      "▁a▁long": 4775,
      "▁There▁are▁": 4776,
      "▁brother": 4777,
      "came▁": 4778,
      "says▁": 4779,
      "vel": 4780,
      "咗個": 4781,
      "嘅嘢": 4782,
      "嚟。": 4783,
      "another": 4784,
      "stand▁": 4785,
      "e▁tim": 4786,
      "▁me.": 4787,
      "▁back": 4788,
      "▁hear": 4789,
      "▁gr": 4790,
      "earn": 4791,
      "for▁you▁to▁": 4792,
      "aughter": 4793,
      "mp": 4794,
      "▁if": 4795,
      "▁an▁": 4796,
      "吖？": 4797,
      "工作": 4798,
      "時間": 4799,
      "頭。": 4800,
      "，又": 4801,
      "▁say▁": 4802,
      "hair": 4803,
      "is▁quite▁": 4804,
      "stor": 4805,
      "all.": 4806,
      "qual": 4807,
      "buy": 4808,
      "place▁": 4809,
      "eap": 4810,
      "ction": 4811,
      "makes▁": 4812,
      "▁there's▁no▁": 4813,
      "into▁the▁": 4814,
      "ai": 4815,
      "ble▁": 4816,
      "brok": 4817,
      "rit": 4818,
      "ting▁": 4819,
      "噉，": 4820,
      "ed▁his▁": 4821,
      "▁couldn't▁": 4822,
      "ung": 4823,
      "▁Al": 4824,
      "en▁he▁": 4825,
      "mok": 4826,
      "ister": 4827,
      "▁haven't▁": 4828,
      "worth": 4829,
      "morning": 4830,
      "axi": 4831,
      "cor": 4832,
      "month": 4833,
      "number": 4834,
      "ve": 4835,
      "▁做": 4836,
      "▁over": 4837,
      "得咁": 4838,
      "突然": 4839,
      "錢。": 4840,
      "▁a▁p": 4841,
      ",▁but": 4842,
      "ay.": 4843,
      "▁呢度": 4844,
      "able▁to▁": 4845,
      "show": 4846,
      "ount": 4847,
      "▁今晚": 4848,
      "ing▁so▁": 4849,
      "ometim": 4850,
      "wait": 4851,
      "wife▁": 4852,
      "▁person": 4853,
      "BB": 4854,
      "a.": 4855,
      "pit": 4856,
      "▁香港": 4857,
      "咗佢": 4858,
      "唔夠": 4859,
      "唔想": 4860,
      "唔記得": 4861,
      "嗰啲": 4862,
      "男友": 4863,
      "開心": 4864,
      "arm": 4865,
      "is▁very▁": 4866,
      "▁a▁c": 4867,
      "her▁": 4868,
      "ott": 4869,
      "oper": 4870,
      "being▁": 4871,
      "amp": 4872,
      "▁You've▁": 4873,
      "rais": 4874,
      "money.": 4875,
      "expens": 4876,
      "▁Do▁you": 4877,
      "-t": 4878,
      "I▁have▁": 4879,
      "嘞。": 4880,
      "幾多": 4881,
      "星期": 4882,
      "話佢": 4883,
      "都會": 4884,
      "開始": 4885,
      "▁ten": 4886,
      "▁I▁had▁": 4887,
      "▁we": 4888,
      "e▁two▁": 4889,
      "irth": 4890,
      ",▁so▁don't▁": 4891,
      "▁fri": 4892,
      "es▁and▁": 4893,
      "head▁": 4894,
      "up.": 4895,
      "sex": 4896,
      "your▁": 4897,
      "clos": 4898,
      "▁things.": 4899,
      "wrong": 4900,
      "▁into▁": 4901,
      "aut": 4902,
      "vant": 4903,
      "個女": 4904,
      "同你": 4905,
      "幾時": 4906,
      "度。": 4907,
      "舒服": 4908,
      "英文": 4909,
      "▁teach": 4910,
      "ort▁": 4911,
      "arily▁": 4912,
      "stit": 4913,
      "▁what": 4914,
      "ed▁on": 4915,
      "sell": 4916,
      "▁is▁so▁": 4917,
      "exper": 4918,
      "no▁wonder": 4919,
      "cloth": 4920,
      "mov": 4921,
      "e▁them": 4922,
      "ci": 4923,
      "father": 4924,
      "▁k": 4925,
      "▁out▁": 4926,
      "▁really▁": 4927,
      "同埋": 4928,
      "嘅人": 4929,
      "囉！": 4930,
      "氣。": 4931,
      "知佢": 4932,
      "s▁were▁": 4933,
      "ity.": 4934,
      "leg": 4935,
      "all▁the▁tim": 4936,
      "ict": 4937,
      "then": 4938,
      "though": 4939,
      "▁is▁very▁": 4940,
      "▁while▁": 4941,
      "▁I▁will": 4942,
      "▁I▁really▁": 4943,
      "gotten": 4944,
      "cal": 4945,
      "care▁": 4946,
      "dec": 4947,
      "fall": 4948,
      "n't": 4949,
      "she's▁": 4950,
      "▁咁": 4951,
      "細佬": 4952,
      "en.": 4953,
      "ence▁": 4954,
      "▁to▁get▁": 4955,
      "atter": 4956,
      "▁car": 4957,
      "vers": 4958,
      "irt": 4959,
      "▁po": 4960,
      "unt": 4961,
      "ice.": 4962,
      "▁told▁": 4963,
      "ant.": 4964,
      "▁they're▁": 4965,
      "doctor": 4966,
      "shop": 4967,
      "▁str": 4968,
      "be▁so▁": 4969,
      "out▁to▁": 4970,
      "ation.": 4971,
      "▁Of": 4972,
      "▁before▁": 4973,
      "▁there▁are▁": 4974,
      "▁also▁": 4975,
      "▁turns▁": 4976,
      "or▁not": 4977,
      "stitut": 4978,
      "ball": 4979,
      "couldn't▁": 4980,
      "ies.": 4981,
      "ma": 4982,
      "water": 4983,
      "y,▁and▁": 4984,
      "▁睇": 4985,
      "做乜": 4986,
      "司機": 4987,
      "攪到": 4988,
      "的士": 4989,
      "警察": 4990,
      "，梗係": 4991,
      "▁tomorrow": 4992,
      "s▁for": 4993,
      "is▁really▁": 4994,
      "▁a▁h": 4995,
      "▁man": 4996,
      "▁佢喺": 4997,
      "▁佢好": 4998,
      "▁Her": 4999,
      "es▁in": 5000,
      "ention": 5001,
      "▁呢排": 5002,
      "roll": 5003,
      "ect▁": 5004,
      "▁which": 5005,
      "ept▁": 5006,
      "，好似": 5007,
      "ound.": 5008,
      "▁said": 5009,
      "driver": 5010,
      "▁twent": 5011,
      "a▁lot▁of": 5012,
      "vantag": 5013,
      "cle": 5014,
      "dish": 5015,
      "ract": 5016,
      "went▁": 5017,
      "俾佢": 5018,
      "冇人": 5019,
      "啲。": 5020,
      "怪得": 5021,
      "結婚": 5022,
      "is▁so▁": 5023,
      ",▁it's▁": 5024,
      "ed▁me▁": 5025,
      "al.": 5026,
      "form": 5027,
      "▁dri": 5028,
      "is▁the▁": 5029,
      "▁gam": 5030,
      "quit": 5031,
      "upp": 5032,
      "▁呢條": 5033,
      "door": 5034,
      "knows▁": 5035,
      "ing▁at▁": 5036,
      "anger": 5037,
      "you▁need▁to▁": 5038,
      "ired▁": 5039,
      "▁You▁are▁": 5040,
      "well.": 5041,
      "appear": 5042,
      "▁the▁police▁": 5043,
      "urry▁up▁and▁": 5044,
      "▁thousand▁dollar": 5045,
      "book": 5046,
      "cri": 5047,
      "ean": 5048,
      "hou": 5049,
      "last▁": 5050,
      "sal": 5051,
      "原來": 5052,
      "吓。": 5053,
      "讀書": 5054,
      "辛苦": 5055,
      "雖然": 5056,
      "ous.": 5057,
      "▁The": 5058,
      ",▁\"": 5059,
      "ed▁him": 5060,
      "▁pro": 5061,
      "ongk": 5062,
      "idd": 5063,
      "ildr": 5064,
      "know▁how▁to▁": 5065,
      "ult▁": 5066,
      "company▁": 5067,
      "ustom": 5068,
      "medi": 5069,
      "business▁": 5070,
      "uddenly▁": 5071,
      "kind▁of": 5072,
      "▁Although": 5073,
      "du": 5074,
      "din": 5075,
      "ee▁": 5076,
      "hard▁": 5077,
      "od": 5078,
      "古惑": 5079,
      "唔識": 5080,
      "嗰個": 5081,
      "因住": 5082,
      "考試": 5083,
      "，個": 5084,
      "▁tast": 5085,
      "▁several": 5086,
      "itu": 5087,
      "st.": 5088,
      "ese▁thing": 5089,
      "ing▁my▁": 5090,
      "▁We": 5091,
      "▁Are▁": 5092,
      "without▁": 5093,
      "eather": 5094,
      "class": 5095,
      "▁Let": 5096,
      "▁see▁": 5097,
      "veni": 5098,
      "shirt▁": 5099,
      "gl": 5100,
      "kill": 5101,
      "land▁": 5102,
      "▁us": 5103,
      "冇乜": 5104,
      "到佢": 5105,
      "噉樣": 5106,
      "幾日": 5107,
      "ener": 5108,
      "ing,▁so▁": 5109,
      "e▁they▁": 5110,
      "of▁course▁": 5111,
      "cheat": 5112,
      "▁much": 5113,
      "leav": 5114,
      "immedi": 5115,
      "usin": 5116,
      "▁dr": 5117,
      "elt▁": 5118,
      "ire▁": 5119,
      "road": 5120,
      "ought": 5121,
      "▁on▁the▁": 5122,
      "▁It▁was▁": 5123,
      "ometimes▁": 5124,
      "experi": 5125,
      "bad": 5126,
      "cop": 5127,
      "dition": 5128,
      "fac": 5129,
      "four": 5130,
      "h.": 5131,
      "rather": 5132,
      "▁are▁": 5133,
      "▁因為": 5134,
      "一次": 5135,
      "電視": 5136,
      "餐廳": 5137,
      "，成日": 5138,
      "▁ter": 5139,
      "in.": 5140,
      "er▁brother": 5141,
      "on.": 5142,
      "he▁has▁": 5143,
      "▁I▁think": 5144,
      "▁I▁can't▁": 5145,
      "e▁talk": 5146,
      "▁To▁": 5147,
      "owl": 5148,
      "usp": 5149,
      "▁hand": 5150,
      "es▁of": 5151,
      "▁你咁": 5152,
      "uni": 5153,
      "unch": 5154,
      "▁St": 5155,
      ",▁and▁don't▁": 5156,
      "road▁": 5157,
      "rap": 5158,
      "，佢就": 5159,
      "▁今朝": 5160,
      "▁take▁the▁": 5161,
      "sider": 5162,
      "a▁few": 5163,
      "anything.": 5164,
      "▁play": 5165,
      "boyfriend▁": 5166,
      "▁I▁saw": 5167,
      "English": 5168,
      "a▁st": 5169,
      "hor": 5170,
      "ies": 5171,
      "les": 5172,
      "woman": 5173,
      "▁or": 5174,
      "啦，": 5175,
      "畀你": 5176,
      "聲。": 5177,
      "講嘢": 5178,
      "▁took": 5179,
      "in▁f": 5180,
      "reat▁": 5181,
      "▁again": 5182,
      "at▁the▁": 5183,
      "ome.": 5184,
      "sty": 5185,
      "stru": 5186,
      "ing▁it▁": 5187,
      "ed,▁so▁": 5188,
      ",▁she▁": 5189,
      "isn't▁": 5190,
      "▁he": 5191,
      "ass▁": 5192,
      "▁you're▁": 5193,
      "▁today": 5194,
      "▁that▁I": 5195,
      "▁is▁quite▁": 5196,
      "▁is▁really▁": 5197,
      "comm": 5198,
      "comfort": 5199,
      "，佢哋": 5200,
      "ong▁Kong▁": 5201,
      "▁money.": 5202,
      "have▁to▁": 5203,
      "phot": 5204,
      "ure.": 5205,
      "▁ask": 5206,
      "az": 5207,
      "could▁": 5208,
      "cess": 5209,
      "deal": 5210,
      "gg": 5211,
      "hand▁": 5212,
      "ili": 5213,
      "mother": 5214,
      "pass": 5215,
      "▁咪": 5216,
      "▁now": 5217,
      "一定": 5218,
      "出街": 5219,
      "十幾": 5220,
      "噃！": 5221,
      "好唔": 5222,
      "工。": 5223,
      "男朋友": 5224,
      "返屋企": 5225,
      "阿媽": 5226,
      "ings▁": 5227,
      "read▁": 5228,
      "chick": 5229,
      "cheap": 5230,
      "live▁": 5231,
      "▁definitely▁": 5232,
      "ive.": 5233,
      "anymor": 5234,
      "▁your▁": 5235,
      "offic": 5236,
      "arket▁": 5237,
      "▁there.": 5238,
      "okay": 5239,
      "▁boy": 5240,
      "▁more▁": 5241,
      "reason": 5242,
      "damn": 5243,
      "fast": 5244,
      "his": 5245,
      "hang": 5246,
      "home": 5247,
      "piec": 5248,
      "sick": 5249,
      "係個": 5250,
      "即刻": 5251,
      "有好多": 5252,
      "▁sm": 5253,
      "▁about": 5254,
      "ated▁": 5255,
      ",▁it▁": 5256,
      "ing▁up": 5257,
      "▁big": 5258,
      "ed?": 5259,
      "allow": 5260,
      "entr": 5261,
      "anton": 5262,
      "while▁": 5263,
      "be▁careful": 5264,
      "soccer": 5265,
      "spaper": 5266,
      "都唔知": 5267,
      "looks▁": 5268,
      "old.": 5269,
      "like▁that▁": 5270,
      "newspaper": 5271,
      "everyth": 5272,
      "each▁other": 5273,
      "▁always▁": 5274,
      "small": 5275,
      "▁You▁need▁to▁": 5276,
      "import": 5277,
      "▁如果你": 5278,
      "illegal": 5279,
      "▁Let's▁": 5280,
      "Mom": 5281,
      "bab": 5282,
      "cas": 5283,
      "dist": 5284,
      "may▁": 5285,
      "sing": 5286,
      "ual": 5287,
      "▁like▁": 5288,
      "▁order": 5289,
      "三個": 5290,
      "佢嘅": 5291,
      "個樣": 5292,
      "去咗": 5293,
      "吖！": 5294,
      "報紙": 5295,
      "睇吓": 5296,
      "買咗": 5297,
      "en▁to▁": 5298,
      "is▁not▁": 5299,
      "omob": 5300,
      "▁佢一": 5301,
      "ets▁": 5302,
      "quest": 5303,
      "ide▁": 5304,
      "ospit": 5305,
      "▁You▁should▁": 5306,
      "so▁much": 5307,
      ",▁and▁so▁": 5308,
      "emper": 5309,
      "work.": 5310,
      "look▁for": 5311,
      "▁try": 5312,
      "let's▁": 5313,
      "aught": 5314,
      "left": 5315,
      "a▁good▁": 5316,
      "▁Rec": 5317,
      "出嚟。": 5318,
      "onsib": 5319,
      "▁No▁matter": 5320,
      "daughter": 5321,
      "ee": 5322,
      "hj": 5323,
      "ian": 5324,
      "meal": 5325,
      "par": 5326,
      "pain": 5327,
      "park": 5328,
      "ry.": 5329,
      "yet▁": 5330,
      "▁係": 5331,
      "人，": 5332,
      "去邊度": 5333,
      "啲人": 5334,
      "巴士": 5335,
      "後生": 5336,
      "我同": 5337,
      "有乜": 5338,
      "，成": 5339,
      "e▁with": 5340,
      "aren't▁": 5341,
      "▁the▁whole▁": 5342,
      "you▁still": 5343,
      "▁Is": 5344,
      "▁I▁can": 5345,
      "stock": 5346,
      "▁better": 5347,
      "her.": 5348,
      "rib": 5349,
      "imm": 5350,
      "▁half": 5351,
      "and▁then": 5352,
      "outsid": 5353,
      "▁the▁boss▁": 5354,
      "conveni": 5355,
      "，唔使": 5356,
      "▁going▁to▁": 5357,
      "arge▁": 5358,
      "learn": 5359,
      "regn": 5360,
      "quickly▁": 5361,
      "▁Of▁course▁": 5362,
      "draw": 5363,
      "fun": 5364,
      "late▁": 5365,
      "s,": 5366,
      "where▁": 5367,
      "今晚": 5368,
      "仲未": 5369,
      "係好": 5370,
      "同事": 5371,
      "咗，": 5372,
      "好。": 5373,
      "老師": 5374,
      "銀行": 5375,
      "間屋": 5376,
      "ine.": 5377,
      "onight": 5378,
      "rew": 5379,
      "▁a▁g": 5380,
      "▁app": 5381,
      "ator": 5382,
      "▁That": 5383,
      "ing▁his▁": 5384,
      "▁bec": 5385,
      "ely": 5386,
      "becom": 5387,
      "head": 5388,
      "▁You▁don't▁": 5389,
      "▁stuff": 5390,
      "willing▁to▁": 5391,
      "match": 5392,
      "▁I'm▁not▁": 5393,
      "suit": 5394,
      "suff": 5395,
      "▁This": 5396,
      "caus": 5397,
      "▁Please▁": 5398,
      "▁How▁can": 5399,
      "good.": 5400,
      "opport": 5401,
      "▁These▁days▁": 5402,
      "did▁you": 5403,
      "next▁": 5404,
      "veget": 5405,
      "▁Are▁you": 5406,
      "dev": 5407,
      "far": 5408,
      "fell": 5409,
      "gan": 5410,
      "hit▁": 5411,
      "hur": 5412,
      "hundred▁": 5413,
      "ile": 5414,
      "kick": 5415,
      "o'": 5416,
      "put": 5417,
      "som": 5418,
      "scar": 5419,
      "▁K": 5420,
      "▁r": 5421,
      "▁人哋": 5422,
      "今朝": 5423,
      "以為": 5424,
      "做。": 5425,
      "唔見": 5426,
      "噉嘅": 5427,
      "嚟講": 5428,
      "少少": 5429,
      "差人": 5430,
      "數。": 5431,
      "時候": 5432,
      "男人": 5433,
      "百蚊": 5434,
      "話要": 5435,
      "anno": 5436,
      "▁were▁": 5437,
      "ing▁m": 5438,
      "▁佢想": 5439,
      ",▁so▁why▁": 5440,
      "▁你哋": 5441,
      "set▁": 5442,
      "▁that▁you": 5443,
      "rob": 5444,
      "one's▁": 5445,
      "has▁been": 5446,
      "sol": 5447,
      "will▁": 5448,
      "clock": 5449,
      "▁今次": 5450,
      "not▁to▁": 5451,
      "saw": 5452,
      "problem": 5453,
      "▁triad▁": 5454,
      "er▁sister": 5455,
      "I▁don't▁know": 5456,
      "break": 5457,
      "▁team": 5458,
      "古惑仔": 5459,
      "hjong": 5460,
      "opportun": 5461,
      "cha": 5462,
      "done▁": 5463,
      "eign": 5464,
      "hospit": 5465,
      "ik": 5466,
      "lou": 5467,
      "law": 5468,
      "main": 5469,
      "naught": 5470,
      "o.": 5471,
      "uter": 5472,
      "yc": 5473,
      "▁v": 5474,
      "▁隻": 5475,
      "呢？": 5476,
      "單車": 5477,
      "幫你": 5478,
      "我。": 5479,
      "本書": 5480,
      "機會": 5481,
      "畀佢": 5482,
      "細個": 5483,
      "▁ten▁": 5484,
      "only": 5485,
      "ing,▁and▁": 5486,
      "around": 5487,
      "▁I▁am": 5488,
      ",▁or": 5489,
      "of▁them": 5490,
      "char": 5491,
      "▁but▁": 5492,
      "▁我聽": 5493,
      "▁pr": 5494,
      "▁With": 5495,
      "▁He▁doesn't▁": 5496,
      "▁Sh": 5497,
      "▁呢件事": 5498,
      "econ": 5499,
      "ood.": 5500,
      "▁In▁the▁": 5501,
      "▁her.": 5502,
      "▁Be": 5503,
      "police▁": 5504,
      "▁go▁to▁": 5505,
      "prov": 5506,
      "wash": 5507,
      "driv": 5508,
      "surpri": 5509,
      "o'clock": 5510,
      "bad▁": 5511,
      "cra": 5512,
      "clear": 5513,
      "eag": 5514,
      "five▁": 5515,
      "gin": 5516,
      "knew": 5517,
      "pick": 5518,
      "poss": 5519,
      "sum": 5520,
      "個月": 5521,
      "咋。": 5522,
      "嘢，": 5523,
      "犀利": 5524,
      "男仔": 5525,
      "結果": 5526,
      "舖頭": 5527,
      "過。": 5528,
      "隻手": 5529,
      "飛機": 5530,
      "onight▁": 5531,
      "ing▁t": 5532,
      "you▁to▁": 5533,
      "▁I▁hear": 5534,
      "ath": 5535,
      "ing▁off": 5536,
      "▁my": 5537,
      "▁give▁": 5538,
      "unk": 5539,
      "ently": 5540,
      "ift": 5541,
      "▁without▁": 5542,
      ",▁but▁he▁": 5543,
      "a▁very▁": 5544,
      "▁the▁past▁": 5545,
      "money": 5546,
      "return": 5547,
      "eyes▁": 5548,
      "feels▁": 5549,
      "▁trick": 5550,
      "▁The▁boss▁": 5551,
      "ordin": 5552,
      "examin": 5553,
      "immediately▁": 5554,
      ",▁then▁": 5555,
      "eve▁": 5556,
      "few": 5557,
      "今次": 5558,
      "以前": 5559,
      "係我": 5560,
      "做乜嘢": 5561,
      "叫我": 5562,
      "噃。": 5563,
      "天氣": 5564,
      "好耐": 5565,
      "方便": 5566,
      "第二": 5567,
      "都未": 5568,
      "，啲": 5569,
      "▁school": 5570,
      "it▁to▁": 5571,
      "▁water": 5572,
      "e▁there▁": 5573,
      "▁many▁": 5574,
      "for▁s": 5575,
      "▁by": 5576,
      "▁days▁": 5577,
      "eth": 5578,
      "▁The▁s": 5579,
      "beli": 5580,
      "quar": 5581,
      "ident": 5582,
      "build": 5583,
      "acter": 5584,
      "shar": 5585,
      "don't▁you": 5586,
      "ously▁": 5587,
      "ress▁": 5588,
      "▁doing▁": 5589,
      "▁dollar": 5590,
      "ew▁Y": 5591,
      "▁Chin": 5592,
      "aught▁": 5593,
      "how▁to▁": 5594,
      "▁今日我": 5595,
      "elect": 5596,
      "▁Some▁people▁": 5597,
      "▁guys▁": 5598,
      "medic": 5599,
      "people.": 5600,
      "visit▁": 5601,
      "▁friend": 5602,
      "univers": 5603,
      "annoy": 5604,
      "'r": 5605,
      "'d▁": 5606,
      ",▁as": 5607,
      "I▁had▁": 5608,
      "des": 5609,
      "dress": 5610,
      "less": 5611,
      "oy": 5612,
      "pa": 5613,
      "rush": 5614,
      "▁每": 5615,
      "人工": 5616,
      "佢好": 5617,
      "出奇": 5618,
      "同學": 5619,
      "打波": 5620,
      "政府": 5621,
      "腳。": 5622,
      "隔籬": 5623,
      "er▁to▁": 5624,
      "arr": 5625,
      "ream": 5626,
      "▁as▁the▁": 5627,
      "atur": 5628,
      "▁would▁": 5629,
      "e▁tak": 5630,
      "ing▁b": 5631,
      "ing▁around▁": 5632,
      "▁bre": 5633,
      "rich": 5634,
      "▁我同": 5635,
      "▁today▁": 5636,
      "come▁to▁": 5637,
      "igar": 5638,
      "can▁be▁": 5639,
      "consider": 5640,
      "▁he▁was▁": 5641,
      "bles": 5642,
      ",▁as▁he▁": 5643,
      "▁Because▁": 5644,
      "nobody▁": 5645,
      "a▁big": 5646,
      "ection": 5647,
      "▁Today": 5648,
      "▁Why▁are▁you": 5649,
      "pric": 5650,
      "arriv": 5651,
      "students▁": 5652,
      "got▁to▁": 5653,
      "e▁their": 5654,
      "pretty▁": 5655,
      "▁people": 5656,
      "▁people.": 5657,
      "next": 5658,
      "difficult": 5659,
      "restaurant▁": 5660,
      "style▁": 5661,
      "bought▁": 5662,
      "cut": 5663,
      "fight": 5664,
      "ied▁": 5665,
      "oil": 5666,
      "slow": 5667,
      "to": 5668,
      "▁大": 5669,
      "▁食": 5670,
      "▁雖然": 5671,
      "到。": 5672,
      "咗好多": 5673,
      "喺呢度": 5674,
      "嘅！": 5675,
      "幾好": 5676,
      "我就": 5677,
      "最好": 5678,
      "為咗": 5679,
      "美國": 5680,
      "，噉": 5681,
      "an▁in": 5682,
      "orough": 5683,
      "▁the▁car": 5684,
      "stop": 5685,
      "stick": 5686,
      "▁well": 5687,
      "ed▁her": 5688,
      "ed▁into▁": 5689,
      "led": 5690,
      "light▁": 5691,
      "use▁the▁": 5692,
      "eless": 5693,
      "ot.": 5694,
      ",▁so▁I": 5695,
      "best": 5696,
      "plan": 5697,
      "ular": 5698,
      "ing▁at": 5699,
      "▁with▁": 5700,
      "boy▁": 5701,
      "you▁are▁": 5702,
      "▁Be▁": 5703,
      "guy▁": 5704,
      "manag": 5705,
      "phone▁": 5706,
      "▁嗰個": 5707,
      "▁a▁little▁": 5708,
      "about▁it.": 5709,
      "ignor": 5710,
      "▁Nowad": 5711,
      "movie▁": 5712,
      "responsib": 5713,
      "ituation": 5714,
      "experienc": 5715,
      "suffer": 5716,
      "bit": 5717,
      "fe": 5718,
      "food▁": 5719,
      "mouth": 5720,
      "nment▁": 5721,
      "ost": 5722,
      "occ": 5723,
      "turn": 5724,
      "▁架車": 5725,
      "㗎啦。": 5726,
      "係噉": 5727,
      "入便": 5728,
      "唔啱": 5729,
      "多啲": 5730,
      "搵到": 5731,
      "起身": 5732,
      "，如果": 5733,
      "，因為": 5734,
      "ince▁": 5735,
      "ing▁that▁": 5736,
      "had": 5737,
      "start▁": 5738,
      "▁want": 5739,
      "ed▁from": 5740,
      "childr": 5741,
      "▁busin": 5742,
      "oot": 5743,
      "ooth": 5744,
      "▁fin": 5745,
      "▁He▁s": 5746,
      "▁He▁said▁": 5747,
      ",▁and▁it▁": 5748,
      "which": 5749,
      "plain": 5750,
      "▁Mom": 5751,
      "you▁know": 5752,
      "，唔怪得": 5753,
      "▁only▁": 5754,
      "looking▁for": 5755,
      "▁Our": 5756,
      "year.": 5757,
      "away▁": 5758,
      "lock": 5759,
      "a▁bit▁": 5760,
      ",▁so▁the▁": 5761,
      "on▁the▁stre": 5762,
      "everyone▁": 5763,
      "'ll▁be▁": 5764,
      "prot": 5765,
      "▁completely▁": 5766,
      "meric": 5767,
      "ollow": 5768,
      "esterday▁": 5769,
      "care▁of": 5770,
      "house": 5771,
      "▁trying▁to▁": 5772,
      "character": 5773,
      "igarett": 5774,
      "afraid▁": 5775,
      "cold": 5776,
      "gone▁": 5777,
      "gave▁": 5778,
      "home▁": 5779,
      "hold": 5780,
      "land": 5781,
      "▁兩": 5782,
      "▁our": 5783,
      "仔，": 5784,
      "佢唔": 5785,
      "佢就": 5786,
      "做到": 5787,
      "十蚊": 5788,
      "嘅事": 5789,
      "嘛。": 5790,
      "媽咪": 5791,
      "得閒": 5792,
      "erk": 5793,
      "you▁don't▁": 5794,
      "▁Is▁": 5795,
      "▁I▁feel": 5796,
      "star": 5797,
      "leave▁": 5798,
      "ed,▁": 5799,
      "▁hor": 5800,
      "it▁for": 5801,
      "unhapp": 5802,
      "add": 5803,
      "▁Sometimes▁": 5804,
      "▁呢隻": 5805,
      "aby▁": 5806,
      "dog": 5807,
      "ago▁": 5808,
      "exc": 5809,
      "▁Don't": 5810,
      "a▁new": 5811,
      "yourself": 5812,
      "no▁matter": 5813,
      "go▁out▁": 5814,
      "▁Those▁": 5815,
      "▁that.": 5816,
      "▁being▁": 5817,
      "e▁of▁the▁": 5818,
      "好多人": 5819,
      "prostitut": 5820,
      "▁After▁he▁": 5821,
      "way.": 5822,
      "understand▁": 5823,
      "attention": 5824,
      "job.": 5825,
      "happen": 5826,
      "strang": 5827,
      "should▁be▁": 5828,
      "hasn't▁": 5829,
      "▁first▁": 5830,
      "automob": 5831,
      "'s▁the▁": 5832,
      "bit▁": 5833,
      "cam": 5834,
      "dep": 5835,
      "eight": 5836,
      "lose▁": 5837,
      "less▁": 5838,
      "nor": 5839,
      "weather": 5840,
      "▁聽": 5841,
      "▁ear": 5842,
      "去睇": 5843,
      "吖。": 5844,
      "呢件事": 5845,
      "咗幾": 5846,
      "心機": 5847,
      "萬蚊": 5848,
      "話我": 5849,
      "車。": 5850,
      "通常": 5851,
      "，有啲": 5852,
      "▁these▁thing": 5853,
      "ing▁this▁": 5854,
      "steal": 5855,
      "ing▁f": 5856,
      "ing▁you": 5857,
      "▁He▁t": 5858,
      "▁Hey": 5859,
      "▁hour": 5860,
      "at▁all": 5861,
      "as▁soon▁as▁": 5862,
      "heav": 5863,
      "necess": 5864,
      "▁lo": 5865,
      "ilk": 5866,
      "▁why▁": 5867,
      "s▁to▁be▁": 5868,
      "you▁ar": 5869,
      "sub": 5870,
      "▁Don't▁you": 5871,
      "▁People▁": 5872,
      "oke▁": 5873,
      "▁turned▁": 5874,
      "tainly▁": 5875,
      "prett": 5876,
      "ervic": 5877,
      "people": 5878,
      "▁buy": 5879,
      "ierc": 5880,
      "▁driver": 5881,
      "ongkong": 5882,
      "photo": 5883,
      "▁boyfriend▁": 5884,
      "loud": 5885,
      "ew▁Year": 5886,
      "oroughly▁": 5887,
      "birth": 5888,
      "cut▁": 5889,
      "dem": 5890,
      "een": 5891,
      "e,▁as▁": 5892,
      "found▁": 5893,
      "ild▁": 5894,
      "lin": 5895,
      "little▁": 5896,
      "pull": 5897,
      "pleas": 5898,
      "pregn": 5899,
      "smok": 5900,
      "supp": 5901,
      "tim": 5902,
      "wer": 5903,
      "▁好": 5904,
      "▁un": 5905,
      "▁around▁": 5906,
      "▁點解": 5907,
      "仲有": 5908,
      "住個": 5909,
      "你咁": 5910,
      "做得": 5911,
      "先得。": 5912,
      "十年": 5913,
      "咗喇。": 5914,
      "唔少": 5915,
      "啲朋友": 5916,
      "地方": 5917,
      "場。": 5918,
      "女友": 5919,
      "我嘅": 5920,
      "有幾": 5921,
      "決定": 5922,
      "睇。": 5923,
      "緊要": 5924,
      "衰仔": 5925,
      "頭髮": 5926,
      "，睇": 5927,
      "▁ti": 5928,
      "▁temper": 5929,
      "inj": 5930,
      "in▁Hong▁Kong": 5931,
      "▁though": 5932,
      "ouch": 5933,
      "enef": 5934,
      "inger": 5935,
      "argu": 5936,
      "you▁have▁": 5937,
      "▁afraid▁": 5938,
      "at.": 5939,
      "stall": 5940,
      "stup": 5941,
      "▁wa": 5942,
      "▁walk": 5943,
      "ing▁in▁the▁": 5944,
      "▁佢成日": 5945,
      "▁book": 5946,
      "▁Have▁": 5947,
      "ed!": 5948,
      "▁我一": 5949,
      "▁我好": 5950,
      "ope▁": 5951,
      "advantag": 5952,
      "hell": 5953,
      "ically▁": 5954,
      "▁This▁morn": 5955,
      "ing▁all": 5956,
      "ept": 5957,
      "▁shop": 5958,
      "e▁three▁": 5959,
      "do▁it▁": 5960,
      "ively▁": 5961,
      "▁She▁is▁": 5962,
      "cap": 5963,
      "e▁too▁": 5964,
      "week": 5965,
      "ize▁": 5966,
      "ized▁": 5967,
      "▁If▁you▁don't▁": 5968,
      "would▁be▁": 5969,
      "▁the▁cop": 5970,
      "▁the▁time▁": 5971,
      "strong": 5972,
      "▁more▁than": 5973,
      "night.": 5974,
      "fraid": 5975,
      "▁The▁two▁": 5976,
      "▁travel": 5977,
      "house▁": 5978,
      "fully▁": 5979,
      "▁a▁long▁tim": 5980,
      "突然間": 5981,
      "quite▁t": 5982,
      "okay?": 5983,
      "hospital": 5984,
      "I▁can": 5985,
      "bed▁": 5986,
      "dom": 5987,
      "face▁": 5988,
      "hold▁": 5989,
      "ief": 5990,
      "sat": 5991,
      "ves▁": 5992,
      "wind": 5993,
      "▁U": 5994,
      "▁將": 5995,
      "▁out": 5996,
      "▁大家": 5997,
      "乜都": 5998,
      "係佢": 5999,
      "個都": 6000,
      "功課": 6001,
      "喺香港": 6002,
      "好難": 6003,
      "就會": 6004,
      "幫手": 6005,
      "我唔": 6006,
      "波。": 6007,
      "社會": 6008,
      "靚。": 6009,
      "，呢": 6010,
      "，咪": 6011,
      "▁tea": 6012,
      "▁thre": 6013,
      "enu": 6014,
      "ing▁as▁": 6015,
      "▁someone▁": 6016,
      "had▁to▁": 6017,
      "relat": 6018,
      "▁to▁him": 6019,
      "▁to▁have▁": 6020,
      "▁a▁wh": 6021,
      "ater.": 6022,
      "ste": 6023,
      "ed▁me▁to▁": 6024,
      "ing▁from": 6025,
      "▁佢俾人": 6026,
      "▁cook": 6027,
      "ed,": 6028,
      "us.": 6029,
      "ooli": 6030,
      "▁我唔": 6031,
      "isf": 6032,
      "issu": 6033,
      "irty▁": 6034,
      ",▁so▁it▁": 6035,
      ",▁so▁how▁can": 6036,
      "▁The▁young": 6037,
      "▁你唔好": 6038,
      "▁He▁had▁": 6039,
      "▁has": 6040,
      "acau": 6041,
      "▁You▁must▁": 6042,
      "see▁the▁": 6043,
      "one▁who▁": 6044,
      "ific": 6045,
      "ilit": 6046,
      "▁stock": 6047,
      "really▁quite▁": 6048,
      "▁is▁not▁": 6049,
      "has▁become▁": 6050,
      "emp": 6051,
      "angry": 6052,
      "soci": 6053,
      "e▁this": 6054,
      "▁I▁would▁": 6055,
      "conf": 6056,
      "▁they▁are▁": 6057,
      "▁doing": 6058,
      "▁does": 6059,
      "years.": 6060,
      "drug": 6061,
      "▁there▁was▁": 6062,
      "▁When▁you": 6063,
      "▁taken": 6064,
      "oundrel": 6065,
      "ired": 6066,
      "egg": 6067,
      "remember": 6068,
      "ance.": 6069,
      "oup▁of": 6070,
      "，點知": 6071,
      "repar": 6072,
      "▁seem": 6073,
      "usband": 6074,
      "change▁": 6075,
      "kids▁": 6076,
      "finished▁": 6077,
      "▁頭先我": 6078,
      "▁movi": 6079,
      "▁twenty▁": 6080,
      "cold▁": 6081,
      "catch": 6082,
      "deat": 6083,
      "eiv": 6084,
      "gang": 6085,
      "gust": 6086,
      "ning": 6087,
      "oi": 6088,
      "pen": 6089,
      "sitt": 6090,
      "uc": 6091,
      "ys": 6092,
      "▁對": 6093,
      "▁間": 6094,
      "▁just▁": 6095,
      "一樣": 6096,
      "一陣": 6097,
      "仲係": 6098,
      "你哋": 6099,
      "你嘅": 6100,
      "使乜": 6101,
      "係咪": 6102,
      "做生意": 6103,
      "到我": 6104,
      "咗我": 6105,
      "唔可以": 6106,
      "大學": 6107,
      "太太": 6108,
      "或者": 6109,
      "旅行": 6110,
      "落地": 6111,
      "返嚟": 6112,
      "錢，": 6113,
      "電腦": 6114,
      "s▁who▁": 6115,
      "enjo": 6116,
      "orc": 6117,
      "▁son": 6118,
      "arrest": 6119,
      "▁to▁go▁": 6120,
      "stopp": 6121,
      "▁wear": 6122,
      "▁watch": 6123,
      "▁TV": 6124,
      "ed▁m": 6125,
      "ing▁d": 6126,
      "ing▁p": 6127,
      "ing▁of": 6128,
      "for▁the▁": 6129,
      "▁我諗": 6130,
      ",▁so▁of▁course▁": 6131,
      "▁The▁p": 6132,
      "ungr": 6133,
      "ical": 6134,
      "▁You▁can": 6135,
      "▁they": 6136,
      "rog": 6137,
      "rol": 6138,
      "ily.": 6139,
      "one-": 6140,
      "▁When▁": 6141,
      "card": 6142,
      "angu": 6143,
      "icket": 6144,
      "spec": 6145,
      "eff": 6146,
      "，唔知": 6147,
      "▁tran": 6148,
      "succ": 6149,
      "ffic": 6150,
      "▁rec": 6151,
      "actor": 6152,
      ",▁so▁that's▁": 6153,
      ",▁so▁there's▁no▁": 6154,
      "a▁look": 6155,
      "view": 6156,
      "back▁to▁": 6157,
      ",▁and▁the▁": 6158,
      "person.": 6159,
      "air▁of": 6160,
      "dollars.": 6161,
      "wasn't▁": 6162,
      "differ": 6163,
      "▁into": 6164,
      "ront▁": 6165,
      "▁buy▁": 6166,
      "suitable▁": 6167,
      "opportunit": 6168,
      "'d▁better": 6169,
      "▁Nowadays▁": 6170,
      "satisf": 6171,
      "boss▁": 6172,
      "flat": 6173,
      "jerk": 6174,
      "led▁": 6175,
      "pec": 6176,
      "ren": 6177,
      "wall": 6178,
      "▁乜": 6179,
      "▁噉": 6180,
      "▁請": 6181,
      "世界": 6182,
      "位。": 6183,
      "佢講": 6184,
      "前面": 6185,
      "千蚊": 6186,
      "咁耐": 6187,
      "咗啲": 6188,
      "嗰度": 6189,
      "夜晚": 6190,
      "學校": 6191,
      "廁所": 6192,
      "晒啲": 6193,
      "經理": 6194,
      "行街": 6195,
      "食得": 6196,
      "，可能": 6197,
      "s▁is▁": 6198,
      "s▁up": 6199,
      "arrog": 6200,
      "half": 6201,
      "you?": 6202,
      "▁a▁d": 6203,
      "ing▁he▁": 6204,
      "cho": 6205,
      "▁meal": 6206,
      "▁made▁": 6207,
      "▁month": 6208,
      "▁Hong▁Kong▁": 6209,
      "ried▁": 6210,
      "ist▁": 6211,
      "▁help": 6212,
      "aybe▁": 6213,
      ",▁so▁what▁": 6214,
      "▁gang": 6215,
      "▁good": 6216,
      "bur": 6217,
      "near": 6218,
      "seen": 6219,
      "secon": 6220,
      "ily": 6221,
      "▁In▁the▁past▁": 6222,
      "grad": 6223,
      "▁beli": 6224,
      "drunk": 6225,
      "▁money": 6226,
      "back.": 6227,
      "rug": 6228,
      "someone▁to▁": 6229,
      "drive▁": 6230,
      "▁cours": 6231,
      "easily▁": 6232,
      "ublic": 6233,
      "，係唔係": 6234,
      "▁老公": 6235,
      "▁One▁": 6236,
      "▁cloth": 6237,
      "hard▁to▁": 6238,
      "嗰陣時": 6239,
      "family▁": 6240,
      "born": 6241,
      "▁At▁the▁": 6242,
      "▁order▁to▁": 6243,
      "▁Recently▁": 6244,
      "examination": 6245,
      "▁Be▁careful": 6246,
      "▁finish": 6247,
      ",▁they▁": 6248,
      ".▁It's▁": 6249,
      "Canton": 6250,
      "I▁s": 6251,
      "TV": 6252,
      "dat": 6253,
      "fix": 6254,
      "lack": 6255,
      "seri": 6256,
      "vo": 6257,
      "▁if▁you": 6258,
      "▁聽日": 6259,
      "中文": 6260,
      "入嚟": 6261,
      "呢排": 6262,
      "唔切": 6263,
      "單嘢": 6264,
      "我會": 6265,
      "有一": 6266,
      "澳門": 6267,
      "芝士": 6268,
      "落雨": 6269,
      "門口": 6270,
      "麻雀": 6271,
      "，打": 6272,
      "，話": 6273,
      "s▁in▁the▁": 6274,
      "insid": 6275,
      "ers": 6276,
      "▁thoroughly▁": 6277,
      "ing▁to": 6278,
      "▁the▁other": 6279,
      "▁Tonight▁": 6280,
      "ing▁out▁": 6281,
      "ing▁him": 6282,
      "▁make▁": 6283,
      "format": 6284,
      "▁because▁": 6285,
      "▁cer": 6286,
      "ed▁that▁": 6287,
      "▁day": 6288,
      "is.": 6289,
      "es▁on": 6290,
      "▁good▁": 6291,
      "oss.": 6292,
      "osition": 6293,
      "▁An": 6294,
      "▁At▁": 6295,
      "▁Yesterday▁": 6296,
      "up▁with": 6297,
      "exer": 6298,
      "ounc": 6299,
      "▁This▁morning": 6300,
      "ploy": 6301,
      "emale▁": 6302,
      "go.": 6303,
      "▁time▁to▁": 6304,
      ",▁but▁I": 6305,
      "more▁than": 6306,
      "e▁then": 6307,
      "▁your▁f": 6308,
      "clud": 6309,
      "concer": 6310,
      "都唔識": 6311,
      "▁him▁to▁": 6312,
      "▁My▁husband▁": 6313,
      "older▁sister": 6314,
      "istak": 6315,
      "▁Ch": 6316,
      "▁the▁same▁": 6317,
      ",▁and▁then": 6318,
      "▁有人": 6319,
      "▁有個": 6320,
      "a▁fri": 6321,
      "a▁car": 6322,
      "price▁": 6323,
      "都冇用": 6324,
      "▁two": 6325,
      "playing▁": 6326,
      "▁together▁with": 6327,
      "▁cont": 6328,
      "mean": 6329,
      "▁Everyone▁": 6330,
      "▁Every▁day▁": 6331,
      "check": 6332,
      "iddle▁": 6333,
      "land▁Chin": 6334,
      "comfortable.": 6335,
      "▁No▁matter▁how": 6336,
      "ycle▁": 6337,
      "best▁th": 6338,
      "automobile▁": 6339,
      "▁doesn't▁": 6340,
      "-style▁": 6341,
      ".▁I": 6342,
      "a▁sh": 6343,
      "ble.": 6344,
      "hungr": 6345,
      "ious▁": 6346,
      "kind": 6347,
      "lor": 6348,
      "lum": 6349,
      "me!": 6350,
      "ment.": 6351,
      "nic": 6352,
      "oes▁": 6353,
      "r.": 6354,
      "sof": 6355,
      "sit▁": 6356,
      "sist": 6357,
      "soup": 6358,
      "six": 6359,
      "ten▁": 6360,
      "val": 6361,
      "ward": 6362,
      "▁j": 6363,
      "今年": 6364,
      "佢一": 6365,
      "佬。": 6366,
      "冇得": 6367,
      "叫佢": 6368,
      "唔掂": 6369,
      "啫？": 6370,
      "喺屋企": 6371,
      "喺邊度": 6372,
      "家姐": 6373,
      "容易": 6374,
      "幫佢": 6375,
      "幾耐": 6376,
      "成個": 6377,
      "次次": 6378,
      "水，": 6379,
      "清楚": 6380,
      "生日": 6381,
      "睇佢": 6382,
      "聽到": 6383,
      "落去": 6384,
      "試過": 6385,
      "返工": 6386,
      "運動": 6387,
      "面。": 6388,
      "，會": 6389,
      "，都": 6390,
      "▁touch": 6391,
      "in▁this▁": 6392,
      "ense▁": 6393,
      "▁sal": 6394,
      "ither": 6395,
      "you▁can't▁": 6396,
      "▁to▁see▁": 6397,
      "ed▁off": 6398,
      "charg": 6399,
      "▁佢嘅": 6400,
      "▁佢講": 6401,
      "lead": 6402,
      "lim": 6403,
      "edd": 6404,
      "ed,▁and▁": 6405,
      "rip": 6406,
      "all▁the▁": 6407,
      "▁我今日": 6408,
      "▁fl": 6409,
      "▁The▁girl": 6410,
      "ide": 6411,
      "heal": 6412,
      "▁Several": 6413,
      "▁Someone▁": 6414,
      "▁You▁have▁": 6415,
      "th.": 6416,
      ",▁and▁now": 6417,
      "who": 6418,
      "，我真係": 6419,
      "event": 6420,
      "don't▁know": 6421,
      "鍾意食": 6422,
      "▁It's▁not▁": 6423,
      "，唔係": 6424,
      "▁I▁quite▁": 6425,
      "▁I▁need▁to▁": 6426,
      "getting▁": 6427,
      "▁try▁to▁": 6428,
      "money▁to▁": 6429,
      "ground▁": 6430,
      "ground.": 6431,
      "▁there▁is▁": 6432,
      "a▁little▁": 6433,
      "scold": 6434,
      "dollars▁": 6435,
      "▁What▁are▁you": 6436,
      "ured▁": 6437,
      "▁喺香港": 6438,
      "▁They▁are▁": 6439,
      "attract": 6440,
      "flat▁": 6441,
      "▁plac": 6442,
      "▁together.": 6443,
      "▁有啲人": 6444,
      "nothing▁": 6445,
      "deb": 6446,
      "first.": 6447,
      "mahjong": 6448,
      "▁drink": 6449,
      "eagu": 6450,
      "quarrel": 6451,
      "electric": 6452,
      "ooligan": 6453,
      ",▁we▁": 6454,
      "borrow": 6455,
      "cis": 6456,
      "def": 6457,
      "danger": 6458,
      "ey▁": 6459,
      "felt▁": 6460,
      "hour": 6461,
      "mark": 6462,
      "pres": 6463,
      "rat": 6464,
      "suddenly▁": 6465,
      "susp": 6466,
      "went▁to▁": 6467,
      "▁等": 6468,
      "▁邊個": 6469,
      "佢，": 6470,
      "出便": 6471,
      "唔舒服": 6472,
      "我好": 6473,
      "拍拖": 6474,
      "搵人": 6475,
      "正一": 6476,
      "無論": 6477,
      "畀錢": 6478,
      "發現": 6479,
      "說話": 6480,
      "走咗": 6481,
      "路。": 6482,
      "過嚟": 6483,
      "醫院": 6484,
      "雞。": 6485,
      "，都係": 6486,
      "，因住": 6487,
      "𠻹。": 6488,
      "▁taxi": 6489,
      "inf": 6490,
      "d▁of": 6491,
      "an.": 6492,
      "anqu": 6493,
      "ing,▁": 6494,
      "orter": 6495,
      "it▁turns▁": 6496,
      "really": 6497,
      "▁I▁f": 6498,
      "oment▁": 6499,
      "▁where▁": 6500,
      "ed▁down": 6501,
      "es,▁": 6502,
      "along": 6503,
      "▁mak": 6504,
      "▁mean": 6505,
      "▁佢俾": 6506,
      "▁佢冇": 6507,
      "▁佢唔": 6508,
      "forc": 6509,
      "les▁": 6510,
      "ed▁to": 6511,
      "used▁": 6512,
      "▁did▁": 6513,
      "▁我睇": 6514,
      "▁hous": 6515,
      "▁you▁can": 6516,
      "ety▁": 6517,
      "beat": 6518,
      "behin": 6519,
      "heard▁": 6520,
      "▁to▁talk": 6521,
      "so▁many▁": 6522,
      "doing▁": 6523,
      "when▁he▁": 6524,
      "ility▁": 6525,
      "ould▁you": 6526,
      "have▁any▁": 6527,
      "employ": 6528,
      "it's▁not▁": 6529,
      "ing▁about": 6530,
      "box": 6531,
      "▁show": 6532,
      "▁the▁boss": 6533,
      "close▁": 6534,
      "just▁now": 6535,
      "company": 6536,
      "loan": 6537,
      "loor": 6538,
      "she▁was▁": 6539,
      "avor": 6540,
      "who▁would▁": 6541,
      "good▁to▁": 6542,
      "eacher": 6543,
      "like▁that?": 6544,
      "disgust": 6545,
      "▁嗰啲": 6546,
      "smart": 6547,
      "wanted▁to▁": 6548,
      "啲嘢。": 6549,
      "之後，就": 6550,
      "I▁really▁": 6551,
      "writt": 6552,
      "▁There▁is▁": 6553,
      "e▁things▁": 6554,
      "give▁me▁": 6555,
      "▁琴日": 6556,
      "redit▁": 6557,
      "▁In▁fact": 6558,
      "increas": 6559,
      "invit": 6560,
      "myself": 6561,
      "▁gambl": 6562,
      "classmat": 6563,
      "horse▁": 6564,
      "後生仔": 6565,
      "▁That's▁": 6566,
      "possib": 6567,
      "▁hasn't▁": 6568,
      ",▁I'm": 6569,
      "Americ": 6570,
      "cur": 6571,
      "custom": 6572,
      "don't": 6573,
      "hone▁": 6574,
      "hurry▁up▁and▁": 6575,
      "member": 6576,
      "natur": 6577,
      "oint": 6578,
      "ovi": 6579,
      "prom": 6580,
      "sha": 6581,
      "se.": 6582,
      "s,▁but▁": 6583,
      "vate▁": 6584,
      "wast": 6585,
      "want▁": 6586,
      "ying▁": 6587,
      "y's▁": 6588,
      "yet": 6589,
      "▁三": 6590,
      "▁上": 6591,
      "▁know": 6592,
      "▁快啲": 6593,
      "㗎咋。": 6594,
      "住我": 6595,
      "你唔": 6596,
      "係唔係": 6597,
      "分鐘": 6598,
      "十二": 6599,
      "千祈": 6600,
      "咯。": 6601,
      "女人": 6602,
      "屎𦡆": 6603,
      "工人": 6604,
      "底。": 6605,
      "揸車": 6606,
      "最近": 6607,
      "機。": 6608,
      "股票": 6609,
      "要小心": 6610,
      "酒店": 6611,
      "需要": 6612,
      "飯。": 6613,
      "，想": 6614,
      "inn": 6615,
      "int▁": 6616,
      "▁throw": 6617,
      "enz": 6618,
      "arch": 6619,
      "rev": 6620,
      "reli": 6621,
      "requ": 6622,
      "▁to▁do▁": 6623,
      "omach": 6624,
      "ed▁at▁": 6625,
      "es!": 6626,
      "es,": 6627,
      "es▁the▁": 6628,
      "ese.": 6629,
      "▁cr": 6630,
      "lipp": 6631,
      "ed▁their": 6632,
      "▁de": 6633,
      "▁我有": 6634,
      "eld▁": 6635,
      "irt▁": 6636,
      "it▁will": 6637,
      "▁gett": 6638,
      "▁He▁wants▁to▁": 6639,
      "▁hair": 6640,
      "bull": 6641,
      "likes▁": 6642,
      "very▁much": 6643,
      "▁this▁morn": 6644,
      "have▁been": 6645,
      "it's▁quite▁": 6646,
      "gover": 6647,
      "go▁to▁the▁": 6648,
      "▁for▁": 6649,
      "card▁": 6650,
      "a▁ch": 6651,
      "anyone▁": 6652,
      "ationship": 6653,
      "just▁like▁": 6654,
      "▁I▁know": 6655,
      "mob": 6656,
      "▁try▁": 6657,
      "▁Let▁": 6658,
      "I▁will": 6659,
      "I▁went▁to▁": 6660,
      "▁rel": 6661,
      "成日都": 6662,
      "young▁h": 6663,
      "▁When▁I▁was▁": 6664,
      "friends.": 6665,
      "rowd": 6666,
      "▁had▁better": 6667,
      "a▁meal": 6668,
      "have▁the▁": 6669,
      "，所以我": 6670,
      "later": 6671,
      "▁a▁very▁": 6672,
      "，真係好": 6673,
      "▁If▁you▁want▁to▁": 6674,
      "can't▁be▁": 6675,
      "understand": 6676,
      "之後就": 6677,
      "olv": 6678,
      "▁too▁much": 6679,
      ",▁so▁it's▁really▁": 6680,
      "▁do▁you": 6681,
      "nothing▁to▁": 6682,
      "pretend": 6683,
      "▁at▁the▁": 6684,
      "minut": 6685,
      "put▁on": 6686,
      "▁this▁time▁": 6687,
      "years▁old.": 6688,
      "ength": 6689,
      "一齊去": 6690,
      "▁soccer": 6691,
      "runn": 6692,
      "▁They're▁": 6693,
      "struction": 6694,
      "anymore.": 6695,
      "question": 6696,
      "craz": 6697,
      "▁Chinese▁": 6698,
      "▁break": 6699,
      "exercis": 6700,
      "Ch": 6701,
      "af": 6702,
      "ct▁": 6703,
      "cum": 6704,
      "caught▁": 6705,
      "dare▁": 6706,
      "eet": 6707,
      "fer": 6708,
      "ge▁": 6709,
      "ger": 6710,
      "gar": 6711,
      "ious": 6712,
      "ject": 6713,
      "kn": 6714,
      "mall": 6715,
      "mad": 6716,
      "rou": 6717,
      "rop": 6718,
      "swe": 6719,
      "▁攞": 6720,
      "▁舊": 6721,
      "▁any▁": 6722,
      "兄弟": 6723,
      "兩隻": 6724,
      "出咗": 6725,
      "去邊": 6726,
      "咖啡": 6727,
      "咗三": 6728,
      "唔同": 6729,
      "好好": 6730,
      "希望": 6731,
      "意思": 6732,
      "我都": 6733,
      "戲。": 6734,
      "打個": 6735,
      "時，": 6736,
      "最後": 6737,
      "服務": 6738,
      "瞓。": 6739,
      "要去": 6740,
      "鎖匙": 6741,
      "，結果": 6742,
      "inch": 6743,
      "inut": 6744,
      "in▁my▁": 6745,
      "in▁such": 6746,
      "ers▁are▁": 6747,
      "ense": 6748,
      "▁sw": 6749,
      "▁some": 6750,
      "▁someth": 6751,
      "itic": 6752,
      "has▁to▁": 6753,
      "real": 6754,
      "▁acc": 6755,
      "e▁that": 6756,
      "ed▁so▁": 6757,
      "ed▁over": 6758,
      "es?": 6759,
      "▁main": 6760,
      "▁me?": 6761,
      "▁佢有": 6762,
      "▁佢真係": 6763,
      "lick": 6764,
      "rict": 6765,
      "▁drug": 6766,
      "iss▁": 6767,
      "elop": 6768,
      "▁you've▁": 6769,
      "ether": 6770,
      ",▁so▁how": 6771,
      "opin": 6772,
      "es▁for": 6773,
      "▁The▁police▁": 6774,
      "▁你做": 6775,
      "▁Well": 6776,
      "buck": 6777,
      "▁呢啲嘢": 6778,
      "abl": 6779,
      "ably▁": 6780,
      "do.": 6781,
      "age.": 6782,
      "▁of▁them": 6783,
      "with▁": 6784,
      "ilm": 6785,
      "▁inv": 6786,
      "known": 6787,
      "going▁": 6788,
      "your▁b": 6789,
      "▁the▁ball": 6790,
      "▁the▁back": 6791,
      "▁She▁has▁": 6792,
      "move▁": 6793,
      "compan": 6794,
      "▁Can": 6795,
      "news▁": 6796,
      ",▁so▁then": 6797,
      "▁has▁been": 6798,
      "▁have▁the▁": 6799,
      "▁taking▁": 6800,
      "▁How▁come▁": 6801,
      "a▁movi": 6802,
      "anything▁": 6803,
      "afterno": 6804,
      "▁嗰個人": 6805,
      "prof": 6806,
      "elebr": 6807,
      ",▁so▁it's▁no▁wonder": 6808,
      "▁Get▁": 6809,
      "▁佢係個": 6810,
      "boyfriend": 6811,
      "for▁me▁to▁": 6812,
      "called▁": 6813,
      "▁琴晚我": 6814,
      "▁first.": 6815,
      "seems▁": 6816,
      "▁leav": 6817,
      "whatever": 6818,
      "唔得閒": 6819,
      "girlfriend.": 6820,
      "knows▁how▁to▁": 6821,
      "chicken": 6822,
      "ribly▁": 6823,
      "▁This▁time▁": 6824,
      "difficult▁to▁": 6825,
      "experienced▁": 6826,
      "concern": 6827,
      ",▁I'll": 6828,
      "a▁do": 6829,
      "afraid": 6830,
      "bb": 6831,
      "bank": 6832,
      "count": 6833,
      "dar": 6834,
      "del": 6835,
      "fill": 6836,
      "fish": 6837,
      "ile.": 6838,
      "ious.": 6839,
      "kept▁": 6840,
      "oon": 6841,
      "pant": 6842,
      "please▁": 6843,
      "slip": 6844,
      "wher": 6845,
      "yp": 6846,
      "▁要": 6847,
      "▁here▁": 6848,
      "一聲": 6849,
      "仔女": 6850,
      "仲唔": 6851,
      "住。": 6852,
      "價錢": 6853,
      "啊，": 6854,
      "啤酒": 6855,
      "嘅時候": 6856,
      "好少": 6857,
      "定係": 6858,
      "就得": 6859,
      "年。": 6860,
      "我一": 6861,
      "手。": 6862,
      "搵唔到": 6863,
      "收屘": 6864,
      "方法": 6865,
      "時我": 6866,
      "未啊？": 6867,
      "父母": 6868,
      "琴晚": 6869,
      "申請": 6870,
      "着。": 6871,
      "瞓覺": 6872,
      "肚餓": 6873,
      "見過": 6874,
      "辦法": 6875,
      "門。": 6876,
      "馬。": 6877,
      "點鐘": 6878,
      "，做": 6879,
      "，喺": 6880,
      "，大": 6881,
      "，大家": 6882,
      "▁treat": 6883,
      "▁tonight": 6884,
      "s▁will": 6885,
      "▁soup": 6886,
      "are▁the▁": 6887,
      "▁a▁sh": 6888,
      "▁I▁didn't▁": 6889,
      "ate.": 6890,
      "omen": 6891,
      "▁Tomorrow": 6892,
      "of▁my▁": 6893,
      "▁may▁": 6894,
      "▁match": 6895,
      "▁佢咁": 6896,
      "▁我喺": 6897,
      "▁face▁": 6898,
      "▁The▁m": 6899,
      "▁你想": 6900,
      "beat▁": 6901,
      "ly▁and▁": 6902,
      "bus▁": 6903,
      "heel": 6904,
      "now.": 6905,
      "en▁up": 6906,
      "▁long": 6907,
      "▁last▁": 6908,
      "when▁": 6909,
      "iful": 6910,
      "aged▁": 6911,
      "has▁been▁": 6912,
      "▁While▁": 6913,
      "▁This▁matter": 6914,
      "ulat": 6915,
      "ement▁": 6916,
      "▁white▁": 6917,
      "▁foreign": 6918,
      "▁times▁": 6919,
      "ummer": 6920,
      "▁the▁toi": 6921,
      "s▁of▁the▁": 6922,
      "▁It's▁really▁": 6923,
      "result▁": 6924,
      "▁個仔": 6925,
      "▁Oh": 6926,
      "▁My▁boyfriend▁": 6927,
      "▁Even": 6928,
      "▁English": 6929,
      "from▁the▁": 6930,
      "I▁want▁to▁": 6931,
      "▁No": 6932,
      "▁Not▁": 6933,
      "a▁per": 6934,
      "▁comm": 6935,
      "body.": 6936,
      "▁How▁much": 6937,
      "▁their▁": 6938,
      "poor": 6939,
      "point": 6940,
      "scoundrel": 6941,
      "▁along": 6942,
      "smell": 6943,
      "rained▁": 6944,
      "▁work.": 6945,
      "▁boy▁": 6946,
      "study▁": 6947,
      "，不如": 6948,
      "making▁": 6949,
      "▁the▁most▁": 6950,
      "leep.": 6951,
      "for▁you.": 6952,
      "▁老細": 6953,
      "▁As▁for▁this▁": 6954,
      "accept▁": 6955,
      "▁條女": 6956,
      "▁att": 6957,
      "let▁me▁": 6958,
      "▁trouble": 6959,
      "ront▁of": 6960,
      "▁There's▁no▁": 6961,
      "married▁": 6962,
      "life.": 6963,
      "▁阿媽": 6964,
      "started▁": 6965,
      "listen": 6966,
      "all▁the▁time.": 6967,
      "▁twenty-": 6968,
      "entral": 6969,
      "▁become▁": 6970,
      "robber": 6971,
      "econom": 6972,
      "attention▁to▁": 6973,
      "千祈唔好": 6974,
      "aff": 6975,
      "bar": 6976,
      "bel": 6977,
      "bag": 6978,
      "bowl": 6979,
      "cus": 6980,
      "food": 6981,
      "ially▁": 6982,
      "kitch": 6983,
      "langu": 6984,
      "many": 6985,
      "nam": 6986,
      "nons": 6987,
      "og": 6988,
      "rong": 6989,
      "rad": 6990,
      "rent▁": 6991,
      "serv": 6992,
      "▁V": 6993,
      "▁天": 6994,
      "▁成": 6995,
      "▁講": 6996,
      "不如": 6997,
      "人家": 6998,
      "份人": 6999,
      "佢會": 7000,
      "全部": 7001,
      "叫你": 7002,
      "呢條": 7003,
      "唔住": 7004,
      "啲錢": 7005,
      "啲細路仔": 7006,
      "埋啲": 7007,
      "搵個": 7008,
      "普通": 7009,
      "死人": 7010,
      "然後": 7011,
      "禮拜": 7012,
      "笑。": 7013,
      "行到": 7014,
      "身體": 7015,
      "間房": 7016,
      "鬼佬": 7017,
      "麻煩": 7018,
      "，邊個": 7019,
      "，淨係": 7020,
      "，攪到": 7021,
      "▁tight": 7022,
      "s▁he▁": 7023,
      "s▁his▁": 7024,
      "s▁on▁the▁": 7025,
      "t▁and▁": 7026,
      "ing,": 7027,
      "he▁had▁": 7028,
      "you've▁": 7029,
      "▁to▁m": 7030,
      "▁away": 7031,
      "▁I▁b": 7032,
      "▁was": 7033,
      "▁Take▁": 7034,
      "ese▁two▁": 7035,
      "ing▁her": 7036,
      "▁me!": 7037,
      "▁佢個人": 7038,
      "rif": 7039,
      "▁我個": 7040,
      "▁我覺得": 7041,
      "▁hundred▁": 7042,
      "▁you▁should▁": 7043,
      "▁pass": 7044,
      "▁The▁car": 7045,
      "became▁": 7046,
      "adm": 7047,
      "▁Ar": 7048,
      "hear": 7049,
      "ambo": 7050,
      "uper": 7051,
      "▁to▁tell": 7052,
      "out▁and▁": 7053,
      "roblem": 7054,
      "with▁my▁": 7055,
      "with▁him": 7056,
      "know▁that▁": 7057,
      "ounter": 7058,
      "，我都": 7059,
      "ult.": 7060,
      "utt": 7061,
      "eats▁": 7062,
      "eating▁": 7063,
      "do▁you▁": 7064,
      "，你唔好": 7065,
      "▁yourself": 7066,
      "▁今年": 7067,
      "artment▁": 7068,
      "complet": 7069,
      "computer": 7070,
      "ession": 7071,
      "block": 7072,
      "s▁are▁quite▁": 7073,
      "ard.": 7074,
      "group▁of": 7075,
      "▁Could▁you": 7076,
      "assage▁": 7077,
      "having▁": 7078,
      "soon▁as▁the▁": 7079,
      "e▁to▁the▁": 7080,
      "scr": 7081,
      "▁up.": 7082,
      "ways": 7083,
      "▁Why▁did▁you": 7084,
      "down.": 7085,
      "公司嘅": 7086,
      "a▁girl": 7087,
      "undred": 7088,
      "repair": 7089,
      "wait▁": 7090,
      "▁a▁big": 7091,
      "ful.": 7092,
      "against▁": 7093,
      "▁speak": 7094,
      "interest": 7095,
      "interest▁": 7096,
      "▁troubles": 7097,
      "receiv": 7098,
      "skill": 7099,
      "fortun": 7100,
      "gambl": 7101,
      "listen▁to▁": 7102,
      "clothes▁": 7103,
      "or▁not?": 7104,
      "▁We're▁": 7105,
      "each▁other.": 7106,
      "bably▁": 7107,
      "▁appear": 7108,
      "▁Before▁": 7109,
      "▁I▁heard▁": 7110,
      "you▁are!": 7111,
      "death": 7112,
      "formation": 7113,
      "enzh": 7114,
      "mobile▁": 7115,
      "opinion": 7116,
      "amboo▁": 7117,
      "!\"": 7118,
      ".▁The▁": 7119,
      "bal": 7120,
      "bad.": 7121,
      "cry": 7122,
      "cream": 7123,
      "celebr": 7124,
      "div": 7125,
      "dark": 7126,
      "definitely▁": 7127,
      "dict": 7128,
      "eed": 7129,
      "fig": 7130,
      "gre": 7131,
      "hot▁": 7132,
      "ie▁": 7133,
      "ibl": 7134,
      "kin": 7135,
      "laugh": 7136,
      "laz": 7137,
      "ov": 7138,
      "pat": 7139,
      "prepar": 7140,
      "s'": 7141,
      "sign": 7142,
      "sett": 7143,
      "wouldn't▁": 7144,
      "▁冇": 7145,
      "▁keep": 7146,
      "▁件衫": 7147,
      "▁波士": 7148,
      "▁以前": 7149,
      "上嚟": 7150,
      "中環": 7151,
      "乾淨": 7152,
      "二十": 7153,
      "人嘅": 7154,
      "份工": 7155,
      "你都": 7156,
      "佢都唔": 7157,
      "係你": 7158,
      "問佢": 7159,
      "大聲": 7160,
      "媽媽": 7161,
      "師傅": 7162,
      "得㗎。": 7163,
      "意。": 7164,
      "慢慢": 7165,
      "撞到": 7166,
      "擔心": 7167,
      "明星": 7168,
      "時時": 7169,
      "有錢": 7170,
      "波，": 7171,
      "深圳": 7172,
      "滯。": 7173,
      "煙。": 7174,
      "爸爸": 7175,
      "皮。": 7176,
      "眼。": 7177,
      "行路": 7178,
      "認真": 7179,
      "警方": 7180,
      "走去": 7181,
      "，一個": 7182,
      "ing,▁but▁": 7183,
      "▁sex": 7184,
      "area": 7185,
      "▁the▁girl": 7186,
      "▁to▁my▁": 7187,
      "▁a▁w": 7188,
      "▁a▁st": 7189,
      "▁I▁haven't▁": 7190,
      "step": 7191,
      "e▁turn": 7192,
      "ed▁p": 7193,
      "ed▁it▁": 7194,
      "es,▁and▁": 7195,
      "ing▁money▁": 7196,
      "chop": 7197,
      "▁me▁to▁": 7198,
      "▁marri": 7199,
      "▁member": 7200,
      "▁佢食": 7201,
      "▁bill": 7202,
      "▁call": 7203,
      "▁custom": 7204,
      "oob": 7205,
      "is▁to▁": 7206,
      "▁his": 7207,
      "▁home": 7208,
      "▁you▁have▁": 7209,
      "▁part": 7210,
      "▁put▁": 7211,
      "▁phot": 7212,
      "▁fall": 7213,
      "▁fell": 7214,
      "▁get": 7215,
      "▁你唔": 7216,
      "bear": 7217,
      "urt": 7218,
      "▁You▁can't▁": 7219,
      "then▁": 7220,
      "neck": 7221,
      "short": 7222,
      "if▁he▁": 7223,
      "ifty▁": 7224,
      "▁in▁f": 7225,
      "▁in▁this▁": 7226,
      "▁stand": 7227,
      "，我唔": 7228,
      "▁This▁year": 7229,
      "ed▁to▁be▁": 7230,
      "goes▁": 7231,
      "your▁f": 7232,
      "▁It▁turns▁": 7233,
      "oodlum": 7234,
      "▁the▁two▁": 7235,
      "，唔會": 7236,
      "▁things": 7237,
      "some▁people▁": 7238,
      "▁Or": 7239,
      "go▁out▁to▁": 7240,
      "▁Ex": 7241,
      "▁the▁sam": 7242,
      "doesn't▁matter": 7243,
      "avo": 7244,
      "▁Put": 7245,
      "▁so▁much": 7246,
      "e▁to▁take▁": 7247,
      "everybody▁": 7248,
      "oppos": 7249,
      "licem": 7250,
      ",▁I▁think": 7251,
      "I'm▁not▁": 7252,
      "▁will▁be▁": 7253,
      "pract": 7254,
      "left.": 7255,
      "writ": 7256,
      "ashion": 7257,
      "living▁": 7258,
      "，係咪": 7259,
      "▁唔使": 7260,
      "▁唔該": 7261,
      "▁condition": 7262,
      "critic": 7263,
      "ugg": 7264,
      "let▁him": 7265,
      "right?": 7266,
      "business": 7267,
      "shirt": 7268,
      "▁trouble.": 7269,
      "▁this▁tim": 7270,
      "▁the▁water": 7271,
      "famili": 7272,
      "▁Everybody▁": 7273,
      "ary▁school": 7274,
      "▁你要小心": 7275,
      "▁As▁soon▁as▁he▁": 7276,
      "▁lead": 7277,
      "▁a▁few": 7278,
      "畀我。": 7279,
      "e▁time▁": 7280,
      "broke▁": 7281,
      "ritor": 7282,
      "▁teacher": 7283,
      "decid": 7284,
      "or▁not.": 7285,
      "vegetable": 7286,
      "做乜嘢啊？": 7287,
      "▁wait": 7288,
      "health": 7289,
      "government▁": 7290,
      "!▁I've▁": 7291,
      "-p": 7292,
      "-look": 7293,
      "Hong▁Kong▁": 7294,
      "I▁couldn't▁": 7295,
      "a▁young": 7296,
      "bill": 7297,
      "breat": 7298,
      "cu": 7299,
      "cat": 7300,
      "cent▁": 7301,
      "dou": 7302,
      "dire": 7303,
      "eed▁": 7304,
      "fast▁": 7305,
      "fool": 7306,
      "follow": 7307,
      "gn": 7308,
      "hum": 7309,
      "home.": 7310,
      "kid▁": 7311,
      "los": 7312,
      "last": 7313,
      "mar": 7314,
      "mot": 7315,
      "ner.": 7316,
      "name▁": 7317,
      "sy": 7318,
      "sound": 7319,
      "s,▁then": 7320,
      "took": 7321,
      "went": 7322,
      "▁坐": 7323,
      "▁得": 7324,
      "▁新": 7325,
      "▁本": 7326,
      "▁an": 7327,
      "▁old▁": 7328,
      "▁another": 7329,
      "▁為咗": 7330,
      "一啲": 7331,
      "一個人": 7332,
      "下。": 7333,
      "之前": 7334,
      "人都": 7335,
      "佢冇": 7336,
      "其他": 7337,
      "到你": 7338,
      "參加": 7339,
      "口。": 7340,
      "古力": 7341,
      "咗喇": 7342,
      "問我": 7343,
      "嘍。": 7344,
      "嚟㗎。": 7345,
      "坐喺度": 7346,
      "埋。": 7347,
      "女。": 7348,
      "完全": 7349,
      "寫字": 7350,
      "就唔好": 7351,
      "平時": 7352,
      "幾年": 7353,
      "廚房": 7354,
      "我冇": 7355,
      "我！": 7356,
      "早啲": 7357,
      "會唔會": 7358,
      "朝早": 7359,
      "朱古力": 7360,
      "檔。": 7361,
      "死。": 7362,
      "沖涼": 7363,
      "玩。": 7364,
      "瞓唔": 7365,
      "行山": 7366,
      "裏面": 7367,
      "話。": 7368,
      "話，我": 7369,
      "跑步": 7370,
      "身。": 7371,
      "過去": 7372,
      "都可以": 7373,
      "銀包": 7374,
      "頭，": 7375,
      "食，": 7376,
      "餐。": 7377,
      "鹹濕": 7378,
      "黑社會": 7379,
      "點算": 7380,
      "𡃁仔": 7381,
      "▁tong": 7382,
      "s▁and": 7383,
      "on▁": 7384,
      "▁sur": 7385,
      "ity": 7386,
      "hai": 7387,
      "rely▁": 7388,
      "he▁would▁": 7389,
      "you'll": 7390,
      "▁to▁eat▁": 7391,
      "▁act": 7392,
      "ates▁": 7393,
      "omat": 7394,
      "stair": 7395,
      "▁wor": 7396,
      "ed▁out▁": 7397,
      "ed▁on▁the▁": 7398,
      "of▁his▁": 7399,
      "▁mouth": 7400,
      "▁market▁": 7401,
      "▁bag": 7402,
      "lep": 7403,
      "liqu": 7404,
      "ed▁this▁": 7405,
      "ed▁till": 7406,
      "▁diff": 7407,
      "▁damn": 7408,
      "▁我冇": 7409,
      "▁我要": 7410,
      "▁我唔知": 7411,
      "▁我見到": 7412,
      "▁我啱啱": 7413,
      "▁hard▁": 7414,
      "ass.": 7415,
      "▁you?": 7416,
      "▁you▁to▁": 7417,
      ",▁so▁let's▁": 7418,
      "▁The▁h": 7419,
      "▁The▁w": 7420,
      "▁gave▁": 7421,
      "▁你啲": 7422,
      "▁你話": 7423,
      "unn": 7424,
      "▁had": 7425,
      "▁As": 7426,
      "▁A▁f": 7427,
      "acr": 7428,
      "amoun": 7429,
      "up!": 7430,
      "need▁": 7431,
      "neigh": 7432,
      "en▁and▁": 7433,
      "if▁I": 7434,
      "raph": 7435,
      "exact": 7436,
      "，我就": 7437,
      "▁Dur": 7438,
      "▁with▁my▁": 7439,
      "▁for▁me.": 7440,
      ",▁but▁I▁don't▁know": 7441,
      "ange▁": 7442,
      "umbre": 7443,
      "▁the▁book": 7444,
      "▁the▁train": 7445,
      "▁In▁Hong▁Kong": 7446,
      "▁It's▁so▁": 7447,
      "▁My▁girlfriend▁": 7448,
      "▁Each": 7449,
      "suck": 7450,
      "▁that▁the▁": 7451,
      "grown": 7452,
      "▁here.": 7453,
      "ready▁": 7454,
      "▁been": 7455,
      "lov": 7456,
      "▁Don't▁be▁": 7457,
      ",▁so▁they▁": 7458,
      "we▁can": 7459,
      "retty▁": 7460,
      "▁He's▁really▁": 7461,
      "▁When▁I": 7462,
      "anything▁about▁": 7463,
      "discover": 7464,
      "一個月": 7465,
      "，唔好咁": 7466,
      "▁Why▁do▁you": 7467,
      "says": 7468,
      "when▁you": 7469,
      "student": 7470,
      "ense.": 7471,
      "ed▁up.": 7472,
      "again.": 7473,
      "lower": 7474,
      "people▁to▁": 7475,
      "business.": 7476,
      "minal": 7477,
      "a▁woman": 7478,
      "▁trouble▁": 7479,
      "sleep.": 7480,
      "▁Just▁now▁I▁saw": 7481,
      "for▁me.": 7482,
      "meet": 7483,
      "street": 7484,
      "life▁": 7485,
      "iece▁of": 7486,
      "given": 7487,
      "開心。": 7488,
      "ongkok": 7489,
      "piece▁of": 7490,
      "important": 7491,
      "convenient.": 7492,
      "solut": 7493,
      "細個嗰陣時": 7494,
      "▁myself": 7495,
      "ordinarily▁": 7496,
      "considered▁": 7497,
      "stupid": 7498,
      "▁Have▁you": 7499,
      "enuine▁": 7500,
      "opportunity▁to▁": 7501,
      "burn": 7502,
      "valu": 7503,
      "a▁person": 7504,
      "▁Ordin": 7505,
      "umbrell": 7506,
      ",▁what▁": 7507,
      "Dad▁": 7508,
      "Hongkong": 7509,
      "New▁Year": 7510,
      "cash": 7511,
      "crowd": 7512,
      "eight▁": 7513,
      "e,▁he▁": 7514,
      "foo": 7515,
      "hom": 7516,
      "hic": 7517,
      "long▁": 7518,
      "mal": 7519,
      "mix": 7520,
      "olice▁": 7521,
      "rank": 7522,
      "sl": 7523,
      "sn": 7524,
      "sor": 7525,
      "sent": 7526,
      "simp": 7527,
      "▁點": 7528,
      "▁真係": 7529,
      "▁not": 7530,
      "▁an▁a": 7531,
      "▁out.": 7532,
      "▁幫我": 7533,
      "▁原來": 7534,
      "㗎喎。": 7535,
      "一百": 7536,
      "下晝": 7537,
      "事。": 7538,
      "個星期": 7539,
      "呢啲嘢": 7540,
      "周身": 7541,
      "咁好": 7542,
      "咗你": 7543,
      "咗兩": 7544,
      "唔去": 7545,
      "嘅？": 7546,
      "嚟搵": 7547,
      "嚟，": 7548,
      "埋一": 7549,
      "塊面": 7550,
      "好過": 7551,
      "幾大": 7552,
      "張枱": 7553,
      "想去": 7554,
      "成績": 7555,
      "手提": 7556,
      "掂。": 7557,
      "旺角": 7558,
      "條繩": 7559,
      "牛肉": 7560,
      "生咗": 7561,
      "當然": 7562,
      "着數": 7563,
      "結咗": 7564,
      "經濟": 7565,
      "股市": 7566,
      "蘋果": 7567,
      "衫。": 7568,
      "裝修": 7569,
      "話唔": 7570,
      "話，你": 7571,
      "講乜": 7572,
      "豬肉": 7573,
      "跟住": 7574,
      "退休": 7575,
      "酒樓": 7576,
      "開會": 7577,
      "阿蛇": 7578,
      "食完": 7579,
      "骨。": 7580,
      "高興": 7581,
      "，俾": 7582,
      "，實": 7583,
      "？你": 7584,
      "𠻹！": 7585,
      "s▁at▁": 7586,
      "in▁s": 7587,
      "inal": 7588,
      "in▁his▁": 7589,
      "▁thos": 7590,
      "ings.": 7591,
      "▁sid": 7592,
      "▁she▁was▁": 7593,
      "ite.": 7594,
      "havi": 7595,
      "reck": 7596,
      "rect": 7597,
      "he▁doesn't▁": 7598,
      "you▁should▁": 7599,
      "▁to▁her": 7600,
      "▁I▁still": 7601,
      "▁way▁": 7602,
      "▁Two▁": 7603,
      ",▁okay?": 7604,
      "ed▁you": 7605,
      "ed▁as▁": 7606,
      "of▁m": 7607,
      "ing▁over": 7608,
      "forgotten": 7609,
      "lean": 7610,
      "▁Hurry▁up▁and▁": 7611,
      "▁came▁": 7612,
      "ed▁to▁the▁": 7613,
      "▁我都": 7614,
      "▁我而家": 7615,
      "▁我同佢": 7616,
      "▁high": 7617,
      "▁heal": 7618,
      "▁husband▁": 7619,
      "asion": 7620,
      "eter": 7621,
      "▁food▁": 7622,
      "▁flat": 7623,
      "it▁makes▁": 7624,
      "▁The▁th": 7625,
      "▁gl": 7626,
      "▁Wow": 7627,
      "unwilling▁to▁": 7628,
      "befor": 7629,
      "▁He▁likes▁to▁": 7630,
      "ident▁": 7631,
      "idenc": 7632,
      "urb": 7633,
      "heart": 7634,
      "he's": 7635,
      "acation": 7636,
      "up▁the▁": 7637,
      "▁Sp": 7638,
      "▁呢個人": 7639,
      "sho": 7640,
      "shouldn't▁": 7641,
      "shopp": 7642,
      "▁of▁his▁": 7643,
      "was▁so▁": 7644,
      "was▁quite▁": 7645,
      "with▁his▁": 7646,
      "▁step": 7647,
      "him?": 7648,
      "唔好咁": 7649,
      "has▁no▁": 7650,
      "▁Which": 7651,
      "▁This▁shirt▁": 7652,
      "utter": 7653,
      "▁Do": 7654,
      "our▁b": 7655,
      "sold▁": 7656,
      "eaten": 7657,
      "sport": 7658,
      "▁shark": 7659,
      "do▁it.": 7660,
      "▁the▁bank": 7661,
      "，你就": 7662,
      "▁In▁order▁to▁": 7663,
      "condition": 7664,
      "ctop": 7665,
      "ast.": 7666,
      "estate▁": 7667,
      "girls▁": 7668,
      "compet": 7669,
      "fine.": 7670,
      "▁Ori": 7671,
      "▁tru": 7672,
      "▁My▁son": 7673,
      "▁do?": 7674,
      "black": 7675,
      "ing▁some▁": 7676,
      "ing▁sex": 7677,
      "action": 7678,
      "▁Canton": 7679,
      "away.": 7680,
      "lost": 7681,
      "love▁": 7682,
      "itted▁": 7683,
      "join": 7684,
      "a▁long": 7685,
      "唔係好": 7686,
      "▁has▁become▁": 7687,
      "▁takes▁": 7688,
      "乜嘢啊？": 7689,
      "▁I've▁been": 7690,
      "friends▁": 7691,
      "side▁": 7692,
      "▁going▁": 7693,
      "goods.": 7694,
      "▁From": 7695,
      "e▁together": 7696,
      "guy": 7697,
      "disappear": 7698,
      "urely▁": 7699,
      "gotten▁": 7700,
      "ance▁to▁": 7701,
      "▁such▁a▁long▁tim": 7702,
      "all▁over": 7703,
      "▁You're▁so▁": 7704,
      "olk": 7705,
      "▁play▁": 7706,
      "whole▁day▁": 7707,
      "many▁people▁": 7708,
      "rice.": 7709,
      "▁looking▁for": 7710,
      "s▁without▁": 7711,
      "right.": 7712,
      "▁about▁it.": 7713,
      "▁其實我": 7714,
      "delic": 7715,
      "▁discover": 7716,
      "▁What's▁": 7717,
      "▁first": 7718,
      "collect": 7719,
      "colleagu": 7720,
      "high.": 7721,
      "▁this▁matter.": 7722,
      "▁a▁long▁time.": 7723,
      "broken": 7724,
      "的士司機": 7725,
      "clean": 7726,
      "▁呢條友": 7727,
      "▁They": 7728,
      "▁small": 7729,
      "develop": 7730,
      "chap": 7731,
      "believ": 7732,
      "paid▁": 7733,
      "▁Hey!": 7734,
      "land▁China": 7735,
      "neighbor": 7736,
      ",▁I▁": 7737,
      ",▁when": 7738,
      "-up": 7739,
      "00": 7740,
      "I▁didn't▁": 7741,
      "Jap": 7742,
      "Qu": 7743,
      "be▁t": 7744,
      "bas": 7745,
      "bott": 7746,
      "chas": 7747,
      "cigarett": 7748,
      "dad▁": 7749,
      "eck": 7750,
      "eam": 7751,
      "e,▁and": 7752,
      "fus": 7753,
      "fight▁": 7754,
      "fail": 7755,
      "fierc": 7756,
      "gear": 7757,
      "gard": 7758,
      "great": 7759,
      "key": 7760,
      "milk": 7761,
      "oin": 7762,
      "pack": 7763,
      "ram": 7764,
      "win": 7765,
      "zhou": 7766,
      "▁就": 7767,
      "▁打": 7768,
      "▁use▁": 7769,
      "你！": 7770,
      "佢都": 7771,
      "佢？": 7772,
      "佢啦。": 7773,
      "依家": 7774,
      "係冇": 7775,
      "先生": 7776,
      "入面": 7777,
      "冠軍": 7778,
      "冷氣": 7779,
      "到個": 7780,
      "周圍": 7781,
      "唔小心": 7782,
      "啩。": 7783,
      "喎，": 7784,
      "嗰間": 7785,
      "地產": 7786,
      "士。": 7787,
      "外國": 7788,
      "多數": 7789,
      "好有": 7790,
      "字。": 7791,
      "已經": 7792,
      "年紀": 7793,
      "情况": 7794,
      "打電話": 7795,
      "日本": 7796,
      "業主": 7797,
      "櫃桶": 7798,
      "正常": 7799,
      "牌。": 7800,
      "痛。": 7801,
      "睇戲": 7802,
      "紙。": 7803,
      "老母": 7804,
      "荷包": 7805,
      "街邊": 7806,
      "西裝": 7807,
      "講得": 7808,
      "識講": 7809,
      "負責": 7810,
      "買嘢": 7811,
      "身材": 7812,
      "車，": 7813,
      "長。": 7814,
      "霸王": 7815,
      "點會": 7816,
      "，亦": 7817,
      "，得": 7818,
      "，最": 7819,
      "，今日": 7820,
      "，然後": 7821,
      "in▁that▁": 7822,
      "erg": 7823,
      "▁thick": 7824,
      "▁thirt": 7825,
      "orn": 7826,
      "ory▁": 7827,
      "▁she's▁": 7828,
      "▁smok": 7829,
      "itud": 7830,
      "it's": 7831,
      "▁the▁th": 7832,
      "haw": 7833,
      "you▁b": 7834,
      "you▁must▁": 7835,
      "▁ab": 7836,
      "▁a▁t": 7837,
      "ate▁the▁": 7838,
      "ster": 7839,
      "stay▁": 7840,
      "stra": 7841,
      ",▁how": 7842,
      "ed▁in▁the▁": 7843,
      "of▁this▁": 7844,
      "ald": 7845,
      "ing▁in▁": 7846,
      "▁mother": 7847,
      "▁minut": 7848,
      "▁佢鍾意": 7849,
      "▁coll": 7850,
      "ed▁t": 7851,
      "edic": 7852,
      "usually▁": 7853,
      "▁我係": 7854,
      "ise▁": 7855,
      "▁hit▁": 7856,
      "▁hea": 7857,
      "etwe": 7858,
      "▁park": 7859,
      "▁four": 7860,
      "▁giv": 7861,
      "unar": 7862,
      "idence▁": 7863,
      "urp": 7864,
      "▁So▁": 7865,
      "▁Since▁": 7866,
      ",▁and▁he▁": 7867,
      "search": 7868,
      "doing": 7869,
      "door.": 7870,
      "▁of▁my▁": 7871,
      "▁start": 7872,
      "one?": 7873,
      "，我諗": 7874,
      "▁When▁he▁": 7875,
      "ply": 7876,
      "have▁enough": 7877,
      "▁Macau": 7878,
      "▁Mr.": 7879,
      "boil": 7880,
      "▁who": 7881,
      "others▁": 7882,
      "a▁job": 7883,
      "▁short": 7884,
      "▁It's": 7885,
      "▁I▁was": 7886,
      "▁I▁won't▁": 7887,
      "no▁one▁": 7888,
      "do▁it": 7889,
      "construction": 7890,
      "都唔會": 7891,
      "resign": 7892,
      "aster": 7893,
      "▁they▁were▁": 7894,
      "off.": 7895,
      "offer": 7896,
      "gets▁": 7897,
      "find": 7898,
      "▁trad": 7899,
      "▁Ev": 7900,
      "▁does▁": 7901,
      "，但我": 7902,
      "blow": 7903,
      "need▁to▁be▁": 7904,
      "香港人": 7905,
      "I▁won't▁": 7906,
      "grow": 7907,
      "▁rep": 7908,
      "▁the▁sid": 7909,
      "▁Don't▁be▁so▁": 7910,
      "people▁who▁": 7911,
      "，好唔好": 7912,
      "▁taking▁a": 7913,
      "▁money?": 7914,
      "▁啲細路仔": 7915,
      "唔到。": 7916,
      "▁有時": 7917,
      "everywhere▁": 7918,
      "izz": 7919,
      "screw": 7920,
      "anything": 7921,
      "ruit▁": 7922,
      "▁I▁don't▁want▁to▁": 7923,
      "was▁the▁": 7924,
      "smart▁": 7925,
      "well-": 7926,
      "see▁if": 7927,
      "like▁to▁eat▁": 7928,
      "by▁the▁": 7929,
      "elephone▁": 7930,
      "▁the▁time.": 7931,
      "room.": 7932,
      "before▁I": 7933,
      "accept": 7934,
      "hand.": 7935,
      "enough.": 7936,
      "a▁taxi": 7937,
      "▁All▁of": 7938,
      "得好犀利": 7939,
      "years▁old": 7940,
      "won't▁be▁": 7941,
      "▁traffic": 7942,
      "house.": 7943,
      "▁Every▁time▁": 7944,
      "Chinese▁character": 7945,
      "estern": 7946,
      "difficult▁": 7947,
      "restaurant": 7948,
      "entertain": 7949,
      "mpion": 7950,
      "expensiv": 7951,
      "▁manag": 7952,
      "▁terribly▁": 7953,
      "▁today?": 7954,
      "fast.": 7955,
      "▁我聽人哋": 7956,
      "▁give▁you": 7957,
      "believe▁": 7958,
      "sharp": 7959,
      "on▁the▁street▁": 7960,
      "▁horse▁": 7961,
      "▁earth": 7962,
      "▁He▁took": 7963,
      "pretty.": 7964,
      "loudly▁": 7965,
      "advantage▁of": 7966,
      "societ": 7967,
      "different▁": 7968,
      "hone▁call": 7969,
      "reveal": 7970,
      "▁Nobody▁": 7971,
      "▁Origin": 7972,
      "I▁think": 7973,
      "I▁must▁": 7974,
      "by.": 7975,
      "bought": 7976,
      "chat": 7977,
      "dick": 7978,
      "fift": 7979,
      "game▁": 7980,
      "hire▁": 7981,
      "husband": 7982,
      "i.": 7983,
      "jack": 7984,
      "jump": 7985,
      "kar": 7986,
      "kiss": 7987,
      "market▁": 7988,
      "ran": 7989,
      "rar": 7990,
      "rup": 7991,
      "rand": 7992,
      "sen": 7993,
      "sim": 7994,
      "squ": 7995,
      "vide": 7996,
      "wich": 7997,
      "yell": 7998,
      "zz": 7999,
      "▁同": 8000,
      "▁嘩": 8001,
      "▁畀": 8002,
      "▁公司": 8003,
      "▁醫生": 8004,
      "▁警察": 8005,
      "▁因住": 8006,
      "▁無論": 8007,
      "▁警方": 8008,
      "▁Qu": 8009,
      "住喺": 8010,
      "你就": 8011,
      "佢係": 8012,
      "佢做": 8013,
      "使唔使": 8014,
      "個頭": 8015,
      "個個都": 8016,
      "公園": 8017,
      "勤力": 8018,
      "十五": 8019,
      "危險": 8020,
      "即係": 8021,
      "去飲": 8022,
      "合格": 8023,
      "同佢哋": 8024,
      "味。": 8025,
      "咁上": 8026,
      "咁高": 8027,
      "唔出": 8028,
      "唔多": 8029,
      "唔落": 8030,
      "唔開": 8031,
      "唯有": 8032,
      "嗰個人": 8033,
      "嚟嘅。": 8034,
      "廣東": 8035,
      "想買": 8036,
      "應承": 8037,
      "懷疑": 8038,
      "揸住": 8039,
      "搵緊": 8040,
      "料。": 8041,
      "新聞": 8042,
      "有三": 8043,
      "條路": 8044,
      "樣嘢": 8045,
      "準備": 8046,
      "片。": 8047,
      "理。": 8048,
      "用。": 8049,
      "第一次": 8050,
      "細蚊": 8051,
      "花生": 8052,
      "行。": 8053,
      "街。": 8054,
      "記者": 8055,
      "試吓": 8056,
      "返學": 8057,
      "過咗": 8058,
      "錢？": 8059,
      "錯咗": 8060,
      "間公司": 8061,
      "陣間": 8062,
      "隻狗": 8063,
      "隻腳": 8064,
      "麻麻": 8065,
      "！你": 8066,
      "，講": 8067,
      "▁treat▁": 8068,
      "▁ticket": 8069,
      "s▁as▁": 8070,
      "ins": 8071,
      "includ": 8072,
      "er▁": 8073,
      "erect": 8074,
      "answ": 8075,
      "onc": 8076,
      "ongh": 8077,
      "on▁my▁": 8078,
      "or▁so▁": 8079,
      "▁sell": 8080,
      "▁servic": 8081,
      "▁the▁hell": 8082,
      "has▁the▁": 8083,
      "▁to▁Hong▁Kong": 8084,
      "omp": 8085,
      "station": 8086,
      "stomach": 8087,
      "▁won't▁": 8088,
      "ed▁for▁": 8089,
      "ed▁into": 8090,
      "of▁your": 8091,
      "of▁cours": 8092,
      "almost▁": 8093,
      "ing▁l": 8094,
      "ing▁back": 8095,
      "▁佢同": 8096,
      "▁佢啲": 8097,
      "▁佢經已": 8098,
      "forman": 8099,
      "'s▁s": 8100,
      "here▁to▁": 8101,
      "ed▁two▁": 8102,
      "rick": 8103,
      "us▁to▁": 8104,
      "uses▁": 8105,
      "▁我真係": 8106,
      "▁我鍾意": 8107,
      "elve▁": 8108,
      "▁home.": 8109,
      "iron": 8110,
      ",▁so▁now": 8111,
      ",▁so▁we▁": 8112,
      "▁paper": 8113,
      "▁fun": 8114,
      "▁gets▁": 8115,
      "▁你去": 8116,
      "are▁you▁": 8117,
      "▁He▁got▁": 8118,
      "his▁wife▁": 8119,
      "he'll": 8120,
      "ot▁of": 8121,
      "▁Sha": 8122,
      ",▁and▁it's▁": 8123,
      "andwich": 8124,
      "▁呢單": 8125,
      "▁呢件衫": 8126,
      "earli": 8127,
      "▁los": 8128,
      "white▁": 8129,
      "agre": 8130,
      "ago.": 8131,
      "▁inter": 8132,
      "exha": 8133,
      "has▁already▁": 8134,
      "my▁boyfriend▁": 8135,
      "emb": 8136,
      "▁with▁his▁": 8137,
      "boy▁is▁": 8138,
      "▁whole▁": 8139,
      ",▁but▁it's▁": 8140,
      "angry.": 8141,
      "soak": 8142,
      "will▁definitely▁": 8143,
      "can▁I": 8144,
      "spend▁": 8145,
      "umb": 8146,
      "e▁thousand▁": 8147,
      "▁the▁boss.": 8148,
      "，你仲": 8149,
      "▁your▁b": 8150,
      "class▁": 8151,
      "conc": 8152,
      "result": 8153,
      "，唔該": 8154,
      "offend": 8155,
      "most": 8156,
      "save▁": 8157,
      "▁I'm▁s": 8158,
      "old▁f": 8159,
      "▁BB": 8160,
      "awn": 8161,
      "away": 8162,
      "jok": 8163,
      ",▁he▁then": 8164,
      "a▁small": 8165,
      "▁talking▁about▁": 8166,
      "colate▁": 8167,
      "every▁time▁": 8168,
      "▁His▁father": 8169,
      "佢哋。": 8170,
      "▁all▁of": 8171,
      "when▁I▁was▁": 8172,
      "，有時": 8173,
      "al▁estate▁": 8174,
      "long.": 8175,
      "▁He▁is▁so▁": 8176,
      "en't▁you": 8177,
      "eleph": 8178,
      "▁company▁": 8179,
      "▁company": 8180,
      "expos": 8181,
      "asket": 8182,
      "▁these▁several": 8183,
      "whole▁body▁": 8184,
      "▁of▁us▁": 8185,
      "，冇人": 8186,
      "▁老豆": 8187,
      "▁guy": 8188,
      "give▁you": 8189,
      "rict▁": 8190,
      "▁Do▁you▁": 8191,
      "同我講": 8192,
      "▁the▁food▁": 8193,
      "▁it?": 8194,
      "first▁time▁": 8195,
      "▁the▁weather": 8196,
      "certainly▁": 8197,
      "difficult.": 8198,
      "respon": 8199,
      "▁advantag": 8200,
      ",▁so▁he▁really▁": 8201,
      "▁through▁the▁": 8202,
      "expensive.": 8203,
      "▁Do▁you▁think": 8204,
      "▁睇佢": 8205,
      "▁You▁are▁so▁": 8206,
      "duc": 8207,
      "cops▁": 8208,
      "in▁fact▁": 8209,
      "▁again.": 8210,
      "▁head": 8211,
      "▁Recently": 8212,
      "immig": 8213,
      "set▁up": 8214,
      "▁days▁ago▁": 8215,
      "building": 8216,
      "dressed▁up": 8217,
      "occasion": 8218,
      "unhappy.": 8219,
      "no▁matter▁how": 8220,
      "necessar": 8221,
      ",▁so▁that's▁why▁": 8222,
      "second▁": 8223,
      "▁believe▁": 8224,
      "▁certainly▁": 8225,
      "▁Any": 8226,
      "kinds▁of": 8227,
      "behind▁": 8228,
      "written▁": 8229,
      "naturally▁": 8230,
      "▁relationship": 8231,
      "familiar": 8232,
      "結咗婚": 8233,
      "onghu": 8234,
      "19": 8235,
      "I▁d": 8236,
      "TR": 8237,
      "aim": 8238,
      "ahjong": 8239,
      "best▁": 8240,
      "cour": 8241,
      "cool": 8242,
      "did": 8243,
      "dirt": 8244,
      "ez": 8245,
      "ee.": 8246,
      "fi": 8247,
      "floor": 8248,
      "gener": 8249,
      "jor": 8250,
      "jail": 8251,
      "kno": 8252,
      "lad": 8253,
      "less.": 8254,
      "mind": 8255,
      "maybe▁": 8256,
      "mistak": 8257,
      "pot": 8258,
      "pork": 8259,
      "part▁": 8260,
      "ring": 8261,
      "rof": 8262,
      "rag": 8263,
      "rate▁": 8264,
      "y,": 8265,
      "▁人": 8266,
      "▁先": 8267,
      "▁去": 8268,
      "▁梗係": 8269,
      "▁小心": 8270,
      "▁大佬": 8271,
      "仲好": 8272,
      "住條": 8273,
      "俾個": 8274,
      "做法": 8275,
      "兩日": 8276,
      "利是": 8277,
      "又係": 8278,
      "可唔可以": 8279,
      "呢張": 8280,
      "呢隻": 8281,
      "唔敢": 8282,
      "唔順": 8283,
      "唧？": 8284,
      "喺我": 8285,
      "嘅人。": 8286,
      "嘢！": 8287,
      "嚟越": 8288,
      "嚟呢度": 8289,
      "嚴重": 8290,
      "地鐵": 8291,
      "夠膽": 8292,
      "定。": 8293,
      "對我": 8294,
      "就冇": 8295,
      "就要": 8296,
      "幾鍾意": 8297,
      "度，": 8298,
      "得罪": 8299,
      "意見": 8300,
      "感覺": 8301,
      "我，": 8302,
      "所謂": 8303,
      "掛住": 8304,
      "有得": 8305,
      "條友": 8306,
      "比較": 8307,
      "活動": 8308,
      "球員": 8309,
      "番啲": 8310,
      "發覺": 8311,
      "知唔知": 8312,
      "究竟": 8313,
      "第一": 8314,
      "等我": 8315,
      "簡單": 8316,
      "精神": 8317,
      "耳窿": 8318,
      "聲噉": 8319,
      "茶。": 8320,
      "茶餐廳": 8321,
      "落好大": 8322,
      "蛋糕": 8323,
      "親。": 8324,
      "識得": 8325,
      "豆腐": 8326,
      "越嚟越": 8327,
      "都打": 8328,
      "電單車": 8329,
      "點幾": 8330,
      "點啊？": 8331,
      "！我": 8332,
      "e▁on": 8333,
      "▁tall": 8334,
      "▁top": 8335,
      "▁tough": 8336,
      "▁tip": 8337,
      "s▁from": 8338,
      "er▁has▁": 8339,
      "▁thro": 8340,
      "▁thought▁": 8341,
      "▁thirty▁": 8342,
      "ouse": 8343,
      "once▁": 8344,
      "ing▁to▁the▁": 8345,
      "▁says▁": 8346,
      "▁sick": 8347,
      "▁suddenly▁": 8348,
      "arant": 8349,
      "▁the▁money.": 8350,
      "is▁it▁": 8351,
      "he▁didn't▁": 8352,
      "▁to▁buy▁": 8353,
      "▁air": 8354,
      "▁away▁": 8355,
      "▁a▁girl": 8356,
      "▁I▁ask": 8357,
      "stuck": 8358,
      "▁wif": 8359,
      "▁went▁": 8360,
      "e▁trou": 8361,
      "▁Ter": 8362,
      ",▁don't▁": 8363,
      ",▁because▁": 8364,
      "ed▁some▁": 8365,
      "ed▁about▁": 8366,
      "ing▁on▁the▁": 8367,
      "ing▁down": 8368,
      "child": 8369,
      "▁佢坐": 8370,
      "▁佢打": 8371,
      "▁佢啱啱": 8372,
      "foreign": 8373,
      "▁Hongkong": 8374,
      "here?": 8375,
      "lir": 8376,
      "edly▁": 8377,
      "rist": 8378,
      "rimp": 8379,
      "rivate▁": 8380,
      "all▁d": 8381,
      "usel": 8382,
      "oose▁": 8383,
      "▁deal": 8384,
      "▁daughter": 8385,
      "is!": 8386,
      "is▁that▁": 8387,
      "else▁": 8388,
      "at▁all.": 8389,
      ",▁so▁you▁need▁to▁": 8390,
      "▁pay▁": 8391,
      "▁prom": 8392,
      "as▁a▁": 8393,
      "▁fre": 8394,
      "▁food": 8395,
      "▁felt▁": 8396,
      "it▁is▁": 8397,
      "▁The▁doctor": 8398,
      "▁The▁best▁th": 8399,
      "▁gover": 8400,
      "▁你噉": 8401,
      "uncomfortable.": 8402,
      "beach": 8403,
      "qui": 8404,
      "are▁not▁": 8405,
      "▁He▁didn't▁": 8406,
      "idea": 8407,
      "nowad": 8408,
      "▁today.": 8409,
      "▁to▁take▁the▁": 8410,
      "▁Young": 8411,
      "▁You'r": 8412,
      "sec": 8413,
      "antly▁": 8414,
      "▁that▁she▁": 8415,
      "▁呢種": 8416,
      "shout": 8417,
      "▁of▁your": 8418,
      "with▁the▁": 8419,
      "be▁more▁": 8420,
      "explain": 8421,
      "know▁what▁": 8422,
      "perform": 8423,
      "▁Who": 8424,
      "e▁the▁t": 8425,
      "board▁": 8426,
      "▁whether": 8427,
      "end.": 8428,
      "other▁people": 8429,
      "e▁than▁": 8430,
      "，你要": 8431,
      "ivit": 8432,
      "▁the▁teacher": 8433,
      "▁In▁this▁": 8434,
      "▁the▁price▁": 8435,
      "s▁of▁c": 8436,
      "▁he▁doesn't▁": 8437,
      "end▁of▁the▁": 8438,
      "▁個女仔": 8439,
      "looked▁": 8440,
      "girl.": 8441,
      "model": 8442,
      "▁them▁to▁": 8443,
      "▁My▁young": 8444,
      "有啲人": 8445,
      "had▁been": 8446,
      "letter": 8447,
      "istic": 8448,
      "ing▁sp": 8449,
      "ffold": 8450,
      "I▁would▁": 8451,
      "grab": 8452,
      "▁here!": 8453,
      "▁New▁Year": 8454,
      "▁the▁situation": 8455,
      "dropp": 8456,
      "a▁pl": 8457,
      "e▁of▁": 8458,
      "caffold": 8459,
      ",▁he▁was▁": 8460,
      "▁When▁will": 8461,
      "，好難": 8462,
      "乜嘢事": 8463,
      "▁How▁many▁": 8464,
      "ers▁have▁": 8465,
      "ers▁who▁": 8466,
      "▁佢哋兩個": 8467,
      "cost": 8468,
      "weak": 8469,
      "we're▁": 8470,
      "probably▁": 8471,
      "way▁to▁": 8472,
      "already": 8473,
      "smooth": 8474,
      "▁all▁the▁": 8475,
      "busy": 8476,
      "▁bod": 8477,
      "▁boil": 8478,
      "都冇。": 8479,
      "student▁": 8480,
      "see▁a▁movi": 8481,
      "咁多嘢": 8482,
      "▁He▁is▁very▁": 8483,
      "several▁": 8484,
      "a▁good": 8485,
      "▁computer": 8486,
      "▁Hong▁Kong.": 8487,
      "I▁know": 8488,
      "but▁to▁": 8489,
      "if▁you▁don't▁": 8490,
      "，點算": 8491,
      "▁twelve▁": 8492,
      "able▁and▁": 8493,
      ",▁you▁can": 8494,
      "imposs": 8495,
      "merely▁": 8496,
      "▁Last▁year": 8497,
      "▁when▁you": 8498,
      "▁childr": 8499,
      "big.": 8500,
      "every▁day▁": 8501,
      "deli": 8502,
      "▁Whatever": 8503,
      "▁I▁want▁to▁buy▁": 8504,
      "school.": 8505,
      "▁Where▁are▁you": 8506,
      "gives▁": 8507,
      "▁teeth": 8508,
      "something": 8509,
      "ission": 8510,
      "▁mov": 8511,
      "▁and▁then": 8512,
      "▁grad": 8513,
      "number▁": 8514,
      "-tim": 8515,
      "▁week": 8516,
      "▁tomorrow.": 8517,
      "leave.": 8518,
      "▁今朝我": 8519,
      "parents▁": 8520,
      "▁Is▁there▁": 8521,
      "ing▁mach": 8522,
      "▁triad▁societ": 8523,
      "crack": 8524,
      "方便。": 8525,
      "together": 8526,
      "children": 8527,
      "protect": 8528,
      "afraid▁of": 8529,
      "depend": 8530,
      "window": 8531,
      "▁Un": 8532,
      "see▁the▁doctor": 8533,
      "ification": 8534,
      "▁頭先我見到": 8535,
      "a▁friend▁": 8536,
      "eventually▁": 8537,
      "it▁turns▁out▁": 8538,
      "▁Let▁me▁": 8539,
      "young▁hooligan": 8540,
      "slipper": 8541,
      "language▁": 8542,
      "▁Ordinarily▁": 8543,
      "ctopus▁": 8544,
      "etween": 8545,
      "kara": 8546,
      "old▁folk": 8547,
      "knock": 8548,
      "落好大雨": 8549,
      "I▁got▁": 8550,
      "Lunar": 8551,
      "Macau": 8552,
      "New": 8553,
      "benef": 8554,
      "dest": 8555,
      "dirty▁": 8556,
      "e,▁so": 8557,
      "e,▁then": 8558,
      "fal": 8559,
      "fut": 8560,
      "female▁": 8561,
      "fifty▁": 8562,
      "gut": 8563,
      "gone▁to▁": 8564,
      "hus": 8565,
      "hik": 8566,
      "held▁": 8567,
      "ler": 8568,
      "lass": 8569,
      "mis": 8570,
      "mel": 8571,
      "mudd": 8572,
      "male▁": 8573,
      "ni": 8574,
      "nood": 8575,
      "power": 8576,
      "rent": 8577,
      "rust": 8578,
      "round": 8579,
      "uri": 8580,
      "uce▁": 8581,
      "vill": 8582,
      "wo": 8583,
      "war": 8584,
      "y▁the▁": 8585,
      "▁以": 8586,
      "▁張": 8587,
      "▁班": 8588,
      "▁用": 8589,
      "▁車": 8590,
      "▁陳": 8591,
      "▁唔係": 8592,
      "▁even": 8593,
      "▁唔知": 8594,
      "▁like▁that.": 8595,
      "▁not▁to▁": 8596,
      "一條": 8597,
      "不留": 8598,
      "不過": 8599,
      "五十": 8600,
      "佢咁": 8601,
      "佢！": 8602,
      "俾我": 8603,
      "個朋友": 8604,
      "做完": 8605,
      "先得": 8606,
      "先，": 8607,
      "入去": 8608,
      "八達": 8609,
      "到好": 8610,
      "到成": 8611,
      "同我哋": 8612,
      "呢件衫": 8613,
      "咗成": 8614,
      "唔畀": 8615,
      "唔肯": 8616,
      "啦啦": 8617,
      "噉！": 8618,
      "四個": 8619,
      "大廈": 8620,
      "好快": 8621,
      "將啲": 8622,
      "對佢": 8623,
      "小學": 8624,
      "就走": 8625,
      "幾個人": 8626,
      "影相": 8627,
      "得太": 8628,
      "心。": 8629,
      "我屋企": 8630,
      "放咗": 8631,
      "文件": 8632,
      "枝筆": 8633,
      "正。": 8634,
      "濕濕": 8635,
      "班人": 8636,
      "琴日": 8637,
      "畀人": 8638,
      "番。": 8639,
      "發生": 8640,
      "知我": 8641,
      "算係": 8642,
      "老人家": 8643,
      "肯定": 8644,
      "自然": 8645,
      "花。": 8646,
      "落去。": 8647,
      "街市": 8648,
      "要做": 8649,
      "要求": 8650,
      "請你": 8651,
      "轉頭": 8652,
      "返到": 8653,
      "除咗": 8654,
      "電。": 8655,
      "電影": 8656,
      "震。": 8657,
      "食到": 8658,
      "食嘢": 8659,
      "麵包": 8660,
      "，咁": 8661,
      "，邊": 8662,
      "，俾人": 8663,
      "，其實": 8664,
      "，原來": 8665,
      "e▁it▁": 8666,
      "e▁him": 8667,
      "▁tid": 8668,
      "▁typ": 8669,
      "in▁p": 8670,
      "infl": 8671,
      "erve▁": 8672,
      "er▁and▁": 8673,
      "▁thank": 8674,
      "oul": 8675,
      "ingly▁": 8676,
      "▁sc": 8677,
      "▁su": 8678,
      "▁saw": 8679,
      "▁sub": 8680,
      "its.": 8681,
      "item": 8682,
      "is▁still": 8683,
      "request": 8684,
      "he▁can": 8685,
      "▁to▁his▁": 8686,
      "▁to▁make▁": 8687,
      "▁to▁me.": 8688,
      "▁a▁con": 8689,
      "at▁this▁": 8690,
      "ated.": 8691,
      "stic": 8692,
      "▁word": 8693,
      "▁woman": 8694,
      "ed▁himself": 8695,
      "es▁that▁": 8696,
      "escap": 8697,
      "espec": 8698,
      "ing▁your": 8699,
      "ing▁me▁": 8700,
      "chem": 8701,
      "▁mark": 8702,
      "▁佢個": 8703,
      "▁佢用": 8704,
      "▁佢老豆": 8705,
      "fort▁": 8706,
      "▁bl": 8707,
      "▁brok": 8708,
      "▁birth": 8709,
      "▁Hurry▁": 8710,
      "▁cas": 8711,
      "▁cam": 8712,
      "▁could": 8713,
      "▁count": 8714,
      "all▁of": 8715,
      "▁dat": 8716,
      "▁dist": 8717,
      "▁我去": 8718,
      "is▁too▁": 8719,
      "isn't": 8720,
      "▁hope▁": 8721,
      "asp": 8722,
      "otel": 8723,
      "otter": 8724,
      "▁par": 8725,
      "▁fam": 8726,
      "▁five▁": 8727,
      "es▁have▁": 8728,
      "▁The▁Hong▁Kong": 8729,
      "▁The▁price▁": 8730,
      "akes▁": 8731,
      "▁你有": 8732,
      "▁你成日": 8733,
      "▁你應該": 8734,
      "le▁and▁": 8735,
      "unish": 8736,
      "ide.": 8737,
      "▁had▁to▁": 8738,
      "adv": 8739,
      "bump": 8740,
      "▁Ad": 8741,
      "urg": 8742,
      "urse▁": 8743,
      "▁You▁want▁to▁": 8744,
      "thor": 8745,
      "and.": 8746,
      "▁呢套": 8747,
      "en▁are▁": 8748,
      "road.": 8749,
      "likely▁": 8750,
      "like▁this": 8751,
      "▁lots▁of": 8752,
      "quite▁like▁to▁": 8753,
      "with▁him.": 8754,
      "▁in▁such": 8755,
      "▁stick": 8756,
      "▁start▁": 8757,
      "not▁be▁": 8758,
      "ext▁": 8759,
      "come.": 8760,
      "comes▁": 8761,
      "him▁to▁": 8762,
      "▁This▁is▁": 8763,
      "▁This▁person": 8764,
      "▁This▁kind▁of": 8765,
      "igest": 8766,
      "▁Maybe▁": 8767,
      "▁Did▁": 8768,
      "endure▁": 8769,
      "car.": 8770,
      "carry▁": 8771,
      "angry▁": 8772,
      "▁sho": 8773,
      "▁shar": 8774,
      "▁shirt▁": 8775,
      "fright": 8776,
      "everal▁": 8777,
      "no▁use▁": 8778,
      "don't▁you▁": 8779,
      "▁the▁tri": 8780,
      "an▁old▁": 8781,
      "ous!": 8782,
      "▁She▁was▁": 8783,
      "▁It's▁quite▁": 8784,
      "▁on▁earth": 8785,
      "▁things▁that▁": 8786,
      "▁Ok": 8787,
      "▁Look": 8788,
      "get▁marri": 8789,
      "he's▁really▁": 8790,
      "▁that?": 8791,
      "▁that▁they▁": 8792,
      "money?": 8793,
      "▁return": 8794,
      "ly!": 8795,
      "▁Next▁": 8796,
      "▁befor": 8797,
      "▁there▁were▁": 8798,
      "▁thinking▁about▁": 8799,
      "a▁problem": 8800,
      "cause▁": 8801,
      "viously▁": 8802,
      "body": 8803,
      "▁has▁been▁": 8804,
      "▁He's▁not▁": 8805,
      "▁their▁b": 8806,
      "pock": 8807,
      "ire.": 8808,
      "，真係唔": 8809,
      "guess": 8810,
      "discus": 8811,
      "okay.": 8812,
      "自己嘅": 8813,
      "in▁order": 8814,
      "worn": 8815,
      "▁Why▁don't▁you": 8816,
      "▁all▁the▁time.": 8817,
      "▁boys▁": 8818,
      "study": 8819,
      "remain": 8820,
      "uffer": 8821,
      "▁asleep.": 8822,
      "proper": 8823,
      "ency▁": 8824,
      "ence.": 8825,
      "long▁a": 8826,
      "easy▁": 8827,
      "ed▁by▁some": 8828,
      "elev": 8829,
      "butt": 8830,
      "living.": 8831,
      "ity▁of": 8832,
      "report": 8833,
      "played▁": 8834,
      "made▁me▁": 8835,
      "▁Last▁night": 8836,
      "an▁aut": 8837,
      "cross": 8838,
      "crash": 8839,
      "▁spend": 8840,
      "都幾鍾意": 8841,
      "▁條友": 8842,
      "every▁day.": 8843,
      "hotel": 8844,
      "▁the▁polic": 8845,
      "▁class": 8846,
      "speaks▁": 8847,
      "▁soon": 8848,
      "▁阿仔": 8849,
      "lots▁of▁people▁": 8850,
      "needs▁to▁": 8851,
      "partic": 8852,
      "erior": 8853,
      "▁addict": 8854,
      "invest": 8855,
      "lucky▁": 8856,
      "日日都": 8857,
      "ed▁by▁the▁": 8858,
      "▁我想買": 8859,
      "▁Who▁would▁": 8860,
      "問題。": 8861,
      "control": 8862,
      "工作。": 8863,
      "store▁": 8864,
      "vehic": 8865,
      "dishes▁": 8866,
      "ituation.": 8867,
      "▁We've▁": 8868,
      "energ": 8869,
      "experience▁": 8870,
      "face.": 8871,
      "▁playing▁": 8872,
      "▁head▁": 8873,
      "passed▁": 8874,
      "好唔舒服": 8875,
      "be▁careful▁of": 8876,
      "important▁": 8877,
      "singly▁": 8878,
      "hurri": 8879,
      "solv": 8880,
      "econd": 8881,
      "provid": 8882,
      "surprise▁": 8883,
      "university▁": 8884,
      "▁Today▁the▁": 8885,
      "mouth.": 8886,
      "▁business": 8887,
      "▁business▁": 8888,
      "▁Is▁it▁": 8889,
      "pregnant▁": 8890,
      "injured▁": 8891,
      "▁afraid▁of": 8892,
      "▁The▁two▁of▁them": 8893,
      "▁I▁would▁like▁to▁": 8894,
      "enjoy▁": 8895,
      "orcycle▁": 8896,
      "rench": 8897,
      "Cantonese▁": 8898,
      "I▁saw": 8899,
      "company's▁": 8900,
      "later▁on": 8901,
      "▁a▁very▁long": 8902,
      "afternoon": 8903,
      "bbish": 8904,
      "▁Even▁though": 8905,
      "scratch": 8906,
      "undred▁thousand▁dollar": 8907,
      "avoid▁": 8908,
      "havior": 8909,
      "▁health.": 8910,
      "▁Wow!": 8911,
      "Japan": 8912,
      "▁Originally": 8913,
      "video▁": 8914,
      "exhaust": 8915,
      "▁Territor": 8916,
      "New▁Territor": 8917,
      "八達通": 8918,
      "frighten": 8919,
      ",▁w": 8920,
      "-in": 8921,
      "EL": 8922,
      "S.": 8923,
      "Sh": 8924,
      "Sun": 8925,
      "a▁half": 8926,
      "bother": 8927,
      "camp": 8928,
      "dur": 8929,
      "een▁": 8930,
      "e,▁I": 8931,
      "fle": 8932,
      "gun": 8933,
      "goss": 8934,
      "graph": 8935,
      "har": 8936,
      "io": 8937,
      "ior": 8938,
      "jud": 8939,
      "les.": 8940,
      "m.": 8941,
      "middle▁": 8942,
      "nal": 8943,
      "ness▁": 8944,
      "oan": 8945,
      "position": 8946,
      "punish": 8947,
      "rink": 8948,
      "song": 8949,
      "situation": 8950,
      "slep": 8951,
      "ted▁": 8952,
      "ther": 8953,
      "wip": 8954,
      "y▁thousand▁dollar": 8955,
      "▁早": 8956,
      "▁死": 8957,
      "▁its▁": 8958,
      "▁out▁of": 8959,
      "▁around": 8960,
      "▁天氣": 8961,
      "三日": 8962,
      "亂咁": 8963,
      "仆街": 8964,
      "伙記": 8965,
      "住啲": 8966,
      "你個": 8967,
      "佢個": 8968,
      "佢同": 8969,
      "係用": 8970,
      "係香港": 8971,
      "係因為": 8972,
      "借錢": 8973,
      "做嘢。": 8974,
      "健康": 8975,
      "傾偈": 8976,
      "入咗": 8977,
      "公仔": 8978,
      "冇幾耐": 8979,
      "出年": 8980,
      "到一": 8981,
      "十八": 8982,
      "同啲": 8983,
      "吓啲": 8984,
      "呢區": 8985,
      "咗好耐": 8986,
      "咗咁耐": 8987,
      "咩！": 8988,
      "咪得": 8989,
      "唔要": 8990,
      "唔起": 8991,
      "唔過": 8992,
      "唱歌": 8993,
      "啦？": 8994,
      "啲，": 8995,
      "啲啦！": 8996,
      "啲女仔": 8997,
      "嗌交": 8998,
      "嘅話，": 8999,
      "嘅地方": 9000,
      "嚟做": 9001,
      "嚟香港": 9002,
      "囉，": 9003,
      "地。": 9004,
      "地下": 9005,
      "地盤": 9006,
      "埲牆": 9007,
      "多。": 9008,
      "大鑊": 9009,
      "安全": 9010,
      "家人": 9011,
      "小姐": 9012,
      "就好": 9013,
      "尾。": 9014,
      "巴閉": 9015,
      "幾次": 9016,
      "成功": 9017,
      "打交": 9018,
      "投資": 9019,
      "接受": 9020,
      "搵佢": 9021,
      "搵食": 9022,
      "支持": 9023,
      "早就": 9024,
      "會去": 9025,
      "會喺": 9026,
      "會有": 9027,
      "有五": 9028,
      "有時": 9029,
      "有幾多": 9030,
      "條菜": 9031,
      "梳化": 9032,
      "機場": 9033,
      "水喉": 9034,
      "污糟": 9035,
      "泊車": 9036,
      "減肥": 9037,
      "特別": 9038,
      "玻璃": 9039,
      "生活": 9040,
      "病咗": 9041,
      "皮膚": 9042,
      "睇電視": 9043,
      "知。": 9044,
      "竟然": 9045,
      "第日": 9046,
      "緊張": 9047,
      "落咗": 9048,
      "行為": 9049,
      "裇衫": 9050,
      "話你": 9051,
      "諗住": 9052,
      "講。": 9053,
      "講我": 9054,
      "貨。": 9055,
      "貨櫃": 9056,
      "跌落": 9057,
      "錢買": 9058,
      "鐘頭": 9059,
      "阿爸": 9060,
      "面前": 9061,
      "黑幫": 9062,
      "點樣": 9063,
      "，只": 9064,
      "s▁p": 9065,
      "s▁quite▁": 9066,
      "s▁like▁that": 9067,
      "in▁l": 9068,
      "erection": 9069,
      "▁thin": 9070,
      "y▁has▁": 9071,
      "on▁the▁b": 9072,
      "onstr": 9073,
      "ore▁": 9074,
      "orig": 9075,
      "▁sha": 9076,
      "▁sleep": 9077,
      "▁serv": 9078,
      "▁supp": 9079,
      "are▁t": 9080,
      "ary.": 9081,
      "around.": 9082,
      "▁the▁matter": 9083,
      "▁the▁door": 9084,
      "real▁estate▁": 9085,
      "you!": 9086,
      "▁to▁me▁": 9087,
      "▁to▁eat.": 9088,
      "▁to▁look▁for": 9089,
      "▁ag": 9090,
      "stole▁": 9091,
      "stol": 9092,
      "▁wash": 9093,
      "and▁p": 9094,
      "e▁take▁": 9095,
      "▁Tak": 9096,
      ",▁my▁": 9097,
      ",▁yet▁": 9098,
      "ed▁your": 9099,
      "oward": 9100,
      "owlo": 9101,
      "ess▁of": 9102,
      "al▁p": 9103,
      "always": 9104,
      "ing▁nois": 9105,
      "▁male▁": 9106,
      "▁matter": 9107,
      "▁佢呢": 9108,
      "▁佢對": 9109,
      "▁佢買咗": 9110,
      "for▁a▁m": 9111,
      "les▁are▁": 9112,
      "▁He▁talk": 9113,
      "▁cha": 9114,
      "▁cur": 9115,
      "▁clear": 9116,
      "lig": 9117,
      "vert": 9118,
      "risk": 9119,
      "useless": 9120,
      "▁des": 9121,
      "▁我會": 9122,
      "iss.": 9123,
      "is▁there▁": 9124,
      "islat": 9125,
      "▁hur": 9126,
      "ird▁": 9127,
      "▁you!": 9128,
      "▁you'll": 9129,
      "ether▁": 9130,
      "▁find▁": 9131,
      "▁film": 9132,
      "opular": 9133,
      "es▁with": 9134,
      "▁The▁shirt▁": 9135,
      "▁The▁boy▁": 9136,
      "▁你咪": 9137,
      "▁你講": 9138,
      "▁你唔使": 9139,
      "▁你幾時": 9140,
      "le▁of": 9141,
      "unable▁to▁": 9142,
      "begin": 9143,
      "▁He▁work": 9144,
      "▁He▁said": 9145,
      "osquit": 9146,
      "his▁father": 9147,
      "ure▁is▁": 9148,
      "among": 9149,
      "ic.": 9150,
      "icycle▁": 9151,
      "ents.": 9152,
      "enthus": 9153,
      "▁to▁turn": 9154,
      "▁You▁b": 9155,
      "▁You▁look": 9156,
      "e▁to▁be▁": 9157,
      ",▁and▁after": 9158,
      "and▁the▁": 9159,
      "▁that▁he▁was▁": 9160,
      "▁呢幾日": 9161,
      "early▁": 9162,
      "whil": 9163,
      "should": 9164,
      "shut▁": 9165,
      "ago": 9166,
      "▁this▁book": 9167,
      "ility.": 9168,
      "▁and▁for": 9169,
      "▁and▁don't▁": 9170,
      "▁is▁always▁": 9171,
      "expl": 9172,
      "have▁you": 9173,
      "▁Mongkok": 9174,
      "▁Dad▁": 9175,
      "ing▁a▁b": 9176,
      "ing▁after": 9177,
      "go▁to": 9178,
      "goes▁to▁": 9179,
      "▁when▁he▁": 9180,
      ",▁but▁now": 9181,
      "so▁that▁": 9182,
      "other▁people▁": 9183,
      "can▁you": 9184,
      "umbl": 9185,
      "▁I▁went▁": 9186,
      "effort▁": 9187,
      "▁the▁bl": 9188,
      "▁the▁bill": 9189,
      "▁the▁bott": 9190,
      "club": 9191,
      "都唔使": 9192,
      "s▁of▁your": 9193,
      "▁She▁said▁": 9194,
      "▁She▁wants▁to▁": 9195,
      "resident": 9196,
      "▁個細路仔": 9197,
      "▁him?": 9198,
      "sav": 9199,
      "go▁on": 9200,
      "older▁brother": 9201,
      "istake▁": 9202,
      "▁I'm▁now": 9203,
      "suit▁": 9204,
      "ing▁so": 9205,
      "money,▁so▁": 9206,
      "s▁are▁all▁": 9207,
      "ard-": 9208,
      ",▁as▁he's▁": 9209,
      "come▁and▁": 9210,
      "come▁over": 9211,
      "days.": 9212,
      "gram": 9213,
      "▁resp": 9214,
      "still▁not▁": 9215,
      "still▁hasn't▁": 9216,
      "朋友。": 9217,
      "like▁to": 9218,
      "awfully▁": 9219,
      "log": 9220,
      "▁take▁a▁look": 9221,
      "newly▁": 9222,
      "selves▁": 9223,
      "jogg": 9224,
      "caf": 9225,
      "doesn't▁know": 9226,
      "▁He's▁always▁": 9227,
      "▁taken▁": 9228,
      "▁I've▁already▁": 9229,
      "▁I've▁been▁": 9230,
      "pole▁": 9231,
      "even▁though": 9232,
      "，所以佢": 9233,
      "▁a▁year": 9234,
      "a▁flat": 9235,
      "cogn": 9236,
      "fire▁": 9237,
      "weight": 9238,
      "a▁cop": 9239,
      "▁already▁": 9240,
      "manner": 9241,
      "air▁condition": 9242,
      "phys": 9243,
      "word": 9244,
      "worry▁": 9245,
      "▁If▁you're▁": 9246,
      "▁If▁you▁have▁": 9247,
      "license▁": 9248,
      "or▁qual": 9249,
      "同佢講": 9250,
      "咁多人": 9251,
      "▁喺呢間": 9252,
      "▁They▁have▁": 9253,
      "，有乜": 9254,
      "pron": 9255,
      "▁plan": 9256,
      "▁place▁": 9257,
      "brand▁": 9258,
      "easy▁to▁": 9259,
      "▁complet": 9260,
      "▁at▁all": 9261,
      "what▁he▁": 9262,
      "▁唔好咁": 9263,
      "wearing▁a": 9264,
      "，點解": 9265,
      "must▁be▁": 9266,
      "find▁someone▁to▁": 9267,
      "reporter": 9268,
      "say▁anyth": 9269,
      "apart": 9270,
      "before▁you": 9271,
      "▁Your▁": 9272,
      "▁唔怪得": 9273,
      "▁when▁I▁was▁": 9274,
      "都幾好": 9275,
      "every▁day": 9276,
      "regard": 9277,
      "hot.": 9278,
      "should▁I": 9279,
      "▁Only▁": 9280,
      "幾個月": 9281,
      "▁isn't▁": 9282,
      "able?": 9283,
      "do▁you▁think": 9284,
      "street▁": 9285,
      "street.": 9286,
      "Chinese▁New▁Year": 9287,
      ",▁so▁you'd▁better": 9288,
      "▁呢間舖頭": 9289,
      "▁As▁soon▁as▁I": 9290,
      "fresh": 9291,
      "visit": 9292,
      "something▁": 9293,
      "involv": 9294,
      "luckily▁": 9295,
      "race.": 9296,
      "▁At▁this▁": 9297,
      "qualif": 9298,
      "BB仔": 9299,
      "operation": 9300,
      "sexual": 9301,
      "your▁own": 9302,
      "▁kn": 9303,
      "fallen": 9304,
      "細佬哥": 9305,
      "▁told▁me▁to▁": 9306,
      "▁strong": 9307,
      "▁睇你": 9308,
      "salt": 9309,
      "officer": 9310,
      "district": 9311,
      "leftover": 9312,
      "eez": 9313,
      "painful": 9314,
      "stock▁market▁": 9315,
      "outside▁": 9316,
      "becoming▁": 9317,
      "▁How▁can▁you": 9318,
      "hurt▁": 9319,
      "some▁thing": 9320,
      "唔見咗": 9321,
      "▁proper": 9322,
      "▁by▁the▁": 9323,
      "etho": 9324,
      "▁friends.": 9325,
      "arrass": 9326,
      "manager": 9327,
      "responsible▁": 9328,
      "necessarily▁": 9329,
      "support▁": 9330,
      "stupid▁": 9331,
      "▁doing▁things▁": 9332,
      "落地。": 9333,
      "▁When▁he▁was▁": 9334,
      "renov": 9335,
      "second": 9336,
      "▁believ": 9337,
      "▁control": 9338,
      "leader": 9339,
      "debt": 9340,
      "employe": 9341,
      "knif": 9342,
      "affair": 9343,
      "▁appearance▁": 9344,
      "寫字樓": 9345,
      "exactly▁": 9346,
      "reckless": 9347,
      "▁Speak": 9348,
      "▁Even▁": 9349,
      "，好唔好？": 9350,
      "細蚊仔": 9351,
      "embarrass": 9352,
      "asketball": 9353,
      "Lunar▁New▁Year": 9354,
      "gossip": 9355,
      "enthusi": 9356,
      "-for": 9357,
      ".▁He▁": 9358,
      "MTR": 9359,
      "OK": 9360,
      "aid▁": 9361,
      "be▁too▁": 9362,
      "cost▁": 9363,
      "clim": 9364,
      "dress▁": 9365,
      "ei": 9366,
      "eous▁": 9367,
      "foot": 9368,
      "finger": 9369,
      "furt": 9370,
      "flir": 9371,
      "gav": 9372,
      "ho": 9373,
      "hung": 9374,
      "iev": 9375,
      "ible": 9376,
      "ju": 9377,
      "ject▁": 9378,
      "lan": 9379,
      "line▁": 9380,
      "lunch": 9381,
      "mon": 9382,
      "mom": 9383,
      "may": 9384,
      "nut": 9385,
      "nine▁": 9386,
      "rot": 9387,
      "s▁t": 9388,
      "s▁till": 9389,
      "s▁to▁take▁": 9390,
      "uang": 9391,
      "vom": 9392,
      "ware▁": 9393,
      "where.": 9394,
      "yph": 9395,
      "▁前": 9396,
      "▁喂": 9397,
      "▁當": 9398,
      "▁細": 9399,
      "▁eat": 9400,
      "▁like▁that": 9401,
      "▁room": 9402,
      "▁男友": 9403,
      "一路": 9404,
      "一邊": 9405,
      "一間": 9406,
      "三文": 9407,
      "九龍": 9408,
      "交通": 9409,
      "估唔到": 9410,
      "你仲": 9411,
      "你去": 9412,
      "佢喺": 9413,
      "侍應": 9414,
      "係邊個": 9415,
      "保護": 9416,
      "傢俬": 9417,
      "傾吓": 9418,
      "冇咁": 9419,
      "出聲": 9420,
      "到死": 9421,
      "力。": 9422,
      "博士": 9423,
      "又唔": 9424,
      "叫做": 9425,
      "呀！": 9426,
      "呢行": 9427,
      "命。": 9428,
      "哋。": 9429,
      "啲乜嘢": 9430,
      "喐手": 9431,
      "喺個": 9432,
      "喺嗰度": 9433,
      "嘅一": 9434,
      "嘅，你": 9435,
      "嘞！": 9436,
      "嘢做": 9437,
      "嚇到": 9438,
      "嚟咗": 9439,
      "場波": 9440,
      "大陸": 9441,
      "好叻": 9442,
      "好平": 9443,
      "好睇": 9444,
      "妹妹": 9445,
      "小巴": 9446,
      "就去": 9447,
      "就唔": 9448,
      "居民": 9449,
      "屋。": 9450,
      "工程": 9451,
      "幫襯": 9452,
      "得啊？": 9453,
      "我做": 9454,
      "我諗": 9455,
      "房。": 9456,
      "手指": 9457,
      "打到": 9458,
      "打工": 9459,
      "打過": 9460,
      "搭的士": 9461,
      "放工": 9462,
      "新界": 9463,
      "最多": 9464,
      "比賽": 9465,
      "求其": 9466,
      "油。": 9467,
      "火車": 9468,
      "熱天": 9469,
      "理由": 9470,
      "相信": 9471,
      "眼鏡": 9472,
      "禮物": 9473,
      "私家": 9474,
      "粉。": 9475,
      "經常": 9476,
      "老虎": 9477,
      "老鼠": 9478,
      "自動": 9479,
      "興趣": 9480,
      "螺絲": 9481,
      "血。": 9482,
      "行埋": 9483,
      "衰人": 9484,
      "袋。": 9485,
      "證據": 9486,
      "議員": 9487,
      "費。": 9488,
      "賺錢": 9489,
      "起咗": 9490,
      "起上嚟": 9491,
      "酒吧": 9492,
      "錯。": 9493,
      "阻住": 9494,
      "隻馬": 9495,
      "雞蛋": 9496,
      "雪糕": 9497,
      "靚女": 9498,
      "頂唔順": 9499,
      "食咗": 9500,
      "飲。": 9501,
      "點做": 9502,
      "，每": 9503,
      "，用": 9504,
      "，真": 9505,
      "，可以": 9506,
      "，經已": 9507,
      "，覺得": 9508,
      "s▁or": 9509,
      "s▁like▁": 9510,
      "in▁re": 9511,
      "int▁of": 9512,
      "information": 9513,
      "▁thing.": 9514,
      "d▁and▁": 9515,
      "env": 9516,
      "ench": 9517,
      "▁sign": 9518,
      "▁surely▁": 9519,
      "▁the▁d": 9520,
      "is▁also▁": 9521,
      "reach": 9522,
      "▁to▁do": 9523,
      "▁to▁br": 9524,
      "▁to▁find▁": 9525,
      "▁aut": 9526,
      "▁I▁must▁": 9527,
      "▁I▁have▁to▁": 9528,
      "▁I▁couldn't▁": 9529,
      "staur": 9530,
      "▁Tell": 9531,
      "▁Tai": 9532,
      "ed▁out▁of": 9533,
      "ed▁her▁": 9534,
      "oward▁": 9535,
      "ali": 9536,
      "ing▁has▁": 9537,
      "ing▁for▁": 9538,
      "ing▁nons": 9539,
      "chew": 9540,
      "chance▁": 9541,
      "charge▁": 9542,
      "▁might▁": 9543,
      "▁佢做": 9544,
      "▁佢會": 9545,
      "▁佢而家": 9546,
      "▁佢個仔": 9547,
      "▁佢講嘢": 9548,
      "▁佢份人": 9549,
      "for▁a": 9550,
      "for▁his▁": 9551,
      "for▁her": 9552,
      "former": 9553,
      "▁both": 9554,
      "▁boss▁": 9555,
      "▁bank": 9556,
      "lead▁": 9557,
      "les▁of": 9558,
      "led.": 9559,
      "▁Hav": 9560,
      "▁cir": 9561,
      "▁coff": 9562,
      "▁credit▁": 9563,
      "here,▁so▁": 9564,
      "imsum": 9565,
      "▁di": 9566,
      "▁dec": 9567,
      "▁我好鍾意": 9568,
      "▁我唔想": 9569,
      "ely.": 9570,
      "elper": 9571,
      "ghost": 9572,
      "▁husband": 9573,
      "ird": 9574,
      "irrit": 9575,
      "▁pay": 9576,
      "▁pair▁of": 9577,
      "as▁well": 9578,
      "▁fac": 9579,
      "▁fig": 9580,
      "it▁and▁": 9581,
      "▁The▁water": 9582,
      "▁The▁automobile▁": 9583,
      "▁你個": 9584,
      "▁你喺": 9585,
      "▁你睇": 9586,
      "unci": 9587,
      "unreason": 9588,
      "beef": 9589,
      "beaut": 9590,
      "are▁quite▁": 9591,
      "▁He▁and▁": 9592,
      "▁He▁just▁": 9593,
      "▁He▁is▁the▁": 9594,
      "add▁": 9595,
      "▁A▁": 9596,
      "up?": 9597,
      "up▁of": 9598,
      "up▁in": 9599,
      "up▁and": 9600,
      "▁to▁the▁p": 9601,
      "e▁to▁eat▁": 9602,
      "neither": 9603,
      ",▁and▁it▁was▁": 9604,
      "separ": 9605,
      "▁呢部": 9606,
      "out▁of▁": 9607,
      "docum": 9608,
      "ear.": 9609,
      "rov": 9610,
      "liked▁to▁": 9611,
      "▁late▁": 9612,
      "▁lost▁": 9613,
      "ooker": 9614,
      "why": 9615,
      "ift▁": 9616,
      "ag.": 9617,
      "▁of▁m": 9618,
      "quite▁a▁lot▁of": 9619,
      "with▁her": 9620,
      "ilt": 9621,
      "raz": 9622,
      "rack": 9623,
      "ravel": 9624,
      "▁in▁his▁": 9625,
      "▁as▁soon▁as▁": 9626,
      "ount▁": 9627,
      "persu": 9628,
      "percent▁": 9629,
      "，我點": 9630,
      "真係冇": 9631,
      "▁This▁even": 9632,
      "igher": 9633,
      "plant": 9634,
      "▁Most▁": 9635,
      "it's▁really▁": 9636,
      "ing▁ab": 9637,
      "goes": 9638,
      "boast": 9639,
      "▁when▁": 9640,
      "▁for▁the▁": 9641,
      "ent▁and▁": 9642,
      "▁times": 9643,
      "carri": 9644,
      "carry": 9645,
      "so.": 9646,
      "a▁v": 9647,
      "spent▁": 9648,
      "e▁think": 9649,
      "▁my▁son": 9650,
      "no▁cho": 9651,
      "，佢話": 9652,
      "an▁un": 9653,
      "▁the▁people▁": 9654,
      "▁the▁park": 9655,
      "intend": 9656,
      "s▁of▁": 9657,
      "▁It's▁very▁": 9658,
      "▁It's▁no▁wonder": 9659,
      "，唔想": 9660,
      "astic": 9661,
      "▁he▁has▁": 9662,
      "▁個細路": 9663,
      "ive▁and▁": 9664,
      "▁I▁just▁": 9665,
      "look▁at▁": 9666,
      "▁things▁to▁": 9667,
      "▁things▁in": 9668,
      "▁things!": 9669,
      "▁them?": 9670,
      "compar": 9671,
      "▁Other": 9672,
      "▁trous": 9673,
      "urnit": 9674,
      "▁As▁soon▁as▁the▁": 9675,
      "get▁off": 9676,
      "▁I'm▁really▁": 9677,
      "▁Then": 9678,
      "▁These▁two▁": 9679,
      "▁that!": 9680,
      "▁that▁time▁": 9681,
      "matter▁with": 9682,
      "s▁are▁really▁": 9683,
      ",▁as▁he▁is▁": 9684,
      "I▁was": 9685,
      "ground": 9686,
      "ly?": 9687,
      "ly,▁so▁": 9688,
      "▁By▁": 9689,
      "▁Both": 9690,
      "▁Cook": 9691,
      "▁Central": 9692,
      "▁beer": 9693,
      "▁beat▁": 9694,
      "a▁bar": 9695,
      "selv": 9696,
      "young.": 9697,
      "we▁need▁to▁": 9698,
      "ound▁of": 9699,
      "▁money▁to▁": 9700,
      "▁I've▁got▁": 9701,
      "friend.": 9702,
      "back▁the▁": 9703,
      "▁so▁many▁": 9704,
      "▁talk▁about▁": 9705,
      ",▁and▁they▁": 9706,
      ",▁and▁then▁": 9707,
      "point▁": 9708,
      "have▁th": 9709,
      "e,▁so▁he▁": 9710,
      "goods▁": 9711,
      "good-look": 9712,
      "▁有冇": 9713,
      "a▁fl": 9714,
      "soon▁as": 9715,
      "weight▁": 9716,
      "we'll": 9717,
      "eyes": 9718,
      "▁His▁wife▁": 9719,
      "somebody▁": 9720,
      "somewhat▁": 9721,
      "more▁and▁": 9722,
      "saying.": 9723,
      "wants▁": 9724,
      ",▁I▁have▁": 9725,
      "busy▁": 9726,
      "or▁not▁": 9727,
      "apply▁": 9728,
      "appoint": 9729,
      "I'm▁": 9730,
      "only▁one▁": 9731,
      "all▁right▁": 9732,
      "attend": 9733,
      "long-": 9734,
      "▁You're▁really▁": 9735,
      "▁trip": 9736,
      "wearing▁": 9737,
      "expect": 9738,
      "lives▁": 9739,
      "must▁have▁": 9740,
      "▁a▁bit.": 9741,
      "▁Give▁": 9742,
      "▁Grand": 9743,
      "extra": 9744,
      "▁feeling▁": 9745,
      "▁The▁baby▁": 9746,
      "▁go▁out▁": 9747,
      "because▁the▁": 9748,
      "▁老婆": 9749,
      "▁guy▁": 9750,
      "▁consider": 9751,
      "against": 9752,
      "enough▁to▁": 9753,
      "▁at▁this▁": 9754,
      "going▁to▁be▁": 9755,
      "right!": 9756,
      "▁All▁the▁": 9757,
      "er▁sist": 9758,
      "ice▁cream": 9759,
      "shirt.": 9760,
      "switch": 9761,
      "swimm": 9762,
      "engag": 9763,
      "do▁you▁want▁to▁": 9764,
      "▁trap": 9765,
      "食飯。": 9766,
      "dilig": 9767,
      "lightly▁": 9768,
      "lost▁his▁": 9769,
      "noisily▁": 9770,
      "collap": 9771,
      "▁you▁ar": 9772,
      "needed▁to▁": 9773,
      "does▁not▁": 9774,
      "respect": 9775,
      "gamble▁": 9776,
      "what's": 9777,
      "cheese▁": 9778,
      "▁I▁don't▁know▁if": 9779,
      "▁I▁don't▁know▁what": 9780,
      "▁I▁don't▁know▁why▁": 9781,
      "pay▁the▁": 9782,
      "husband▁and▁": 9783,
      "▁younger▁brother": 9784,
      "girlfriend's▁": 9785,
      "contin": 9786,
      "▁group": 9787,
      "correct": 9788,
      "pitiful": 9789,
      "唔記得帶": 9790,
      "▁we'll": 9791,
      "legs▁": 9792,
      "calm": 9793,
      "▁police▁": 9794,
      "until": 9795,
      "▁told▁me▁": 9796,
      "▁strength": 9797,
      "讀書。": 9798,
      ",▁\"Y": 9799,
      "duct": 9800,
      "odd▁": 9801,
      "▁term": 9802,
      "case▁": 9803,
      "convenient▁": 9804,
      "fell▁down": 9805,
      "naughty.": 9806,
      "▁prof": 9807,
      "▁Shenzh": 9808,
      "surpris": 9809,
      "eague▁": 9810,
      "▁I▁heard": 9811,
      "ordinary▁": 9812,
      "▁dollars.": 9813,
      "arrang": 9814,
      "▁Why▁are▁you▁so▁": 9815,
      "feet▁": 9816,
      "children▁": 9817,
      "igarette▁": 9818,
      "came▁to▁": 9819,
      "normal": 9820,
      "▁love▁": 9821,
      "demo": 9822,
      "smoke▁": 9823,
      "support": 9824,
      "time▁": 9825,
      "▁a▁long▁time,▁so▁": 9826,
      "effect": 9827,
      "satisfi": 9828,
      "▁the▁boss'": 9829,
      "horse▁rac": 9830,
      "promis": 9831,
      "promot": 9832,
      "waste▁": 9833,
      "▁crash": 9834,
      "▁getting▁": 9835,
      "▁舊年": 9836,
      "▁the▁toilet▁": 9837,
      "belong": 9838,
      "mobile▁phone▁": 9839,
      "▁It▁turns▁out": 9840,
      "decided▁to▁": 9841,
      "▁differ": 9842,
      "▁A▁few": 9843,
      "▁During▁the▁": 9844,
      "retty▁girl": 9845,
      "simply▁": 9846,
      "entertainment▁": 9847,
      "▁horse▁rac": 9848,
      "yellow": 9849,
      "answer": 9850,
      "▁Okay": 9851,
      ",▁I've▁": 9852,
      "-f": 9853,
      ".S.": 9854,
      "10": 9855,
      "C.": 9856,
      "Central": 9857,
      "I▁still": 9858,
      "I▁feel": 9859,
      "I▁am": 9860,
      "K.": 9861,
      "ait": 9862,
      "a▁and▁": 9863,
      "a▁tr": 9864,
      "band": 9865,
      "bit.": 9866,
      "cen": 9867,
      "cat▁": 9868,
      "cent": 9869,
      "cand": 9870,
      "cial": 9871,
      "den": 9872,
      "dump": 9873,
      "eli": 9874,
      "ead": 9875,
      "either": 9876,
      "fake▁": 9877,
      "free▁": 9878,
      "fair": 9879,
      "fired▁": 9880,
      "hy": 9881,
      "hit": 9882,
      "hib": 9883,
      "io▁": 9884,
      "ke▁": 9885,
      "kiss.": 9886,
      "le▁the▁": 9887,
      "larg": 9888,
      "mm": 9889,
      "men": 9890,
      "mell": 9891,
      "me?": 9892,
      "mary▁school": 9893,
      "nat": 9894,
      "nation": 9895,
      "nice▁": 9896,
      "ox": 9897,
      "past": 9898,
      "race▁": 9899,
      "s,▁the▁": 9900,
      "sudden": 9901,
      "vol": 9902,
      "wet▁": 9903,
      "ward▁": 9904,
      "winter": 9905,
      "y,▁but▁": 9906,
      "▁下": 9907,
      "▁企": 9908,
      "▁叫": 9909,
      "▁噚": 9910,
      "▁執": 9911,
      "▁想": 9912,
      "▁架": 9913,
      "▁由": 9914,
      "▁白": 9915,
      "▁eat▁": 9916,
      "▁差佬": 9917,
      "▁冇人": 9918,
      "▁報紙": 9919,
      "▁間屋": 9920,
      "一排": 9921,
      "一蚊": 9922,
      "上。": 9923,
      "不景": 9924,
      "中學": 9925,
      "乜咁": 9926,
      "以後": 9927,
      "住你": 9928,
      "你做": 9929,
      "你要": 9930,
      "佢仲": 9931,
      "佢有": 9932,
      "佢啊？": 9933,
      "係有": 9934,
      "係老": 9935,
      "個個": 9936,
      "假。": 9937,
      "做，": 9938,
      "做嘅。": 9939,
      "先好": 9940,
      "先可以": 9941,
      "兩次": 9942,
      "兩個人": 9943,
      "到唔": 9944,
      "到啲": 9945,
      "同個": 9946,
      "同啲朋友": 9947,
      "吖嘛。": 9948,
      "呢部": 9949,
      "周街": 9950,
      "味道": 9951,
      "咁細": 9952,
      "哥。": 9953,
      "唔入": 9954,
      "唔喺度": 9955,
      "啤梨": 9956,
      "嗰隻": 9957,
      "嘅大": 9958,
      "嚟嘅": 9959,
      "埋單": 9960,
      "堂。": 9961,
      "多多": 9962,
      "夠鐘": 9963,
      "大把": 9964,
      "大細": 9965,
      "大學生": 9966,
      "太陽": 9967,
      "好啲": 9968,
      "好想": 9969,
      "好易": 9970,
      "好醒": 9971,
      "好高": 9972,
      "對方": 9973,
      "對波": 9974,
      "就有": 9975,
      "就可以": 9976,
      "差館": 9977,
      "差唔多": 9978,
      "市。": 9979,
      "影響": 9980,
      "律師": 9981,
      "後屘": 9982,
      "得個": 9983,
      "得到": 9984,
      "我想": 9985,
      "戲院": 9986,
      "手機": 9987,
      "打開": 9988,
      "排隊": 9989,
      "搭棚": 9990,
      "搵錢": 9991,
      "搵食。": 9992,
      "收入": 9993,
      "放心": 9994,
      "明白": 9995,
      "時俾人": 9996,
      "本地": 9997,
      "條褲": 9998,
      "樣。": 9999,
      "氣噉": 10000,
      "流流": 10001,
      "海鮮": 10002,
      "游水": 10003,
      "激死": 10004,
      "爛咗": 10005,
      "牌子": 10006,
      "牙。": 10007,
      "理佢": 10008,
      "畀個": 10009,
      "畀啲": 10010,
      "畀番": 10011,
      "畀你。": 10012,
      "着住": 10013,
      "符。": 10014,
      "籃球": 10015,
      "經過": 10016,
      "習慣": 10017,
      "老友": 10018,
      "耳仔": 10019,
      "行李": 10020,
      "表演": 10021,
      "西瓜": 10022,
      "要用": 10023,
      "計劃": 10024,
      "講嘢。": 10025,
      "買個": 10026,
      "起。": 10027,
      "起嚟": 10028,
      "趕唔切": 10029,
      "足球": 10030,
      "軚。": 10031,
      "返嚟。": 10032,
      "返工。": 10033,
      "鄉下": 10034,
      "鐘。": 10035,
      "開咗": 10036,
      "離婚": 10037,
      "難。": 10038,
      "靚仔": 10039,
      "音樂": 10040,
      "頂。": 10041,
      "頸。": 10042,
      "食煙": 10043,
      "飲杯": 10044,
      "飲酒": 10045,
      "黑色": 10046,
      "齣戲": 10047,
      "，攞": 10048,
      "，人哋": 10049,
      "，快啲": 10050,
      "，做乜": 10051,
      "，今晚": 10052,
      "，或者": 10053,
      "▁task": 10054,
      "s▁you": 10055,
      "iny▁": 10056,
      "inally▁": 10057,
      "▁thes": 10058,
      "▁than▁": 10059,
      "ouri": 10060,
      "ond": 10061,
      "one▁t": 10062,
      "on▁his▁": 10063,
      "ing▁stuff": 10064,
      "ort▁of": 10065,
      "ital": 10066,
      "is▁always▁": 10067,
      "recogn": 10068,
      "he▁wants▁to▁": 10069,
      "▁to▁watch": 10070,
      "▁I▁get▁": 10071,
      "▁I▁got▁": 10072,
      "atively▁": 10073,
      "stub": 10074,
      "▁went▁to▁": 10075,
      "▁writ": 10076,
      "e▁there's▁": 10077,
      "▁Tsu": 10078,
      ",▁his▁": 10079,
      ",▁how▁can": 10080,
      "ed▁out.": 10081,
      "ed▁into▁the▁": 10082,
      "of▁a": 10083,
      "often": 10084,
      "ess▁and▁": 10085,
      "ese-": 10086,
      "also": 10087,
      "ing▁it": 10088,
      "ing▁in▁a": 10089,
      "cher": 10090,
      "chest": 10091,
      "▁mis": 10092,
      "▁most▁": 10093,
      "▁medic": 10094,
      "▁佢生": 10095,
      "▁佢做嘢": 10096,
      "▁佢唔鍾意": 10097,
      "▁佢呢排": 10098,
      "for▁him": 10099,
      "forgot": 10100,
      "▁bad": 10101,
      "▁bott": 10102,
      "▁boob": 10103,
      "▁Has": 10104,
[...]
