{
  "version": "1.0",
  "truncation": null,
  "padding": null,
  "added_tokens": [
    {
      "id": 0,
      "content": "<unk>",
      "single_word": false,
      "lstrip": false,
      "rstrip": false,
      "normalized": true,
      "special": true
    },
    {
      "id": 1,
      "content": "<s>",
      "single_word": false,
      "lstrip": false,
      "rstrip": false,
      "normalized": false,
      "special": true
    },
    {
      "id": 2,
      "content": "</s>",
      "single_word": false,
      "lstrip": false,
      "rstrip": false,
      "normalized": false,
      "special": true
    },
    {
      "id": 3,
      "content": "<|im_start|>",
      "single_word": false,
      "lstrip": false,
      "rstrip": false,
      "normalized": false,
      "special": true
    },
    {
      "id": 4,
      "content": "<|im_end|>",
      "single_word": false,
      "lstrip": false,
      "rstrip": false,
      "normalized": false,
      "special": true
    },
    {
      "id": 5,
      "content": "<|im_sep|>",
      "single_word": false,
      "lstrip": false,
      "rstrip": false,
      "normalized": false,
      "special": true
    },
    {
      "id": 6,
      "content": "<|startoftext|>",
      "single_word": false,
      "lstrip": false,
      "rstrip": false,
      "normalized": true,
      "special": true
    },
    {
      "id": 7,
      "content": "<|endoftext|>",
      "single_word": false,
      "lstrip": false,
      "rstrip": false,
      "normalized": true,
      "special": true
    }
  ],
  "normalizer": {
    "type": "Sequence",
    "normalizers": [
      {
        "type": "Prepend",
        "prepend": "▁"
      },
      {
        "type": "Replace",
        "pattern": {
          "String": " "
        },
        "content": "▁"
      }
    ]
  },
  "pre_tokenizer": null,
  "post_processor": {
    "type": "TemplateProcessing",
    "single": [
      {
        "Sequence": {
          "id": "A",
          "type_id": 0
        }
      }
    ],
    "pair": [
      {
        "Sequence": {
          "id": "A",
          "type_id": 0
        }
      },
      {
        "Sequence": {
          "id": "B",
          "type_id": 1
        }
      }
    ],
    "special_tokens": {}
  },
  "decoder": {
    "type": "Sequence",
    "decoders": [
      {
        "type": "Replace",
        "pattern": {
          "String": "▁"
        },
        "content": " "
      },
      {
        "type": "ByteFallback"
      },
      {
        "type": "Fuse"
      },
      {
        "type": "Strip",
        "content": " ",
        "start": 1,
        "stop": 0
      }
    ]
  },
  "model": {
    "type": "BPE",
    "dropout": null,
    "unk_token": "<unk>",
    "continuing_subword_prefix": null,
    "end_of_word_suffix": null,
    "fuse_unk": true,
    "byte_fallback": true,
    "vocab": {
      "<unk>": 0,
      "<s>": 1,
      "</s>": 2,
      "<|im_start|>": 3,
      "<|im_end|>": 4,
      "<|im_sep|>": 5,
      "<|startoftext|>": 6,
      "<|endoftext|>": 7,
      "!": 8,
      "\"": 9,
      "$": 10,
      "%": 11,
      "&": 12,
      "'": 13,
      "(": 14,
      ")": 15,
      ",": 16,
      "-": 17,
      ".": 18,
      "0": 19,
      "1": 20,
      "2": 21,
      "3": 22,
      "4": 23,
      "5": 24,
      "6": 25,
      "7": 26,
      "8": 27,
      "9": 28,
      ":": 29,
      "?": 30,
      "A": 31,
      "B": 32,
      "C": 33,
      "D": 34,
      "E": 35,
      "F": 36,
      "G": 37,
      "H": 38,
      "I": 39,
      "J": 40,
      "K": 41,
      "L": 42,
      "M": 43,
      "N": 44,
      "O": 45,
      "P": 46,
      "Q": 47,
      "R": 48,
      "S": 49,
      "T": 50,
      "U": 51,
      "V": 52,
      "W": 53,
      "X": 54,
      "Y": 55,
      "Z": 56,
      "[": 57,
      "]": 58,
      "a": 59,
      "b": 60,
      "c": 61,
      "d": 62,
      "e": 63,
      "f": 64,
      "g": 65,
      "h": 66,
      "i": 67,
      "j": 68,
      "k": 69,
      "l": 70,
      "m": 71,
      "n": 72,
      "o": 73,
      "p": 74,
      "q": 75,
      "r": 76,
      "s": 77,
      "t": 78,
      "u": 79,
      "v": 80,
      "w": 81,
      "x": 82,
      "y": 83,
      "z": 84,
      "é": 85,
      "ï": 86,
      "—": 87,
      "’": 88,
      "▁": 89,
      "、": 90,
      "。": 91,
      "《": 92,
      "》": 93,
      "「": 94,
      "」": 95,
      "㓤": 96,
      "㖡": 97,
      "㖭": 98,
      "㖿": 99,
      "㗇": 100,
      "㗎": 101,
      "㗱": 102,
      "㗲": 103,
      "㗾": 104,
      "㘉": 105,
      "㤿": 106,
      "㦒": 107,
      "㧻": 108,
      "㧾": 109,
      "㨆": 110,
      "㨘": 111,
      "㨴": 112,
      "㩒": 113,
      "㩧": 114,
      "㬹": 115,
      "㷫": 116,
      "㹃": 117,
      "㿭": 118,
      "䁓": 119,
      "䁪": 120,
      "䁯": 121,
      "䆲": 122,
      "䉺": 123,
      "䏭": 124,
      "䟕": 125,
      "䟴": 126,
      "䠋": 127,
      "䪴": 128,
      "䭤": 129,
      "一": 130,
      "丁": 131,
      "七": 132,
      "三": 133,
      "上": 134,
      "下": 135,
      "不": 136,
      "且": 137,
      "世": 138,
      "丘": 139,
      "丟": 140,
      "両": 141,
      "並": 142,
      "丫": 143,
      "中": 144,
      "串": 145,
      "丸": 146,
      "丹": 147,
      "主": 148,
      "久": 149,
      "之": 150,
      "乎": 151,
      "乏": 152,
      "乒": 153,
      "乓": 154,
      "乖": 155,
      "乘": 156,
      "乙": 157,
      "乜": 158,
      "九": 159,
      "乞": 160,
      "也": 161,
      "乳": 162,
      "乸": 163,
      "乾": 164,
      "亁": 165,
      "亂": 166,
      "了": 167,
      "争": 168,
      "事": 169,
      "二": 170,
      "互": 171,
      "五": 172,
      "井": 173,
      "些": 174,
      "亞": 175,
      "亡": 176,
      "交": 177,
      "亦": 178,
      "亨": 179,
      "享": 180,
      "京": 181,
      "亭": 182,
      "亮": 183,
      "亳": 184,
      "人": 185,
      "仁": 186,
      "仄": 187,
      "仆": 188,
      "仇": 189,
      "今": 190,
      "介": 191,
      "仔": 192,
      "他": 193,
      "仗": 194,
      "付": 195,
      "仙": 196,
      "代": 197,
      "令": 198,
      "以": 199,
      "仰": 200,
      "仲": 201,
      "件": 202,
      "任": 203,
      "份": 204,
      "仿": 205,
      "企": 206,
      "伊": 207,
      "伏": 208,
      "伐": 209,
      "休": 210,
      "伕": 211,
      "伙": 212,
      "伯": 213,
      "估": 214,
      "伴": 215,
      "伶": 216,
      "伸": 217,
      "似": 218,
      "但": 219,
      "佈": 220,
      "位": 221,
      "低": 222,
      "住": 223,
      "佐": 224,
      "佔": 225,
      "何": 226,
      "佗": 227,
      "佛": 228,
      "作": 229,
      "你": 230,
      "佢": 231,
      "佣": 232,
      "佬": 233,
      "佳": 234,
      "佻": 235,
      "使": 236,
      "侄": 237,
      "來": 238,
      "例": 239,
      "侍": 240,
      "侖": 241,
      "供": 242,
      "依": 243,
      "侵": 244,
      "侶": 245,
      "便": 246,
      "係": 247,
      "促": 248,
      "俄": 249,
      "俐": 250,
      "俗": 251,
      "保": 252,
      "俠": 253,
      "信": 254,
      "俬": 255,
      "修": 256,
      "俸": 257,
      "俾": 258,
      "倆": 259,
      "倉": 260,
      "個": 261,
      "倍": 262,
      "倒": 263,
      "倔": 264,
      "候": 265,
      "倚": 266,
      "借": 267,
      "倫": 268,
      "值": 269,
      "假": 270,
      "偈": 271,
      "偉": 272,
      "偏": 273,
      "做": 274,
      "停": 275,
      "健": 276,
      "側": 277,
      "偵": 278,
      "偶": 279,
      "偷": 280,
      "傅": 281,
      "傘": 282,
      "備": 283,
      "傢": 284,
      "催": 285,
      "傭": 286,
      "傳": 287,
      "債": 288,
      "傷": 289,
      "傻": 290,
      "傾": 291,
      "像": 292,
      "僑": 293,
      "僧": 294,
      "僭": 295,
      "僱": 296,
      "價": 297,
      "僻": 298,
      "儀": 299,
      "億": 300,
      "儉": 301,
      "優": 302,
      "儲": 303,
      "兀": 304,
      "元": 305,
      "兄": 306,
      "充": 307,
      "先": 308,
      "光": 309,
      "克": 310,
      "兌": 311,
      "免": 312,
      "兒": 313,
      "兔": 314,
      "兜": 315,
      "入": 316,
      "內": 317,
      "全": 318,
      "兩": 319,
      "八": 320,
      "公": 321,
      "六": 322,
      "共": 323,
      "兵": 324,
      "其": 325,
      "具": 326,
      "典": 327,
      "兼": 328,
      "内": 329,
      "冇": 330,
      "冊": 331,
      "再": 332,
      "冒": 333,
      "冕": 334,
      "冚": 335,
      "冠": 336,
      "冤": 337,
      "冧": 338,
      "冬": 339,
      "冰": 340,
      "况": 341,
      "冷": 342,
      "准": 343,
      "凍": 344,
      "凜": 345,
      "凳": 346,
      "凶": 347,
      "凸": 348,
      "凹": 349,
      "出": 350,
      "刀": 351,
      "刁": 352,
      "分": 353,
      "切": 354,
      "刊": 355,
      "刑": 356,
      "列": 357,
      "初": 358,
      "判": 359,
      "別": 360,
      "刨": 361,
      "利": 362,
      "刮": 363,
      "到": 364,
      "制": 365,
      "刷": 366,
      "刺": 367,
      "刻": 368,
      "剃": 369,
      "則": 370,
      "削": 371,
      "前": 372,
      "剎": 373,
      "剒": 374,
      "剔": 375,
      "剛": 376,
      "剝": 377,
      "剩": 378,
      "剪": 379,
      "副": 380,
      "割": 381,
      "創": 382,
      "剷": 383,
      "劃": 384,
      "劄": 385,
      "劇": 386,
      "劈": 387,
      "劉": 388,
      "劏": 389,
      "劑": 390,
      "劖": 391,
      "力": 392,
      "功": 393,
      "加": 394,
      "劣": 395,
      "助": 396,
      "努": 397,
      "劫": 398,
      "勁": 399,
      "勒": 400,
      "動": 401,
      "務": 402,
      "勝": 403,
      "勞": 404,
      "勢": 405,
      "勤": 406,
      "勵": 407,
      "勸": 408,
      "勻": 409,
      "勾": 410,
      "勿": 411,
      "包": 412,
      "匆": 413,
      "化": 414,
      "北": 415,
      "匙": 416,
      "匪": 417,
      "匯": 418,
      "匹": 419,
      "匿": 420,
      "區": 421,
      "十": 422,
      "千": 423,
      "卅": 424,
      "升": 425,
      "午": 426,
      "半": 427,
      "卑": 428,
      "卒": 429,
      "協": 430,
      "南": 431,
      "博": 432,
      "卜": 433,
      "卟": 434,
      "占": 435,
      "卡": 436,
      "卦": 437,
      "印": 438,
      "危": 439,
      "即": 440,
      "卷": 441,
      "卸": 442,
      "厘": 443,
      "厚": 444,
      "原": 445,
      "厠": 446,
      "厨": 447,
      "厭": 448,
      "厴": 449,
      "去": 450,
      "參": 451,
      "又": 452,
      "叉": 453,
      "及": 454,
      "友": 455,
      "反": 456,
      "叔": 457,
      "取": 458,
      "受": 459,
      "叠": 460,
      "口": 461,
      "古": 462,
      "句": 463,
      "另": 464,
      "只": 465,
      "叫": 466,
      "召": 467,
      "叭": 468,
      "叮": 469,
      "可": 470,
      "台": 471,
      "史": 472,
      "右": 473,
      "司": 474,
      "叻": 475,
      "吃": 476,
      "各": 477,
      "合": 478,
      "吉": 479,
      "吊": 480,
      "吋": 481,
      "同": 482,
      "名": 483,
      "吐": 484,
      "向": 485,
      "吒": 486,
      "吓": 487,
      "吔": 488,
      "吖": 489,
      "君": 490,
      "吞": 491,
      "吟": 492,
      "吠": 493,
      "吡": 494,
      "吥": 495,
      "否": 496,
      "吧": 497,
      "含": 498,
      "吱": 499,
      "吸": 500,
      "吹": 501,
      "吻": 502,
      "吼": 503,
      "吽": 504,
      "呀": 505,
      "呂": 506,
      "呃": 507,
      "呆": 508,
      "呈": 509,
      "告": 510,
      "呎": 511,
      "呔": 512,
      "呡": 513,
      "呢": 514,
      "呣": 515,
      "呤": 516,
      "周": 517,
      "呯": 518,
      "呱": 519,
      "味": 520,
      "呵": 521,
      "呷": 522,
      "呻": 523,
      "呼": 524,
      "命": 525,
      "咀": 526,
      "咁": 527,
      "咇": 528,
      "咈": 529,
      "咋": 530,
      "和": 531,
      "咑": 532,
      "咒": 533,
      "咓": 534,
      "咔": 535,
      "咕": 536,
      "咖": 537,
      "咗": 538,
      "咘": 539,
      "咜": 540,
      "咦": 541,
      "咧": 542,
      "咩": 543,
      "咪": 544,
      "咬": 545,
      "咭": 546,
      "咯": 547,
      "咳": 548,
      "咸": 549,
      "咹": 550,
      "咾": 551,
      "咿": 552,
      "品": 553,
      "哄": 554,
      "哇": 555,
      "哈": 556,
      "哋": 557,
      "响": 558,
      "哎": 559,
      "哚": 560,
      "員": 561,
      "哣": 562,
      "哥": 563,
      "哦": 564,
      "哨": 565,
      "哩": 566,
      "哭": 567,
      "哼": 568,
      "哽": 569,
      "哾": 570,
      "唂": 571,
      "唆": 572,
      "唇": 573,
      "唉": 574,
      "唊": 575,
      "唎": 576,
      "唏": 577,
      "唐": 578,
      "唓": 579,
      "唔": 580,
      "唚": 581,
      "唞": 582,
      "唥": 583,
      "唦": 584,
      "唧": 585,
      "售": 586,
      "唯": 587,
      "唱": 588,
      "唿": 589,
      "啃": 590,
      "啄": 591,
      "商": 592,
      "啉": 593,
      "啊": 594,
      "啋": 595,
      "問": 596,
      "啖": 597,
      "啗": 598,
      "啜": 599,
      "啞": 600,
      "啡": 601,
      "啤": 602,
      "啥": 603,
      "啦": 604,
      "啩": 605,
      "啪": 606,
      "啫": 607,
      "啱": 608,
      "啲": 609,
      "啷": 610,
      "啹": 611,
      "啽": 612,
      "喀": 613,
      "喂": 614,
      "喃": 615,
      "善": 616,
      "喇": 617,
      "喉": 618,
      "喊": 619,
      "喎": 620,
      "喐": 621,
      "喘": 622,
      "喜": 623,
      "喝": 624,
      "喧": 625,
      "喪": 626,
      "喫": 627,
      "單": 628,
      "喱": 629,
      "喳": 630,
      "喴": 631,
      "喵": 632,
      "喺": 633,
      "喼": 634,
      "嗅": 635,
      "嗌": 636,
      "嗍": 637,
      "嗏": 638,
      "嗒": 639,
      "嗗": 640,
      "嗙": 641,
      "嗚": 642,
      "嗤": 643,
      "嗦": 644,
      "嗰": 645,
      "嗱": 646,
      "嗲": 647,
      "嗿": 648,
      "嘅": 649,
      "嘈": 650,
      "嘉": 651,
      "嘍": 652,
      "嘔": 653,
      "嘗": 654,
      "嘛": 655,
      "嘜": 656,
      "嘞": 657,
      "嘟": 658,
      "嘢": 659,
      "嘥": 660,
      "嘩": 661,
      "嘭": 662,
      "嘮": 663,
      "嘴": 664,
      "嘶": 665,
      "嘸": 666,
      "嘺": 667,
      "嘻": 668,
      "噁": 669,
      "噃": 670,
      "噉": 671,
      "噍": 672,
      "噎": 673,
      "噏": 674,
      "噒": 675,
      "噔": 676,
      "噚": 677,
      "噠": 678,
      "器": 679,
      "噪": 680,
      "噬": 681,
      "噱": 682,
      "噴": 683,
      "噸": 684,
      "噹": 685,
      "噼": 686,
      "嚇": 687,
      "嚎": 688,
      "嚕": 689,
      "嚙": 690,
      "嚟": 691,
      "嚡": 692,
      "嚤": 693,
      "嚨": 694,
      "嚬": 695,
      "嚱": 696,
      "嚴": 697,
      "嚹": 698,
      "嚼": 699,
      "嚿": 700,
      "囉": 701,
      "囊": 702,
      "囋": 703,
      "囑": 704,
      "囓": 705,
      "囗": 706,
      "囚": 707,
      "四": 708,
      "囝": 709,
      "回": 710,
      "囟": 711,
      "因": 712,
      "囡": 713,
      "囪": 714,
      "困": 715,
      "固": 716,
      "圈": 717,
      "國": 718,
      "圍": 719,
      "園": 720,
      "圓": 721,
      "圖": 722,
      "團": 723,
      "土": 724,
      "在": 725,
      "地": 726,
      "圳": 727,
      "圾": 728,
      "址": 729,
      "均": 730,
      "坊": 731,
      "坐": 732,
      "坑": 733,
      "坡": 734,
      "坤": 735,
      "坦": 736,
      "坺": 737,
      "垃": 738,
      "型": 739,
      "垢": 740,
      "埃": 741,
      "埋": 742,
      "城": 743,
      "埔": 744,
      "埕": 745,
      "埗": 746,
      "埞": 747,
      "域": 748,
      "埠": 749,
      "埲": 750,
      "執": 751,
      "基": 752,
      "堀": 753,
      "堂": 754,
      "堅": 755,
      "堆": 756,
      "堪": 757,
      "報": 758,
      "場": 759,
      "塊": 760,
      "塑": 761,
      "塔": 762,
      "塘": 763,
      "塞": 764,
      "填": 765,
      "塵": 766,
      "境": 767,
      "墓": 768,
      "墘": 769,
      "墜": 770,
      "增": 771,
      "墟": 772,
      "墨": 773,
      "墩": 774,
      "墮": 775,
      "墳": 776,
      "壅": 777,
      "壆": 778,
      "壓": 779,
      "壞": 780,
      "壢": 781,
      "士": 782,
      "壬": 783,
      "壺": 784,
      "壽": 785,
      "夏": 786,
      "夕": 787,
      "外": 788,
      "多": 789,
      "夜": 790,
      "夠": 791,
      "夢": 792,
      "大": 793,
      "天": 794,
      "太": 795,
      "夫": 796,
      "夭": 797,
      "央": 798,
      "失": 799,
      "夷": 800,
      "夾": 801,
      "奀": 802,
      "奄": 803,
      "奇": 804,
      "奉": 805,
      "契": 806,
      "奔": 807,
      "套": 808,
      "奧": 809,
      "奪": 810,
      "奮": 811,
      "女": 812,
      "奶": 813,
      "奸": 814,
      "好": 815,
      "如": 816,
      "妓": 817,
      "妖": 818,
      "妝": 819,
      "妥": 820,
      "妨": 821,
      "妹": 822,
      "妻": 823,
      "姆": 824,
      "姊": 825,
      "始": 826,
      "姐": 827,
      "姑": 828,
      "姓": 829,
      "姣": 830,
      "姦": 831,
      "姨": 832,
      "姪": 833,
      "姻": 834,
      "姿": 835,
      "威": 836,
      "娃": 837,
      "娘": 838,
      "娛": 839,
      "娶": 840,
      "娼": 841,
      "婄": 842,
      "婆": 843,
      "婚": 844,
      "婦": 845,
      "婿": 846,
      "媒": 847,
      "媽": 848,
      "嫁": 849,
      "嫂": 850,
      "嫋": 851,
      "嫌": 852,
      "嫖": 853,
      "嫩": 854,
      "嫲": 855,
      "嬌": 856,
      "嬲": 857,
      "嬸": 858,
      "子": 859,
      "孕": 860,
      "孖": 861,
      "字": 862,
      "存": 863,
      "孝": 864,
      "季": 865,
      "孤": 866,
      "孫": 867,
      "孭": 868,
      "孱": 869,
      "學": 870,
      "孻": 871,
      "孿": 872,
      "宅": 873,
      "守": 874,
      "安": 875,
      "完": 876,
      "宗": 877,
      "官": 878,
      "定": 879,
      "宜": 880,
      "客": 881,
      "宣": 882,
      "室": 883,
      "宮": 884,
      "害": 885,
      "宴": 886,
      "宵": 887,
      "家": 888,
      "容": 889,
      "宿": 890,
      "寂": 891,
      "寄": 892,
      "密": 893,
      "富": 894,
      "寒": 895,
      "寞": 896,
      "察": 897,
      "寡": 898,
      "實": 899,
      "寧": 900,
      "審": 901,
      "寫": 902,
      "寬": 903,
      "寮": 904,
      "寵": 905,
      "寶": 906,
      "寸": 907,
      "寺": 908,
      "封": 909,
      "射": 910,
      "將": 911,
      "專": 912,
      "尊": 913,
      "尋": 914,
      "對": 915,
      "導": 916,
      "小": 917,
      "少": 918,
      "尖": 919,
      "尚": 920,
      "尤": 921,
      "尬": 922,
      "就": 923,
      "尷": 924,
      "尺": 925,
      "尼": 926,
      "尾": 927,
      "尿": 928,
      "局": 929,
      "屁": 930,
      "居": 931,
      "屆": 932,
      "屈": 933,
      "屋": 934,
      "屍": 935,
      "屎": 936,
      "屐": 937,
      "展": 938,
      "屘": 939,
      "屙": 940,
      "層": 941,
      "屬": 942,
      "山": 943,
      "岩": 944,
      "岸": 945,
      "峰": 946,
      "島": 947,
      "崖": 948,
      "崗": 949,
      "崩": 950,
      "嶼": 951,
      "巉": 952,
      "川": 953,
      "州": 954,
      "巡": 955,
      "巢": 956,
      "工": 957,
      "左": 958,
      "差": 959,
      "己": 960,
      "已": 961,
      "巴": 962,
      "巷": 963,
      "巾": 964,
      "市": 965,
      "布": 966,
      "希": 967,
      "帑": 968,
      "帖": 969,
      "帝": 970,
      "師": 971,
      "席": 972,
      "帳": 973,
      "帶": 974,
      "常": 975,
      "帽": 976,
      "幅": 977,
      "幕": 978,
      "幢": 979,
      "幣": 980,
      "幫": 981,
      "干": 982,
      "平": 983,
      "年": 984,
      "幸": 985,
      "幹": 986,
      "幼": 987,
      "幽": 988,
      "幾": 989,
      "序": 990,
      "底": 991,
      "店": 992,
      "府": 993,
      "度": 994,
      "座": 995,
      "庫": 996,
      "庭": 997,
      "庵": 998,
      "康": 999,
      "廁": 1000,
      "廂": 1001,
      "廈": 1002,
      "廉": 1003,
      "廊": 1004,
      "廚": 1005,
      "廟": 1006,
      "廠": 1007,
      "廢": 1008,
      "廣": 1009,
      "廳": 1010,
      "延": 1011,
      "建": 1012,
      "廿": 1013,
      "弄": 1014,
      "弊": 1015,
      "式": 1016,
      "弓": 1017,
      "引": 1018,
      "弗": 1019,
      "弟": 1020,
      "弦": 1021,
      "弱": 1022,
      "張": 1023,
      "強": 1024,
      "彈": 1025,
      "彎": 1026,
      "彙": 1027,
      "形": 1028,
      "彩": 1029,
      "彭": 1030,
      "影": 1031,
      "往": 1032,
      "待": 1033,
      "徇": 1034,
      "律": 1035,
      "後": 1036,
      "徑": 1037,
      "徒": 1038,
      "得": 1039,
      "徙": 1040,
      "從": 1041,
      "復": 1042,
      "微": 1043,
      "徵": 1044,
      "德": 1045,
      "心": 1046,
      "必": 1047,
      "忌": 1048,
      "忍": 1049,
      "志": 1050,
      "忘": 1051,
      "忙": 1052,
      "忠": 1053,
      "快": 1054,
      "念": 1055,
      "忽": 1056,
      "忿": 1057,
      "怒": 1058,
      "怕": 1059,
      "怖": 1060,
      "思": 1061,
      "怡": 1062,
      "急": 1063,
      "性": 1064,
      "怪": 1065,
      "恃": 1066,
      "恆": 1067,
      "恐": 1068,
      "恤": 1069,
      "恥": 1070,
      "恨": 1071,
      "恩": 1072,
      "息": 1073,
      "恰": 1074,
      "悉": 1075,
      "悍": 1076,
      "悔": 1077,
      "患": 1078,
      "悶": 1079,
      "情": 1080,
      "惑": 1081,
      "惜": 1082,
      "惟": 1083,
      "惠": 1084,
      "惡": 1085,
      "惱": 1086,
      "想": 1087,
      "惹": 1088,
      "愈": 1089,
      "意": 1090,
      "愛": 1091,
      "感": 1092,
      "慈": 1093,
      "態": 1094,
      "慌": 1095,
      "慕": 1096,
      "慘": 1097,
      "慢": 1098,
      "慣": 1099,
      "慪": 1100,
      "慮": 1101,
      "慰": 1102,
      "慳": 1103,
      "慶": 1104,
      "慾": 1105,
      "憂": 1106,
      "憎": 1107,
      "憐": 1108,
      "憑": 1109,
      "憤": 1110,
      "憩": 1111,
      "憶": 1112,
      "懂": 1113,
      "應": 1114,
      "懦": 1115,
      "懲": 1116,
      "懵": 1117,
      "懶": 1118,
      "懷": 1119,
      "戀": 1120,
      "戇": 1121,
      "成": 1122,
      "我": 1123,
      "戒": 1124,
      "或": 1125,
      "戙": 1126,
      "戚": 1127,
      "戟": 1128,
      "戥": 1129,
      "截": 1130,
      "戰": 1131,
      "戲": 1132,
      "戴": 1133,
      "戶": 1134,
      "戽": 1135,
      "房": 1136,
      "所": 1137,
      "扁": 1138,
      "扇": 1139,
      "手": 1140,
      "才": 1141,
      "扎": 1142,
      "扑": 1143,
      "扒": 1144,
      "打": 1145,
      "托": 1146,
      "扠": 1147,
      "扣": 1148,
      "扤": 1149,
      "扭": 1150,
      "扮": 1151,
      "扯": 1152,
      "扱": 1153,
      "扲": 1154,
      "扳": 1155,
      "扶": 1156,
      "批": 1157,
      "扽": 1158,
      "找": 1159,
      "承": 1160,
      "技": 1161,
      "抄": 1162,
      "抆": 1163,
      "把": 1164,
      "抌": 1165,
      "抑": 1166,
      "投": 1167,
      "抖": 1168,
      "抗": 1169,
      "折": 1170,
      "抦": 1171,
      "披": 1172,
      "抬": 1173,
      "抰": 1174,
      "抱": 1175,
      "抳": 1176,
      "抵": 1177,
      "抹": 1178,
      "押": 1179,
      "抽": 1180,
      "抿": 1181,
      "拃": 1182,
      "拆": 1183,
      "拉": 1184,
      "拋": 1185,
      "拍": 1186,
      "拎": 1187,
      "拐": 1188,
      "拒": 1189,
      "拓": 1190,
      "拖": 1191,
      "拗": 1192,
      "拘": 1193,
      "拚": 1194,
      "招": 1195,
      "拜": 1196,
      "拫": 1197,
      "括": 1198,
      "拮": 1199,
      "拯": 1200,
      "拳": 1201,
      "拼": 1202,
      "拾": 1203,
      "拿": 1204,
      "持": 1205,
      "指": 1206,
      "挈": 1207,
      "按": 1208,
      "挐": 1209,
      "挑": 1210,
      "挖": 1211,
      "挨": 1212,
      "挪": 1213,
      "挫": 1214,
      "挲": 1215,
      "挹": 1216,
      "挼": 1217,
      "挽": 1218,
      "挾": 1219,
      "捅": 1220,
      "捉": 1221,
      "捋": 1222,
      "捐": 1223,
      "捕": 1224,
      "捧": 1225,
      "捨": 1226,
      "捱": 1227,
      "捲": 1228,
      "捵": 1229,
      "捶": 1230,
      "捹": 1231,
      "捻": 1232,
      "捽": 1233,
      "掂": 1234,
      "掃": 1235,
      "授": 1236,
      "掉": 1237,
      "掌": 1238,
      "排": 1239,
      "掕": 1240,
      "掗": 1241,
      "掘": 1242,
      "掙": 1243,
      "掛": 1244,
      "掟": 1245,
      "掠": 1246,
      "採": 1247,
      "探": 1248,
      "掣": 1249,
      "接": 1250,
      "控": 1251,
      "推": 1252,
      "掩": 1253,
      "措": 1254,
      "掬": 1255,
      "掱": 1256,
      "掹": 1257,
      "揀": 1258,
      "揃": 1259,
      "揅": 1260,
      "揇": 1261,
      "揈": 1262,
      "提": 1263,
      "插": 1264,
      "揗": 1265,
      "揚": 1266,
      "換": 1267,
      "揞": 1268,
      "握": 1269,
      "揢": 1270,
      "揤": 1271,
      "揦": 1272,
      "揩": 1273,
      "揪": 1274,
      "揭": 1275,
      "揮": 1276,
      "援": 1277,
      "揸": 1278,
      "揼": 1279,
      "搉": 1280,
      "損": 1281,
      "搏": 1282,
      "搓": 1283,
      "搖": 1284,
      "搗": 1285,
      "搜": 1286,
      "搞": 1287,
      "搣": 1288,
      "搦": 1289,
      "搪": 1290,
      "搬": 1291,
      "搭": 1292,
      "搲": 1293,
      "搵": 1294,
      "搶": 1295,
      "搽": 1296,
      "摑": 1297,
      "摘": 1298,
      "摙": 1299,
      "摜": 1300,
      "摟": 1301,
      "摩": 1302,
      "摯": 1303,
      "摱": 1304,
      "摳": 1305,
      "摵": 1306,
      "摷": 1307,
      "摸": 1308,
      "摺": 1309,
      "摼": 1310,
      "撇": 1311,
      "撈": 1312,
      "撍": 1313,
      "撐": 1314,
      "撒": 1315,
      "撚": 1316,
      "撞": 1317,
      "撠": 1318,
      "撤": 1319,
      "撥": 1320,
      "撩": 1321,
      "撬": 1322,
      "播": 1323,
      "撲": 1324,
      "撳": 1325,
      "撻": 1326,
      "撼": 1327,
      "擁": 1328,
      "擂": 1329,
      "擅": 1330,
      "擇": 1331,
      "擊": 1332,
      "擋": 1333,
      "操": 1334,
      "擎": 1335,
      "擏": 1336,
      "擒": 1337,
      "擔": 1338,
      "擗": 1339,
      "擘": 1340,
      "據": 1341,
      "擝": 1342,
      "擠": 1343,
      "擦": 1344,
      "擯": 1345,
      "擰": 1346,
      "擲": 1347,
      "擸": 1348,
      "擺": 1349,
      "擾": 1350,
      "攊": 1351,
      "攜": 1352,
      "攝": 1353,
      "攞": 1354,
      "攣": 1355,
      "攤": 1356,
      "攪": 1357,
      "攬": 1358,
      "支": 1359,
      "攰": 1360,
      "收": 1361,
      "改": 1362,
      "攻": 1363,
      "放": 1364,
      "政": 1365,
      "故": 1366,
      "效": 1367,
      "敏": 1368,
      "救": 1369,
      "敗": 1370,
      "教": 1371,
      "敢": 1372,
      "散": 1373,
      "敦": 1374,
      "敬": 1375,
      "整": 1376,
      "數": 1377,
      "文": 1378,
      "斑": 1379,
      "斗": 1380,
      "料": 1381,
      "斜": 1382,
      "斟": 1383,
      "斤": 1384,
      "斧": 1385,
      "斬": 1386,
      "斯": 1387,
      "新": 1388,
      "斷": 1389,
      "方": 1390,
      "於": 1391,
      "施": 1392,
      "旁": 1393,
      "旅": 1394,
      "旋": 1395,
      "族": 1396,
      "旗": 1397,
      "既": 1398,
      "日": 1399,
      "旦": 1400,
      "旨": 1401,
      "早": 1402,
      "旱": 1403,
      "旺": 1404,
      "明": 1405,
      "昏": 1406,
      "易": 1407,
      "昔": 1408,
      "星": 1409,
      "映": 1410,
      "春": 1411,
      "是": 1412,
      "時": 1413,
      "晏": 1414,
      "晒": 1415,
      "晚": 1416,
      "晝": 1417,
      "晦": 1418,
      "晨": 1419,
      "普": 1420,
      "景": 1421,
      "晰": 1422,
      "晶": 1423,
      "智": 1424,
      "晾": 1425,
      "暇": 1426,
      "暈": 1427,
      "暉": 1428,
      "暑": 1429,
      "暖": 1430,
      "暗": 1431,
      "暢": 1432,
      "暫": 1433,
      "暴": 1434,
      "曆": 1435,
      "曉": 1436,
      "曚": 1437,
      "曝": 1438,
      "曬": 1439,
      "曲": 1440,
      "曳": 1441,
      "更": 1442,
      "書": 1443,
      "曼": 1444,
      "曾": 1445,
      "替": 1446,
      "最": 1447,
      "會": 1448,
      "月": 1449,
      "有": 1450,
      "朋": 1451,
      "服": 1452,
      "朗": 1453,
      "朘": 1454,
      "望": 1455,
      "朝": 1456,
      "期": 1457,
      "木": 1458,
      "未": 1459,
      "末": 1460,
      "本": 1461,
      "朱": 1462,
      "朵": 1463,
      "李": 1464,
      "杏": 1465,
      "材": 1466,
      "村": 1467,
      "杖": 1468,
      "杜": 1469,
      "束": 1470,
      "杠": 1471,
      "杯": 1472,
      "杰": 1473,
      "東": 1474,
      "松": 1475,
      "板": 1476,
      "枉": 1477,
      "析": 1478,
      "枕": 1479,
      "林": 1480,
      "枚": 1481,
      "果": 1482,
      "枝": 1483,
      "枱": 1484,
      "枳": 1485,
      "枴": 1486,
      "架": 1487,
      "柄": 1488,
      "某": 1489,
      "柑": 1490,
      "染": 1491,
      "柔": 1492,
      "柚": 1493,
      "查": 1494,
      "柯": 1495,
      "柱": 1496,
      "柳": 1497,
      "柴": 1498,
      "査": 1499,
      "柿": 1500,
      "栗": 1501,
      "校": 1502,
      "核": 1503,
      "根": 1504,
      "格": 1505,
      "桂": 1506,
      "桃": 1507,
      "框": 1508,
      "案": 1509,
      "桌": 1510,
      "桑": 1511,
      "桔": 1512,
      "桶": 1513,
      "桿": 1514,
      "梁": 1515,
      "梅": 1516,
      "梆": 1517,
      "梗": 1518,
      "梘": 1519,
      "條": 1520,
      "梧": 1521,
      "梨": 1522,
      "梭": 1523,
      "梯": 1524,
      "械": 1525,
      "梳": 1526,
      "棄": 1527,
      "棉": 1528,
      "棋": 1529,
      "棍": 1530,
      "棖": 1531,
      "棚": 1532,
      "棟": 1533,
      "森": 1534,
      "棹": 1535,
      "棺": 1536,
      "椅": 1537,
      "植": 1538,
      "椒": 1539,
      "椗": 1540,
      "椰": 1541,
      "楊": 1542,
      "楚": 1543,
      "楣": 1544,
      "業": 1545,
      "極": 1546,
      "楷": 1547,
      "概": 1548,
      "榛": 1549,
      "榜": 1550,
      "榮": 1551,
      "榴": 1552,
      "構": 1553,
      "槌": 1554,
      "槍": 1555,
      "槓": 1556,
      "槽": 1557,
      "樂": 1558,
      "樑": 1559,
      "樓": 1560,
      "樖": 1561,
      "標": 1562,
      "樟": 1563,
      "模": 1564,
      "樣": 1565,
      "横": 1566,
      "樹": 1567,
      "樽": 1568,
      "橄": 1569,
      "橇": 1570,
      "橋": 1571,
      "橙": 1572,
      "橛": 1573,
      "機": 1574,
      "橡": 1575,
      "橫": 1576,
      "檔": 1577,
      "檢": 1578,
      "檬": 1579,
      "檳": 1580,
      "檸": 1581,
      "櫃": 1582,
      "櫈": 1583,
      "欄": 1584,
      "權": 1585,
      "欖": 1586,
      "欠": 1587,
      "次": 1588,
      "欣": 1589,
      "欺": 1590,
      "款": 1591,
      "歇": 1592,
      "歉": 1593,
      "歌": 1594,
      "歎": 1595,
      "歐": 1596,
      "歡": 1597,
      "止": 1598,
      "正": 1599,
      "步": 1600,
      "武": 1601,
      "歧": 1602,
      "歪": 1603,
      "歲": 1604,
      "歳": 1605,
      "歷": 1606,
      "歸": 1607,
      "歹": 1608,
      "死": 1609,
      "殆": 1610,
      "殊": 1611,
      "殘": 1612,
      "殮": 1613,
      "殯": 1614,
      "段": 1615,
      "殺": 1616,
      "殼": 1617,
      "殽": 1618,
      "毀": 1619,
      "母": 1620,
      "每": 1621,
      "毒": 1622,
      "比": 1623,
      "毛": 1624,
      "毡": 1625,
      "毫": 1626,
      "氈": 1627,
      "氏": 1628,
      "民": 1629,
      "氛": 1630,
      "氣": 1631,
      "水": 1632,
      "永": 1633,
      "氹": 1634,
      "汀": 1635,
      "汁": 1636,
      "求": 1637,
      "汗": 1638,
      "汞": 1639,
      "江": 1640,
      "池": 1641,
      "污": 1642,
      "汪": 1643,
      "決": 1644,
      "汽": 1645,
      "沈": 1646,
      "沉": 1647,
      "沊": 1648,
      "沌": 1649,
      "沒": 1650,
      "沓": 1651,
      "沖": 1652,
      "沙": 1653,
      "沬": 1654,
      "河": 1655,
      "油": 1656,
      "治": 1657,
      "沽": 1658,
      "沿": 1659,
      "況": 1660,
      "泉": 1661,
      "泊": 1662,
      "泌": 1663,
      "法": 1664,
      "泛": 1665,
      "泡": 1666,
      "波": 1667,
      "泥": 1668,
      "注": 1669,
      "泰": 1670,
      "泳": 1671,
      "泵": 1672,
      "洋": 1673,
      "洌": 1674,
      "洗": 1675,
      "洞": 1676,
      "津": 1677,
      "洩": 1678,
      "洲": 1679,
      "活": 1680,
      "派": 1681,
      "流": 1682,
      "浪": 1683,
      "浭": 1684,
      "浮": 1685,
      "浴": 1686,
      "海": 1687,
      "浸": 1688,
      "消": 1689,
      "涉": 1690,
      "涌": 1691,
      "涕": 1692,
      "液": 1693,
      "涸": 1694,
      "涼": 1695,
      "淋": 1696,
      "淒": 1697,
      "淘": 1698,
      "淚": 1699,
      "淡": 1700,
      "淤": 1701,
      "淥": 1702,
      "淨": 1703,
      "淫": 1704,
      "淰": 1705,
      "深": 1706,
      "淵": 1707,
      "混": 1708,
      "淺": 1709,
      "添": 1710,
      "清": 1711,
      "減": 1712,
      "渠": 1713,
      "渡": 1714,
      "渣": 1715,
      "渧": 1716,
      "測": 1717,
      "港": 1718,
      "渴": 1719,
      "游": 1720,
      "湊": 1721,
      "湖": 1722,
      "湘": 1723,
      "湧": 1724,
      "湯": 1725,
      "湴": 1726,
      "溏": 1727,
      "源": 1728,
      "準": 1729,
      "溚": 1730,
      "溜": 1731,
      "溝": 1732,
      "溦": 1733,
      "溪": 1734,
      "溫": 1735,
      "溶": 1736,
      "溼": 1737,
      "滅": 1738,
      "滋": 1739,
      "滑": 1740,
      "滘": 1741,
      "滮": 1742,
      "滯": 1743,
      "滲": 1744,
      "滴": 1745,
      "滾": 1746,
      "滿": 1747,
      "漁": 1748,
      "漆": 1749,
      "漏": 1750,
      "演": 1751,
      "漚": 1752,
      "漢": 1753,
      "漫": 1754,
      "漬": 1755,
      "漸": 1756,
      "漿": 1757,
      "潑": 1758,
      "潔": 1759,
      "潛": 1760,
      "潞": 1761,
      "潤": 1762,
      "潦": 1763,
      "潮": 1764,
      "潲": 1765,
      "潺": 1766,
      "澀": 1767,
      "澎": 1768,
      "澳": 1769,
      "激": 1770,
      "濃": 1771,
      "濕": 1772,
      "濟": 1773,
      "濫": 1774,
      "濱": 1775,
      "瀄": 1776,
      "瀉": 1777,
      "瀑": 1778,
      "瀝": 1779,
      "瀟": 1780,
      "灒": 1781,
      "灘": 1782,
      "灣": 1783,
      "火": 1784,
      "灰": 1785,
      "灶": 1786,
      "灼": 1787,
      "災": 1788,
      "炆": 1789,
      "炎": 1790,
      "炒": 1791,
      "炕": 1792,
      "炖": 1793,
      "炙": 1794,
      "炠": 1795,
      "炩": 1796,
      "炬": 1797,
      "炭": 1798,
      "炮": 1799,
      "炸": 1800,
      "為": 1801,
      "烈": 1802,
      "烏": 1803,
      "烚": 1804,
      "烤": 1805,
      "烹": 1806,
      "烽": 1807,
      "焊": 1808,
      "焗": 1809,
      "焙": 1810,
      "焚": 1811,
      "無": 1812,
      "焦": 1813,
      "焫": 1814,
      "然": 1815,
      "煀": 1816,
      "煎": 1817,
      "煙": 1818,
      "煞": 1819,
      "煤": 1820,
      "照": 1821,
      "煨": 1822,
      "煩": 1823,
      "煮": 1824,
      "煱": 1825,
      "煲": 1826,
      "煽": 1827,
      "熄": 1828,
      "熏": 1829,
      "熗": 1830,
      "熟": 1831,
      "熨": 1832,
      "熱": 1833,
      "燂": 1834,
      "燈": 1835,
      "燒": 1836,
      "燕": 1837,
      "燙": 1838,
      "營": 1839,
      "燥": 1840,
      "燦": 1841,
      "燭": 1842,
      "燶": 1843,
      "爆": 1844,
      "爐": 1845,
      "爛": 1846,
      "爪": 1847,
      "爬": 1848,
      "爭": 1849,
      "爲": 1850,
      "父": 1851,
      "爸": 1852,
      "爹": 1853,
      "爺": 1854,
      "爽": 1855,
      "爾": 1856,
      "牀": 1857,
      "牆": 1858,
      "片": 1859,
      "版": 1860,
      "牌": 1861,
      "牙": 1862,
      "牛": 1863,
      "物": 1864,
      "牯": 1865,
      "特": 1866,
      "牽": 1867,
      "犀": 1868,
      "犯": 1869,
      "狀": 1870,
      "狂": 1871,
      "狐": 1872,
      "狗": 1873,
      "狡": 1874,
      "狼": 1875,
      "猛": 1876,
      "猜": 1877,
      "猴": 1878,
      "猶": 1879,
      "猾": 1880,
      "獄": 1881,
      "獅": 1882,
      "獎": 1883,
      "獨": 1884,
      "獲": 1885,
      "獵": 1886,
      "獸": 1887,
      "率": 1888,
      "玉": 1889,
      "王": 1890,
      "玩": 1891,
      "玫": 1892,
      "玲": 1893,
      "玳": 1894,
      "玻": 1895,
      "珊": 1896,
      "珍": 1897,
      "珠": 1898,
      "班": 1899,
      "現": 1900,
      "球": 1901,
      "理": 1902,
      "琴": 1903,
      "瑁": 1904,
      "瑞": 1905,
      "瑰": 1906,
      "璃": 1907,
      "環": 1908,
      "瓏": 1909,
      "瓜": 1910,
      "瓣": 1911,
      "瓦": 1912,
      "瓷": 1913,
      "甘": 1914,
      "甚": 1915,
      "甜": 1916,
      "生": 1917,
      "產": 1918,
      "甦": 1919,
      "用": 1920,
      "甩": 1921,
      "甫": 1922,
      "田": 1923,
      "由": 1924,
      "甲": 1925,
      "申": 1926,
      "男": 1927,
      "甸": 1928,
      "畀": 1929,
      "界": 1930,
      "留": 1931,
      "畜": 1932,
      "畢": 1933,
      "番": 1934,
      "畫": 1935,
      "異": 1936,
      "當": 1937,
      "疊": 1938,
      "疏": 1939,
      "疑": 1940,
      "疫": 1941,
      "疴": 1942,
      "疼": 1943,
      "痄": 1944,
      "病": 1945,
      "症": 1946,
      "痕": 1947,
      "痘": 1948,
      "痛": 1949,
      "痠": 1950,
      "痢": 1951,
      "痧": 1952,
      "痰": 1953,
      "痱": 1954,
      "痴": 1955,
      "痹": 1956,
      "痺": 1957,
      "痾": 1958,
      "瘀": 1959,
      "瘋": 1960,
      "瘌": 1961,
      "瘓": 1962,
      "瘟": 1963,
      "瘡": 1964,
      "瘤": 1965,
      "瘦": 1966,
      "瘺": 1967,
      "療": 1968,
      "癌": 1969,
      "癐": 1970,
      "癡": 1971,
      "癦": 1972,
      "癪": 1973,
      "癮": 1974,
      "癱": 1975,
      "癲": 1976,
      "登": 1977,
      "發": 1978,
      "白": 1979,
      "百": 1980,
      "的": 1981,
      "皆": 1982,
      "皇": 1983,
      "皮": 1984,
      "皺": 1985,
      "皿": 1986,
      "盃": 1987,
      "盅": 1988,
      "盆": 1989,
      "盈": 1990,
      "益": 1991,
      "盒": 1992,
      "盔": 1993,
      "盛": 1994,
      "盜": 1995,
      "盞": 1996,
      "盟": 1997,
      "盡": 1998,
      "監": 1999,
      "盤": 2000,
      "盪": 2001,
      "目": 2002,
      "盲": 2003,
      "直": 2004,
      "相": 2005,
      "省": 2006,
      "眈": 2007,
      "眉": 2008,
      "真": 2009,
      "眠": 2010,
      "眯": 2011,
      "眼": 2012,
      "眾": 2013,
      "着": 2014,
      "睄": 2015,
      "睇": 2016,
      "睛": 2017,
      "睜": 2018,
      "睡": 2019,
      "督": 2020,
      "睥": 2021,
      "睦": 2022,
      "睩": 2023,
      "睬": 2024,
      "睸": 2025,
      "睺": 2026,
      "瞄": 2027,
      "瞇": 2028,
      "瞓": 2029,
      "矇": 2030,
      "矋": 2031,
      "矛": 2032,
      "矜": 2033,
      "知": 2034,
      "矩": 2035,
      "短": 2036,
      "矮": 2037,
      "石": 2038,
      "矺": 2039,
      "砂": 2040,
      "砌": 2041,
      "研": 2042,
      "砣": 2043,
      "砲": 2044,
      "破": 2045,
      "砵": 2046,
      "砸": 2047,
      "硬": 2048,
      "碌": 2049,
      "碎": 2050,
      "碗": 2051,
      "碟": 2052,
      "碧": 2053,
      "碰": 2054,
      "確": 2055,
      "碼": 2056,
      "磁": 2057,
      "磅": 2058,
      "磚": 2059,
      "磧": 2060,
      "磨": 2061,
      "礙": 2062,
      "礦": 2063,
      "示": 2064,
      "社": 2065,
      "祈": 2066,
      "祕": 2067,
      "祖": 2068,
      "祝": 2069,
      "神": 2070,
      "祠": 2071,
      "票": 2072,
      "祭": 2073,
      "祿": 2074,
      "禁": 2075,
      "禍": 2076,
      "福": 2077,
      "禮": 2078,
      "禾": 2079,
      "秀": 2080,
      "私": 2081,
      "秋": 2082,
      "科": 2083,
      "秒": 2084,
      "秘": 2085,
      "租": 2086,
      "秤": 2087,
      "秧": 2088,
      "秩": 2089,
      "移": 2090,
      "稀": 2091,
      "稅": 2092,
      "稈": 2093,
      "程": 2094,
      "税": 2095,
      "稚": 2096,
      "稟": 2097,
      "種": 2098,
      "稱": 2099,
      "稻": 2100,
      "稿": 2101,
      "穀": 2102,
      "穌": 2103,
      "積": 2104,
      "穩": 2105,
      "究": 2106,
      "空": 2107,
      "穿": 2108,
      "突": 2109,
      "窄": 2110,
      "窒": 2111,
      "窗": 2112,
      "窟": 2113,
      "窩": 2114,
      "窮": 2115,
      "窿": 2116,
      "竇": 2117,
      "竊": 2118,
      "立": 2119,
      "站": 2120,
      "竟": 2121,
      "章": 2122,
      "童": 2123,
      "竭": 2124,
      "端": 2125,
      "競": 2126,
      "竹": 2127,
      "竿": 2128,
      "笈": 2129,
      "笑": 2130,
      "笛": 2131,
      "笠": 2132,
      "符": 2133,
      "笨": 2134,
      "笪": 2135,
      "第": 2136,
      "筆": 2137,
      "等": 2138,
      "筋": 2139,
      "筍": 2140,
      "筒": 2141,
      "答": 2142,
      "策": 2143,
      "筲": 2144,
      "筷": 2145,
      "箍": 2146,
      "箕": 2147,
      "算": 2148,
      "管": 2149,
      "箭": 2150,
      "箱": 2151,
      "節": 2152,
      "範": 2153,
      "篇": 2154,
      "築": 2155,
      "篤": 2156,
      "篩": 2157,
      "篷": 2158,
      "篸": 2159,
      "簕": 2160,
      "簡": 2161,
      "簫": 2162,
      "簽": 2163,
      "簾": 2164,
      "簿": 2165,
      "籃": 2166,
      "籌": 2167,
      "籍": 2168,
      "籠": 2169,
      "籤": 2170,
      "籬": 2171,
      "籮": 2172,
      "籲": 2173,
      "米": 2174,
      "籽": 2175,
      "粉": 2176,
      "粒": 2177,
      "粗": 2178,
      "粟": 2179,
      "粥": 2180,
      "粵": 2181,
      "粹": 2182,
      "粽": 2183,
      "精": 2184,
      "糊": 2185,
      "糕": 2186,
      "糖": 2187,
      "糟": 2188,
      "糧": 2189,
      "糯": 2190,
      "糴": 2191,
      "系": 2192,
      "糾": 2193,
      "紀": 2194,
      "約": 2195,
      "紅": 2196,
      "紋": 2197,
      "納": 2198,
      "紐": 2199,
      "純": 2200,
      "紗": 2201,
      "紙": 2202,
      "級": 2203,
      "紛": 2204,
      "素": 2205,
      "索": 2206,
      "紥": 2207,
      "紮": 2208,
      "累": 2209,
      "細": 2210,
      "紳": 2211,
      "紹": 2212,
      "終": 2213,
      "組": 2214,
      "結": 2215,
      "絕": 2216,
      "絞": 2217,
      "絡": 2218,
      "絨": 2219,
      "統": 2220,
      "絲": 2221,
      "綁": 2222,
      "經": 2223,
      "綜": 2224,
      "綠": 2225,
      "綢": 2226,
      "綫": 2227,
      "維": 2228,
      "綱": 2229,
      "網": 2230,
      "綿": 2231,
      "緊": 2232,
      "緋": 2233,
      "緒": 2234,
      "線": 2235,
      "緝": 2236,
      "緣": 2237,
      "編": 2238,
      "緬": 2239,
      "練": 2240,
      "緻": 2241,
      "縫": 2242,
      "縮": 2243,
      "縱": 2244,
      "總": 2245,
      "績": 2246,
      "繁": 2247,
      "繑": 2248,
      "織": 2249,
      "繚": 2250,
      "繡": 2251,
      "繩": 2252,
      "繪": 2253,
      "繳": 2254,
      "繼": 2255,
      "纈": 2256,
      "續": 2257,
      "纏": 2258,
      "纜": 2259,
      "缸": 2260,
      "缺": 2261,
      "缽": 2262,
      "罅": 2263,
      "罌": 2264,
      "罐": 2265,
      "罩": 2266,
      "罪": 2267,
      "置": 2268,
      "罰": 2269,
      "署": 2270,
      "罵": 2271,
      "罷": 2272,
      "羅": 2273,
      "羈": 2274,
      "羊": 2275,
      "美": 2276,
      "羞": 2277,
      "群": 2278,
      "羨": 2279,
      "義": 2280,
      "羹": 2281,
      "羽": 2282,
      "翁": 2283,
      "翅": 2284,
      "習": 2285,
      "翕": 2286,
      "翠": 2287,
      "翡": 2288,
      "翳": 2289,
      "翹": 2290,
      "翻": 2291,
      "翼": 2292,
      "老": 2293,
      "考": 2294,
      "者": 2295,
      "而": 2296,
      "耍": 2297,
      "耐": 2298,
      "耕": 2299,
      "耙": 2300,
      "耨": 2301,
      "耳": 2302,
      "耶": 2303,
      "耷": 2304,
      "耽": 2305,
      "聊": 2306,
      "聖": 2307,
      "聚": 2308,
      "聞": 2309,
      "聯": 2310,
      "聰": 2311,
      "聲": 2312,
      "職": 2313,
      "聽": 2314,
      "聾": 2315,
      "肅": 2316,
      "肆": 2317,
      "肉": 2318,
      "肋": 2319,
      "肌": 2320,
      "肚": 2321,
      "肝": 2322,
      "股": 2323,
      "肥": 2324,
      "肯": 2325,
      "育": 2326,
      "肺": 2327,
      "胃": 2328,
      "胅": 2329,
      "背": 2330,
      "胎": 2331,
      "胡": 2332,
      "胸": 2333,
      "能": 2334,
      "脂": 2335,
      "脅": 2336,
      "脆": 2337,
      "脈": 2338,
      "脊": 2339,
      "脢": 2340,
      "脫": 2341,
      "脯": 2342,
      "脷": 2343,
      "脹": 2344,
      "脽": 2345,
      "脾": 2346,
      "腍": 2347,
      "腎": 2348,
      "腐": 2349,
      "腥": 2350,
      "腦": 2351,
      "腩": 2352,
      "腫": 2353,
      "腮": 2354,
      "腰": 2355,
      "腳": 2356,
      "腸": 2357,
      "腹": 2358,
      "腿": 2359,
      "膈": 2360,
      "膉": 2361,
      "膊": 2362,
      "膏": 2363,
      "膚": 2364,
      "膝": 2365,
      "膠": 2366,
      "膳": 2367,
      "膶": 2368,
      "膽": 2369,
      "臂": 2370,
      "臊": 2371,
      "臘": 2372,
      "臟": 2373,
      "臠": 2374,
      "臣": 2375,
      "臥": 2376,
      "臨": 2377,
      "自": 2378,
      "臭": 2379,
      "至": 2380,
      "致": 2381,
      "舂": 2382,
      "與": 2383,
      "興": 2384,
      "舉": 2385,
      "舊": 2386,
      "舌": 2387,
      "舍": 2388,
      "舒": 2389,
      "舔": 2390,
      "舖": 2391,
      "舗": 2392,
      "舞": 2393,
      "舟": 2394,
      "舦": 2395,
      "航": 2396,
      "般": 2397,
      "船": 2398,
      "艇": 2399,
      "艔": 2400,
      "艘": 2401,
      "艙": 2402,
      "良": 2403,
      "艱": 2404,
      "色": 2405,
      "芋": 2406,
      "芒": 2407,
      "芙": 2408,
      "芝": 2409,
      "芥": 2410,
      "芭": 2411,
      "芯": 2412,
      "花": 2413,
      "芹": 2414,
      "芽": 2415,
      "苑": 2416,
      "若": 2417,
      "苦": 2418,
      "英": 2419,
      "茂": 2420,
      "茄": 2421,
      "茅": 2422,
      "茶": 2423,
      "荃": 2424,
      "草": 2425,
      "荏": 2426,
      "荔": 2427,
      "荷": 2428,
      "莉": 2429,
      "莊": 2430,
      "莢": 2431,
      "莫": 2432,
      "菇": 2433,
      "菊": 2434,
      "菌": 2435,
      "菓": 2436,
      "菜": 2437,
      "菠": 2438,
      "菢": 2439,
      "菩": 2440,
      "華": 2441,
      "菲": 2442,
      "菻": 2443,
      "萊": 2444,
      "萬": 2445,
      "落": 2446,
      "葉": 2447,
      "葛": 2448,
      "葡": 2449,
      "董": 2450,
      "葫": 2451,
      "葬": 2452,
      "葵": 2453,
      "葺": 2454,
      "蒐": 2455,
      "蒔": 2456,
      "蒙": 2457,
      "蒜": 2458,
      "蒲": 2459,
      "蒸": 2460,
      "蓄": 2461,
      "蓆": 2462,
      "蓉": 2463,
      "蓋": 2464,
      "蓮": 2465,
      "蔔": 2466,
      "蔗": 2467,
      "蔘": 2468,
      "蔥": 2469,
      "蔫": 2470,
      "蔸": 2471,
      "蕃": 2472,
      "蕉": 2473,
      "蕎": 2474,
      "蕩": 2475,
      "蕾": 2476,
      "薄": 2477,
      "薑": 2478,
      "薦": 2479,
      "薪": 2480,
      "薯": 2481,
      "薳": 2482,
      "藉": 2483,
      "藍": 2484,
      "藏": 2485,
      "藕": 2486,
      "藝": 2487,
      "藤": 2488,
      "藥": 2489,
      "藹": 2490,
      "蘆": 2491,
      "蘇": 2492,
      "蘋": 2493,
      "蘑": 2494,
      "蘭": 2495,
      "蘿": 2496,
      "虎": 2497,
      "虐": 2498,
      "虔": 2499,
      "處": 2500,
      "虛": 2501,
      "號": 2502,
      "虧": 2503,
      "虱": 2504,
      "虹": 2505,
      "蚊": 2506,
      "蛇": 2507,
      "蛋": 2508,
      "蛛": 2509,
      "蛤": 2510,
      "蜂": 2511,
      "蜆": 2512,
      "蜘": 2513,
      "蜜": 2514,
      "蜢": 2515,
      "蝄": 2516,
      "蝕": 2517,
      "蝗": 2518,
      "蝦": 2519,
      "蝴": 2520,
      "蝶": 2521,
      "蝻": 2522,
      "螄": 2523,
      "螆": 2524,
      "融": 2525,
      "螺": 2526,
      "蟀": 2527,
      "蟧": 2528,
      "蟬": 2529,
      "蟲": 2530,
      "蟹": 2531,
      "蟻": 2532,
      "蠄": 2533,
      "蠅": 2534,
      "蠔": 2535,
      "蠟": 2536,
      "蠢": 2537,
      "蠱": 2538,
      "蠻": 2539,
      "血": 2540,
      "衆": 2541,
      "行": 2542,
      "術": 2543,
      "街": 2544,
      "衛": 2545,
      "衝": 2546,
      "衞": 2547,
      "衡": 2548,
      "衣": 2549,
      "表": 2550,
      "衫": 2551,
      "衰": 2552,
      "袋": 2553,
      "袍": 2554,
      "袖": 2555,
      "被": 2556,
      "袱": 2557,
      "裁": 2558,
      "裂": 2559,
      "裇": 2560,
      "裏": 2561,
      "裔": 2562,
      "裙": 2563,
      "補": 2564,
      "裝": 2565,
      "裡": 2566,
      "裸": 2567,
      "裹": 2568,
      "製": 2569,
      "褂": 2570,
      "複": 2571,
      "褓": 2572,
      "褪": 2573,
      "褲": 2574,
      "褸": 2575,
      "襟": 2576,
      "襪": 2577,
      "襯": 2578,
      "襲": 2579,
      "西": 2580,
      "要": 2581,
      "覆": 2582,
      "見": 2583,
      "規": 2584,
      "視": 2585,
      "親": 2586,
      "覺": 2587,
      "覽": 2588,
      "觀": 2589,
      "角": 2590,
      "解": 2591,
      "觥": 2592,
      "觸": 2593,
      "言": 2594,
      "訂": 2595,
      "計": 2596,
      "訊": 2597,
      "討": 2598,
      "訓": 2599,
      "託": 2600,
      "記": 2601,
      "訪": 2602,
      "設": 2603,
      "許": 2604,
      "訴": 2605,
      "診": 2606,
      "註": 2607,
      "証": 2608,
      "詐": 2609,
      "評": 2610,
      "詞": 2611,
      "詢": 2612,
      "試": 2613,
      "話": 2614,
      "該": 2615,
      "誇": 2616,
      "誌": 2617,
      "認": 2618,
      "誓": 2619,
      "誕": 2620,
      "誘": 2621,
      "語": 2622,
      "誠": 2623,
      "誡": 2624,
      "誤": 2625,
      "說": 2626,
      "誰": 2627,
      "課": 2628,
      "誹": 2629,
      "誼": 2630,
      "調": 2631,
      "談": 2632,
      "請": 2633,
      "諒": 2634,
      "論": 2635,
      "諗": 2636,
      "諦": 2637,
      "諭": 2638,
      "諮": 2639,
      "諷": 2640,
      "諸": 2641,
      "謀": 2642,
      "謂": 2643,
      "謎": 2644,
      "謙": 2645,
      "講": 2646,
      "謝": 2647,
      "謢": 2648,
      "證": 2649,
      "識": 2650,
      "譜": 2651,
      "警": 2652,
      "譬": 2653,
      "譯": 2654,
      "議": 2655,
      "護": 2656,
      "譽": 2657,
      "讀": 2658,
      "變": 2659,
      "讓": 2660,
      "讕": 2661,
      "讚": 2662,
      "谷": 2663,
      "豆": 2664,
      "豉": 2665,
      "豎": 2666,
      "豐": 2667,
      "豔": 2668,
      "象": 2669,
      "豪": 2670,
      "豬": 2671,
      "貌": 2672,
      "貓": 2673,
      "負": 2674,
      "財": 2675,
      "貢": 2676,
      "貧": 2677,
      "貨": 2678,
      "販": 2679,
      "貪": 2680,
      "責": 2681,
      "貴": 2682,
      "貶": 2683,
      "買": 2684,
      "貸": 2685,
      "費": 2686,
      "貼": 2687,
      "貿": 2688,
      "賀": 2689,
      "賄": 2690,
      "資": 2691,
      "賊": 2692,
      "賒": 2693,
      "賓": 2694,
      "賞": 2695,
      "賠": 2696,
      "賢": 2697,
      "賣": 2698,
      "賤": 2699,
      "質": 2700,
      "賬": 2701,
      "賭": 2702,
      "賴": 2703,
      "賺": 2704,
      "購": 2705,
      "賽": 2706,
      "贈": 2707,
      "贊": 2708,
      "贏": 2709,
      "贓": 2710,
      "贖": 2711,
      "赤": 2712,
      "赦": 2713,
      "赧": 2714,
      "走": 2715,
      "赴": 2716,
      "起": 2717,
      "趁": 2718,
      "超": 2719,
      "越": 2720,
      "趕": 2721,
      "趣": 2722,
      "趨": 2723,
      "趯": 2724,
      "足": 2725,
      "趴": 2726,
      "趷": 2727,
      "趾": 2728,
      "趿": 2729,
      "跀": 2730,
      "跁": 2731,
      "跌": 2732,
      "跑": 2733,
      "跛": 2734,
      "距": 2735,
      "跟": 2736,
      "跣": 2737,
      "跤": 2738,
      "跨": 2739,
      "跪": 2740,
      "路": 2741,
      "跳": 2742,
      "踎": 2743,
      "踏": 2744,
      "踢": 2745,
      "踩": 2746,
      "踭": 2747,
      "踱": 2748,
      "踹": 2749,
      "蹄": 2750,
      "蹈": 2751,
      "蹟": 2752,
      "蹤": 2753,
      "躀": 2754,
      "躁": 2755,
      "躂": 2756,
      "躉": 2757,
      "躍": 2758,
      "躝": 2759,
      "身": 2760,
      "躭": 2761,
      "車": 2762,
      "軍": 2763,
      "軒": 2764,
      "軚": 2765,
      "軟": 2766,
      "軨": 2767,
      "軭": 2768,
      "軸": 2769,
      "較": 2770,
      "載": 2771,
      "輔": 2772,
      "輕": 2773,
      "輛": 2774,
      "輪": 2775,
      "輸": 2776,
      "輾": 2777,
      "轆": 2778,
      "轉": 2779,
      "轟": 2780,
      "辛": 2781,
      "辣": 2782,
      "辦": 2783,
      "辭": 2784,
      "辮": 2785,
      "辯": 2786,
      "辱": 2787,
      "農": 2788,
      "迎": 2789,
      "近": 2790,
      "返": 2791,
      "迪": 2792,
      "迫": 2793,
      "迷": 2794,
      "迹": 2795,
      "追": 2796,
      "迾": 2797,
      "退": 2798,
      "送": 2799,
      "逃": 2800,
      "逆": 2801,
      "透": 2802,
      "逐": 2803,
      "途": 2804,
      "逗": 2805,
      "通": 2806,
      "速": 2807,
      "造": 2808,
      "逢": 2809,
      "連": 2810,
      "週": 2811,
      "進": 2812,
      "逸": 2813,
      "逼": 2814,
      "遁": 2815,
      "遇": 2816,
      "遊": 2817,
      "運": 2818,
      "遍": 2819,
      "過": 2820,
      "道": 2821,
      "達": 2822,
      "違": 2823,
      "遞": 2824,
      "遠": 2825,
      "遢": 2826,
      "遣": 2827,
      "適": 2828,
      "遭": 2829,
      "遮": 2830,
      "遲": 2831,
      "遵": 2832,
      "遷": 2833,
      "選": 2834,
      "遺": 2835,
      "避": 2836,
      "邀": 2837,
      "還": 2838,
      "邊": 2839,
      "邋": 2840,
      "邏": 2841,
      "那": 2842,
      "邨": 2843,
      "邪": 2844,
      "郁": 2845,
      "郊": 2846,
      "郎": 2847,
      "部": 2848,
      "郵": 2849,
      "都": 2850,
      "鄉": 2851,
      "鄧": 2852,
      "鄰": 2853,
      "鄺": 2854,
      "酉": 2855,
      "酌": 2856,
      "配": 2857,
      "酒": 2858,
      "酡": 2859,
      "酥": 2860,
      "酸": 2861,
      "酹": 2862,
      "醃": 2863,
      "醉": 2864,
      "醋": 2865,
      "醒": 2866,
      "醜": 2867,
      "醫": 2868,
      "醬": 2869,
      "釀": 2870,
      "釋": 2871,
      "里": 2872,
      "重": 2873,
      "野": 2874,
      "量": 2875,
      "金": 2876,
      "釘": 2877,
      "針": 2878,
      "釣": 2879,
      "鈍": 2880,
      "鈒": 2881,
      "鈔": 2882,
      "鈕": 2883,
      "鈪": 2884,
      "鈴": 2885,
      "鉎": 2886,
      "鉗": 2887,
      "鉛": 2888,
      "鉤": 2889,
      "鉸": 2890,
      "鉻": 2891,
      "銀": 2892,
      "銃": 2893,
      "銅": 2894,
      "銷": 2895,
      "銹": 2896,
      "銻": 2897,
      "鋁": 2898,
      "鋅": 2899,
      "鋒": 2900,
      "鋤": 2901,
      "鋪": 2902,
      "鋸": 2903,
      "鋼": 2904,
      "錄": 2905,
      "錐": 2906,
      "錘": 2907,
      "錢": 2908,
      "錦": 2909,
      "錫": 2910,
      "錯": 2911,
      "錶": 2912,
      "鍍": 2913,
      "鍚": 2914,
      "鍟": 2915,
      "鍵": 2916,
      "鍾": 2917,
      "鎅": 2918,
      "鎖": 2919,
      "鎚": 2920,
      "鏈": 2921,
      "鏟": 2922,
      "鏡": 2923,
      "鐘": 2924,
      "鐳": 2925,
      "鐵": 2926,
      "鐸": 2927,
      "鑊": 2928,
      "鑲": 2929,
      "鑼": 2930,
      "鑽": 2931,
      "鑿": 2932,
      "長": 2933,
      "門": 2934,
      "閂": 2935,
      "閃": 2936,
      "閉": 2937,
      "開": 2938,
      "閏": 2939,
      "閒": 2940,
      "間": 2941,
      "閘": 2942,
      "閣": 2943,
      "閪": 2944,
      "闆": 2945,
      "闊": 2946,
      "闌": 2947,
      "闖": 2948,
      "關": 2949,
      "阱": 2950,
      "防": 2951,
      "阻": 2952,
      "阿": 2953,
      "陀": 2954,
      "附": 2955,
      "降": 2956,
      "限": 2957,
      "院": 2958,
      "陣": 2959,
      "除": 2960,
      "陪": 2961,
      "陰": 2962,
      "陳": 2963,
      "陶": 2964,
      "陷": 2965,
      "陸": 2966,
      "陽": 2967,
      "隆": 2968,
      "隊": 2969,
      "隍": 2970,
      "階": 2971,
      "隔": 2972,
      "隙": 2973,
      "際": 2974,
      "障": 2975,
      "隧": 2976,
      "隨": 2977,
      "險": 2978,
      "隱": 2979,
      "隻": 2980,
      "雀": 2981,
      "雄": 2982,
      "雅": 2983,
      "集": 2984,
      "雌": 2985,
      "雕": 2986,
      "雖": 2987,
      "雙": 2988,
      "雜": 2989,
      "雞": 2990,
      "離": 2991,
      "難": 2992,
      "雨": 2993,
      "雪": 2994,
      "雲": 2995,
      "零": 2996,
      "雷": 2997,
      "雹": 2998,
      "電": 2999,
      "需": 3000,
      "霆": 3001,
      "震": 3002,
      "霍": 3003,
      "霎": 3004,
      "霖": 3005,
      "霞": 3006,
      "霧": 3007,
      "露": 3008,
      "霸": 3009,
      "霹": 3010,
      "靈": 3011,
      "青": 3012,
      "靚": 3013,
      "靜": 3014,
      "非": 3015,
      "靠": 3016,
      "面": 3017,
      "革": 3018,
      "靶": 3019,
      "鞋": 3020,
      "鞍": 3021,
      "鞦": 3022,
      "鞭": 3023,
      "韆": 3024,
      "韌": 3025,
      "韓": 3026,
      "韞": 3027,
      "音": 3028,
      "響": 3029,
      "頁": 3030,
      "頂": 3031,
      "項": 3032,
      "順": 3033,
      "須": 3034,
      "預": 3035,
      "頒": 3036,
      "頗": 3037,
      "領": 3038,
      "頭": 3039,
      "頸": 3040,
      "頻": 3041,
      "題": 3042,
      "額": 3043,
      "顏": 3044,
      "願": 3045,
      "類": 3046,
      "顧": 3047,
      "顯": 3048,
      "風": 3049,
      "飄": 3050,
      "飛": 3051,
      "食": 3052,
      "飯": 3053,
      "飲": 3054,
      "飼": 3055,
      "飽": 3056,
      "飾": 3057,
      "餅": 3058,
      "餉": 3059,
      "養": 3060,
      "餐": 3061,
      "餓": 3062,
      "餘": 3063,
      "餡": 3064,
      "館": 3065,
      "餵": 3066,
      "餸": 3067,
      "餿": 3068,
      "饅": 3069,
      "饊": 3070,
      "饑": 3071,
      "首": 3072,
      "香": 3073,
      "馬": 3074,
      "馳": 3075,
      "駁": 3076,
      "駐": 3077,
      "駕": 3078,
      "駛": 3079,
      "騎": 3080,
      "騙": 3081,
      "騮": 3082,
      "騰": 3083,
      "騷": 3084,
      "驕": 3085,
      "驗": 3086,
      "驚": 3087,
      "骨": 3088,
      "骰": 3089,
      "骲": 3090,
      "骹": 3091,
      "骼": 3092,
      "骾": 3093,
      "髀": 3094,
      "體": 3095,
      "高": 3096,
      "髮": 3097,
      "髻": 3098,
      "鬆": 3099,
      "鬍": 3100,
      "鬚": 3101,
      "鬥": 3102,
      "鬧": 3103,
      "鬼": 3104,
      "魂": 3105,
      "魚": 3106,
      "魯": 3107,
      "魷": 3108,
      "鮑": 3109,
      "鮮": 3110,
      "鯁": 3111,
      "鯊": 3112,
      "鯨": 3113,
      "鯭": 3114,
      "鰂": 3115,
      "鱗": 3116,
      "鱷": 3117,
      "鳥": 3118,
      "鳳": 3119,
      "鴛": 3120,
      "鴣": 3121,
      "鴦": 3122,
      "鴨": 3123,
      "鴿": 3124,
      "鵑": 3125,
      "鵝": 3126,
      "鶴": 3127,
      "鷂": 3128,
      "鷄": 3129,
      "鷓": 3130,
      "鷹": 3131,
      "鹹": 3132,
      "鹽": 3133,
      "鹿": 3134,
      "麂": 3135,
      "麒": 3136,
      "麗": 3137,
      "麝": 3138,
      "麟": 3139,
      "麥": 3140,
      "麵": 3141,
      "麻": 3142,
      "黃": 3143,
      "黎": 3144,
      "黏": 3145,
      "黐": 3146,
      "黑": 3147,
      "默": 3148,
      "點": 3149,
      "黨": 3150,
      "鼓": 3151,
      "鼠": 3152,
      "鼻": 3153,
      "鼾": 3154,
      "齃": 3155,
      "齊": 3156,
      "齋": 3157,
      "齒": 3158,
      "齡": 3159,
      "齣": 3160,
      "齧": 3161,
      "龍": 3162,
      "龕": 3163,
      "龜": 3164,
      "！": 3165,
      "，": 3166,
      "：": 3167,
      "？": 3168,
      "𠌥": 3169,
      "𠓼": 3170,
      "𠜱": 3171,
      "𠝹": 3172,
      "𠮨": 3173,
      "𠮩": 3174,
      "𠰋": 3175,
      "𠰲": 3176,
      "𠱁": 3177,
      "𠱂": 3178,
      "𠱃": 3179,
      "𠱓": 3180,
      "𠱸": 3181,
      "𠲵": 3182,
      "𠳏": 3183,
      "𠳖": 3184,
      "𠴕": 3185,
      "𠵈": 3186,
      "𠵼": 3187,
      "𠵿": 3188,
      "𠶜": 3189,
      "𠸊": 3190,
      "𠸎": 3191,
      "𠸏": 3192,
      "𠹌": 3193,
      "𠹭": 3194,
      "𠹹": 3195,
      "𠹻": 3196,
      "𠺘": 3197,
      "𠺝": 3198,
      "𠺢": 3199,
      "𠺫": 3200,
      "𠺬": 3201,
      "𠻘": 3202,
      "𠻹": 3203,
      "𠼭": 3204,
      "𠼮": 3205,
      "𠼰": 3206,
      "𠼱": 3207,
      "𠼻": 3208,
      "𠽌": 3209,
      "𠽤": 3210,
      "𠾍": 3211,
      "𠾭": 3212,
      "𠾴": 3213,
      "𠾵": 3214,
      "𠾶": 3215,
      "𠾼": 3216,
      "𠿫": 3217,
      "𠿬": 3218,
      "𠿭": 3219,
      "𡀝": 3220,
      "𡀞": 3221,
      "𡁯": 3222,
      "𡁷": 3223,
      "𡁸": 3224,
      "𡁻": 3225,
      "𡂖": 3226,
      "𡂝": 3227,
      "𡃀": 3228,
      "𡃁": 3229,
      "𡃈": 3230,
      "𡃤": 3231,
      "𡃴": 3232,
      "𡃵": 3233,
      "𡄽": 3234,
      "𡆀": 3235,
      "𡆇": 3236,
      "𡇙": 3237,
      "𡲢": 3238,
      "𢃇": 3239,
      "𢆡": 3240,
      "𢚖": 3241,
      "𢛴": 3242,
      "𢝵": 3243,
      "𢤹": 3244,
      "𢫏": 3245,
      "𢫕": 3246,
      "𢫦": 3247,
      "𢭃": 3248,
      "𢯊": 3249,
      "𢯎": 3250,
      "𢰸": 3251,
      "𢱑": 3252,
      "𢱕": 3253,
      "𢱢": 3254,
      "𢲈": 3255,
      "𢲡": 3256,
      "𢲲": 3257,
      "𢳂": 3258,
      "𢳆": 3259,
      "𢴈": 3260,
      "𢵄": 3261,
      "𢵌": 3262,
      "𢵧": 3263,
      "𢶍": 3264,
      "𢶠": 3265,
      "𢶤": 3266,
      "𢺋": 3267,
      "𢺳": 3268,
      "𣘚": 3269,
      "𣚺": 3270,
      "𣲷": 3271,
      "𤌍": 3272,
      "𤓓": 3273,
      "𤶸": 3274,
      "𤷪": 3275,
      "𤺧": 3276,
      "𥀬": 3277,
      "𥄫": 3278,
      "𥅈": 3279,
      "𥇣": 3280,
      "𥋇": 3281,
      "𥔿": 3282,
      "𦂗": 3283,
      "𦂥": 3284,
      "𦉘": 3285,
      "𦛚": 3286,
      "𦟌": 3287,
      "𦡆": 3288,
      "𦢊": 3289,
      "𦣇": 3290,
      "𦧲": 3291,
      "𦧺": 3292,
      "𦻐": 3293,
      "𧊅": 3294,
      "𧕴": 3295,
      "𧘹": 3296,
      "𧝞": 3297,
      "𧣈": 3298,
      "𧶄": 3299,
      "𨀤": 3300,
      "𨂽": 3301,
      "𨂾": 3302,
      "𨃩": 3303,
      "𨅝": 3304,
      "𨆯": 3305,
      "𨈇": 3306,
      "𨉖": 3307,
      "𨋢": 3308,
      "𨳊": 3309,
      "𨳍": 3310,
      "𨳒": 3311,
      "𨶙": 3312,
      "𩓥": 3313,
      "𩗴": 3314,
      "𩜠": 3315,
      "𩟔": 3316,
      "𩩍": 3317,
      "𩬎": 3318,
      "𪘁": 3319,
      "𪘲": 3320,
      "𪙛": 3321,
      "𪚩": 3322,
      "𫫃": 3323,
      "𫬿": 3324,
      "𫭊": 3325,
      "𫲭": 3326,
      "𬜐": 3327,
      "𬦠": 3328,
      "𬧊": 3329,
      "𬧯": 3330,
      "e▁": 3331,
      "▁t": 3332,
      "s▁": 3333,
      "t▁": 3334,
      "in": 3335,
      "er": 3336,
      "o▁": 3337,
      "▁th": 3338,
      "d▁": 3339,
      "ou": 3340,
      "an": 3341,
      "y▁": 3342,
      "on": 3343,
      "en": 3344,
      "ing": 3345,
      "or": 3346,
      "ar": 3347,
      "▁s": 3348,
      "ll": 3349,
      "it": 3350,
      "▁the▁": 3351,
      "ha": 3352,
      "is▁": 3353,
      "you": 3354,
      "he▁": 3355,
      "re": 3356,
      "▁to▁": 3357,
      "▁a": 3358,
      "▁I": 3359,
      "at": 3360,
      "om": 3361,
      "st": 3362,
      "▁w": 3363,
      "and▁": 3364,
      "e▁t": 3365,
      "▁T": 3366,
      ",▁": 3367,
      "ed▁": 3368,
      "of": 3369,
      "ow": 3370,
      "ing▁": 3371,
      "al": 3372,
      "es": 3373,
      "'t▁": 3374,
      "▁c": 3375,
      "▁m": 3376,
      "▁佢": 3377,
      "for": 3378,
      "'s▁": 3379,
      "her": 3380,
      "▁b": 3381,
      "le": 3382,
      "▁H": 3383,
      "ic": 3384,
      "ver": 3385,
      "ed": 3386,
      "im": 3387,
      "all": 3388,
      "ve▁": 3389,
      "us": 3390,
      "is": 3391,
      "ch": 3392,
      "oo": 3393,
      "▁d": 3394,
      "el": 3395,
      ",▁s": 3396,
      "▁我": 3397,
      "▁h": 3398,
      "gh": 3399,
      "as": 3400,
      "ir": 3401,
      "at▁": 3402,
      "e.": 3403,
      "ot": 3404,
      "ay": 3405,
      "li": 3406,
      "ri": 3407,
      "ac": 3408,
      "▁you": 3409,
      "et": 3410,
      ",▁so▁": 3411,
      "ill": 3412,
      "▁p": 3413,
      "as▁": 3414,
      "it▁": 3415,
      "▁f": 3416,
      "op": 3417,
      "es▁": 3418,
      "ter": 3419,
      "▁The▁": 3420,
      "ak": 3421,
      "▁g": 3422,
      "▁你": 3423,
      "ith": 3424,
      "le▁": 3425,
      "ong": 3426,
      "▁W": 3427,
      "s.": 3428,
      "qu": 3429,
      "be": 3430,
      "are▁": 3431,
      "ly▁": 3432,
      "▁He▁": 3433,
      "un": 3434,
      "on't▁": 3435,
      "id": 3436,
      "os": 3437,
      "bu": 3438,
      "▁ha": 3439,
      "ad": 3440,
      "▁A": 3441,
      "he": 3442,
      "ur": 3443,
      "ol": 3444,
      "ay▁": 3445,
      "his▁": 3446,
      "▁Y": 3447,
      "up": 3448,
      "am": 3449,
      "ent": 3450,
      "ot▁": 3451,
      "now": 3452,
      "e▁to▁": 3453,
      "ome▁": 3454,
      "ion": 3455,
      "▁S": 3456,
      "ne": 3457,
      "▁You": 3458,
      "so▁": 3459,
      "se": 3460,
      "th": 3461,
      "ant": 3462,
      "▁that▁": 3463,
      "▁to": 3464,
      ",▁and▁": 3465,
      "▁呢": 3466,
      "and": 3467,
      "ally▁": 3468,
      "▁the": 3469,
      "ab": 3470,
      "do": 3471,
      "out▁": 3472,
      "oul": 3473,
      "ear": 3474,
      "▁l": 3475,
      "e▁w": 3476,
      "lik": 3477,
      "en▁": 3478,
      "quit": 3479,
      "ook": 3480,
      "n't▁": 3481,
      "very▁": 3482,
      "ag": 3483,
      "ro": 3484,
      "y.": 3485,
      "if": 3486,
      "igh": 3487,
      "▁of": 3488,
      "et▁": 3489,
      "ec": 3490,
      "il": 3491,
      "▁this▁": 3492,
      "hat▁": 3493,
      "▁and▁": 3494,
      "sh": 3495,
      "▁in": 3496,
      "ust▁": 3497,
      "啊？": 3498,
      "quite▁": 3499,
      "▁st": 3500,
      "really▁": 3501,
      "▁is▁": 3502,
      "be▁": 3503,
      "one▁": 3504,
      "wh": 3505,
      "ra": 3506,
      "one": 3507,
      "was▁": 3508,
      "com": 3509,
      "▁I'": 3510,
      "ex": 3511,
      "him": 3512,
      "but▁": 3513,
      "ould▁": 3514,
      "not▁": 3515,
      "with": 3516,
      "has▁": 3517,
      "唔好": 3518,
      "know": 3519,
      "ork": 3520,
      "▁as▁": 3521,
      "oun": 3522,
      "▁can": 3523,
      "my▁": 3524,
      "per": 3525,
      "eop": 3526,
      "▁This▁": 3527,
      "真係": 3528,
      "pl": 3529,
      "，我": 3530,
      "have▁": 3531,
      "ed▁to▁": 3532,
      "▁Wh": 3533,
      "ul": 3534,
      "▁M": 3535,
      "ig": 3536,
      "ck": 3537,
      "ake▁": 3538,
      "out": 3539,
      "e▁the▁": 3540,
      "▁D": 3541,
      "ell": 3542,
      "em": 3543,
      "▁with": 3544,
      "our": 3545,
      "ick": 3546,
      "e's▁": 3547,
      "it's▁": 3548,
      "ut": 3549,
      "uch": 3550,
      "ang": 3551,
      "od": 3552,
      "ing▁a": 3553,
      "hat": 3554,
      "car": 3555,
      "end": 3556,
      "ent▁": 3557,
      "▁wh": 3558,
      ",▁but▁": 3559,
      "ain": 3560,
      "ely▁": 3561,
      "▁for": 3562,
      "ep": 3563,
      "go": 3564,
      "▁tim": 3565,
      "mor": 3566,
      "eat": 3567,
      "▁ther": 3568,
      "id▁": 3569,
      "re▁": 3570,
      "ough": 3571,
      "other": 3572,
      "ack": 3573,
      "it.": 3574,
      "der": 3575,
      "ev": 3576,
      "ays▁": 3577,
      "can": 3578,
      "sp": 3579,
      "any▁": 3580,
      "your": 3581,
      "um": 3582,
      "rom": 3583,
      "over": 3584,
      "alk": 3585,
      "a▁": 3586,
      "fri": 3587,
      "ud": 3588,
      "ever": 3589,
      "ing.": 3590,
      "so": 3591,
      "▁don't▁": 3592,
      "ink": 3593,
      "here▁": 3594,
      "▁I▁w": 3595,
      "irl": 3596,
      "mat": 3597,
      "▁the▁b": 3598,
      "'re▁": 3599,
      "fter": 3600,
      "▁sh": 3601,
      "▁It": 3602,
      "e▁th": 3603,
      "s▁to▁": 3604,
      "▁my▁": 3605,
      "ad▁": 3606,
      "▁then": 3607,
      "es.": 3608,
      "ish": 3609,
      "no▁": 3610,
      "iv": 3611,
      "ood": 3612,
      "ef": 3613,
      "eople▁": 3614,
      "pp": 3615,
      "ed.": 3616,
      "㗎。": 3617,
      "e▁of": 3618,
      "do▁": 3619,
      "ese▁": 3620,
      "▁your": 3621,
      "，你": 3622,
      "will": 3623,
      "ing▁to▁": 3624,
      "ong▁": 3625,
      "ation": 3626,
      "don't▁": 3627,
      "an▁": 3628,
      "cl": 3629,
      "ng": 3630,
      "，佢": 3631,
      "any": 3632,
      "▁have▁": 3633,
      "ous": 3634,
      "ome": 3635,
      "▁the▁t": 3636,
      "▁In": 3637,
      "鍾意": 3638,
      "int": 3639,
      "ant▁to▁": 3640,
      "con": 3641,
      "you▁": 3642,
      "own": 3643,
      "都唔": 3644,
      "s▁of": 3645,
      "▁the▁p": 3646,
      "just▁": 3647,
      "▁his▁": 3648,
      "▁It's▁": 3649,
      "啦。": 3650,
      "▁tr": 3651,
      "son": 3652,
      "喇。": 3653,
      "res": 3654,
      "old▁": 3655,
      "work": 3656,
      "▁She▁": 3657,
      "▁今": 3658,
      "▁on": 3659,
      "，唔": 3660,
      "ast": 3661,
      "end▁": 3662,
      "而家": 3663,
      "wo▁": 3664,
      "ct": 3665,
      "est": 3666,
      "▁he▁": 3667,
      "ive▁": 3668,
      "嘅。": 3669,
      "ight": 3670,
      "▁they▁": 3671,
      "▁him": 3672,
      "comp": 3673,
      "ob": 3674,
      "get": 3675,
      "▁thing": 3676,
      "urn": 3677,
      "▁them": 3678,
      "ight▁": 3679,
      "fin": 3680,
      "girl": 3681,
      "look": 3682,
      "▁the▁m": 3683,
      "▁My▁": 3684,
      "▁O": 3685,
      "▁個": 3686,
      "sa": 3687,
      "ist": 3688,
      "▁I▁": 3689,
      "▁As▁": 3690,
      "some▁": 3691,
      "had▁": 3692,
      "not": 3693,
      "ric": 3694,
      "▁有": 3695,
      "art": 3696,
      "bl": 3697,
      "ood▁": 3698,
      "ea": 3699,
      "go▁": 3700,
      "me▁": 3701,
      "by▁": 3702,
      "▁If": 3703,
      "ast▁": 3704,
      "need▁to▁": 3705,
      "▁I'm": 3706,
      "get▁": 3707,
      "▁do": 3708,
      "▁L": 3709,
      "su": 3710,
      "▁that": 3711,
      "▁E": 3712,
      "he's▁": 3713,
      "，但": 3714,
      "▁Th": 3715,
      "let": 3716,
      "ong▁K": 3717,
      "year": 3718,
      "s▁are▁": 3719,
      "ing▁s": 3720,
      "I'": 3721,
      "eal": 3722,
      "ov": 3723,
      "ess": 3724,
      "from": 3725,
      "I▁w": 3726,
      "ard": 3727,
      "use▁": 3728,
      "in▁the▁": 3729,
      "oy": 3730,
      "香港": 3731,
      "matter": 3732,
      "ff": 3733,
      "le.": 3734,
      "come▁": 3735,
      "eel": 3736,
      ",▁as▁": 3737,
      "▁her": 3738,
      "been": 3739,
      "ca": 3740,
      "ere▁": 3741,
      "朋友": 3742,
      "act": 3743,
      "▁the▁s": 3744,
      "still": 3745,
      "▁B": 3746,
      "like▁t": 3747,
      "ew": 3748,
      "off": 3749,
      "read": 3750,
      "a▁b": 3751,
      "gr": 3752,
      "▁N": 3753,
      "成日": 3754,
      "▁take▁": 3755,
      "ok": 3756,
      "aw": 3757,
      "ock": 3758,
      "▁be▁": 3759,
      "old": 3760,
      "dr": 3761,
      "eat▁": 3762,
      "都係": 3763,
      "ust": 3764,
      "ass": 3765,
      "ark": 3766,
      "▁re": 3767,
      "anc": 3768,
      "does": 3769,
      "e!": 3770,
      "▁C": 3771,
      "itt": 3772,
      "ly": 3773,
      "ut▁": 3774,
      "people▁": 3775,
      "new": 3776,
      "a▁p": 3777,
      "sel": 3778,
      "ould": 3779,
      "like▁": 3780,
      "▁Don't▁": 3781,
      "ber": 3782,
      "atch": 3783,
      "ong▁Kong": 3784,
      "我哋": 3785,
      "e?": 3786,
      "she▁": 3787,
      "mone": 3788,
      "a▁c": 3789,
      "▁think": 3790,
      ",▁so": 3791,
      "cr": 3792,
      "ort": 3793,
      "day▁": 3794,
      "ght": 3795,
      "，好": 3796,
      "ool": 3797,
      "ost▁": 3798,
      "▁mone": 3799,
      "s▁in": 3800,
      ",▁he▁": 3801,
      "▁我哋": 3802,
      "▁can't▁": 3803,
      "se▁": 3804,
      "喺度": 3805,
      "llar": 3806,
      "▁has▁": 3807,
      "au": 3808,
      "可以": 3809,
      "s▁and▁": 3810,
      "▁hav": 3811,
      "ound▁": 3812,
      "唔係": 3813,
      "ate▁": 3814,
      "day": 3815,
      "fl": 3816,
      "doesn't▁": 3817,
      "a▁l": 3818,
      "唔到": 3819,
      "young": 3820,
      "friend": 3821,
      "pr": 3822,
      "sid": 3823,
      "乜嘢": 3824,
      "▁I've▁": 3825,
      "俾人": 3826,
      "ret": 3827,
      "ater": 3828,
      "個人": 3829,
      "ect": 3830,
      "how": 3831,
      "▁啲": 3832,
      "hav": 3833,
      "▁be": 3834,
      "▁He's▁": 3835,
      "e▁is▁": 3836,
      "▁When": 3837,
      "back": 3838,
      "▁so▁": 3839,
      "ound": 3840,
      "even": 3841,
      "ip": 3842,
      "▁P": 3843,
      "好多": 3844,
      "▁talk": 3845,
      "self": 3846,
      "much": 3847,
      "ose▁": 3848,
      "cc": 3849,
      "啦！": 3850,
      "hey▁": 3851,
      "▁tak": 3852,
      "，真係": 3853,
      "av": 3854,
      "row": 3855,
      "▁two▁": 3856,
      "▁the▁w": 3857,
      "sm": 3858,
      "enc": 3859,
      "ire": 3860,
      "ile▁": 3861,
      "a▁s": 3862,
      "good": 3863,
      "▁How": 3864,
      "▁their": 3865,
      "hin": 3866,
      "ways▁": 3867,
      "▁go": 3868,
      "所以": 3869,
      ",▁and": 3870,
      "every": 3871,
      "iz": 3872,
      "，所以": 3873,
      "on▁the▁": 3874,
      "▁as": 3875,
      "ouldn't▁": 3876,
      "a▁m": 3877,
      "▁com": 3878,
      "idn't▁": 3879,
      "ers▁": 3880,
      "ard▁": 3881,
      "ree▁": 3882,
      "e,▁so▁": 3883,
      "ey": 3884,
      "▁n": 3885,
      "▁had▁": 3886,
      "dis": 3887,
      "fir": 3888,
      "ry▁": 3889,
      "▁佢哋": 3890,
      "oth": 3891,
      "▁F": 3892,
      "oss": 3893,
      "soon": 3894,
      "uck": 3895,
      "▁up": 3896,
      "for▁": 3897,
      "有啲": 3898,
      "▁It▁": 3899,
      "ess▁": 3900,
      "▁turn": 3901,
      "'s": 3902,
      "gu": 3903,
      "a▁f": 3904,
      "er.": 3905,
      "ice▁": 3906,
      "friend▁": 3907,
      "▁If▁you": 3908,
      "like▁that": 3909,
      "ily▁": 3910,
      "ole▁": 3911,
      "we": 3912,
      "，唔好": 3913,
      "fore▁": 3914,
      "▁al": 3915,
      "ame▁": 3916,
      "佢哋": 3917,
      "more▁": 3918,
      "▁a▁l": 3919,
      "▁After": 3920,
      "▁to▁the▁": 3921,
      "dollar": 3922,
      "person": 3923,
      "一個": 3924,
      "ant▁": 3925,
      "etter": 3926,
      "anyth": 3927,
      "bout▁": 3928,
      "some": 3929,
      "▁What▁": 3930,
      "omet": 3931,
      "alread": 3932,
      "ash": 3933,
      "pro": 3934,
      "ty▁": 3935,
      "▁嗰": 3936,
      "▁His▁": 3937,
      "屋企": 3938,
      "自己": 3939,
      "，就": 3940,
      "rain": 3941,
      "ind": 3942,
      "es▁to▁": 3943,
      "▁Why▁": 3944,
      "▁time▁": 3945,
      ",▁I": 3946,
      "ph": 3947,
      "opp": 3948,
      "oll": 3949,
      "we▁": 3950,
      "y▁to▁": 3951,
      "ing▁the▁": 3952,
      "'ll": 3953,
      "佢。": 3954,
      "▁all": 3955,
      "▁今日": 3956,
      "'t": 3957,
      "night▁": 3958,
      "'ve▁": 3959,
      "got▁": 3960,
      "▁it▁": 3961,
      "▁was▁": 3962,
      "ody▁": 3963,
      "air": 3964,
      "were▁": 3965,
      "about▁": 3966,
      "▁Tod": 3967,
      "e,▁": 3968,
      "ru": 3969,
      "say": 3970,
      "arri": 3971,
      "▁work": 3972,
      "e▁to": 3973,
      "after": 3974,
      "want": 3975,
      "letely▁": 3976,
      "都冇": 3977,
      "▁You▁": 3978,
      "st▁": 3979,
      "同佢": 3980,
      "，一": 3981,
      "▁the▁c": 3982,
      "▁a▁": 3983,
      "also▁": 3984,
      "eak": 3985,
      "▁or": 3986,
      "ade▁": 3987,
      "e▁with": 3988,
      "who▁": 3989,
      "▁喺": 3990,
      "公司": 3991,
      "stud": 3992,
      "elp": 3993,
      "oss▁": 3994,
      "bus": 3995,
      "sc": 3996,
      "uff": 3997,
      "way": 3998,
      "ens": 3999,
      "rem": 4000,
      "▁I▁don't▁": 4001,
      "ing▁for": 4002,
      "ght▁": 4003,
      "▁there▁": 4004,
      "can't▁": 4005,
      "eg": 4006,
      "ull": 4007,
      "like▁to▁": 4008,
      "already▁": 4009,
      ",▁then": 4010,
      "ing▁in": 4011,
      "▁still": 4012,
      "bo": 4013,
      "would▁": 4014,
      "啲嘢": 4015,
      "，有": 4016,
      "only▁": 4017,
      "always▁": 4018,
      "by": 4019,
      "fic": 4020,
      "wor": 4021,
      "如果": 4022,
      "ed▁the▁": 4023,
      "ign": 4024,
      "I'm": 4025,
      "ble": 4026,
      "eep": 4027,
      "ure": 4028,
      "ank": 4029,
      "app": 4030,
      "down": 4031,
      "got": 4032,
      "make▁": 4033,
      "att": 4034,
      "▁how": 4035,
      "▁呢個": 4036,
      "feel": 4037,
      "咁多": 4038,
      "經已": 4039,
      "▁They▁": 4040,
      "sever": 4041,
      "gether": 4042,
      "▁一": 4043,
      "▁at▁": 4044,
      "▁will": 4045,
      "▁That▁": 4046,
      "into▁": 4047,
      "ed▁with": 4048,
      "imp": 4049,
      "morn": 4050,
      "a▁g": 4051,
      "▁it": 4052,
      "oup": 4053,
      "▁He▁is▁": 4054,
      "under": 4055,
      "him.": 4056,
      "lo": 4057,
      "t.": 4058,
      "e▁and▁": 4059,
      "▁such": 4060,
      "he▁was▁": 4061,
      "lef": 4062,
      "▁You're▁": 4063,
      "ach": 4064,
      "mak": 4065,
      "▁J": 4066,
      "▁I▁s": 4067,
      "，不": 4068,
      "leep": 4069,
      "long": 4070,
      "ed▁by▁": 4071,
      "chool": 4072,
      "liv": 4073,
      "are▁you": 4074,
      "br": 4075,
      "dri": 4076,
      "man": 4077,
      "▁ch": 4078,
      "▁cour": 4079,
      "ave▁": 4080,
      "ather": 4081,
      "e▁wh": 4082,
      "I▁": 4083,
      "eas": 4084,
      "唔知": 4085,
      "，點": 4086,
      "orrow": 4087,
      "▁pl": 4088,
      "▁These▁": 4089,
      "ap": 4090,
      "y,▁so▁": 4091,
      "▁R": 4092,
      "之後": 4093,
      "見到": 4094,
      "▁tw": 4095,
      "eful": 4096,
      "ovi": 4097,
      "s,▁so▁": 4098,
      "well": 4099,
      "噉。": 4100,
      "因為": 4101,
      "est▁": 4102,
      "leas": 4103,
      "when": 4104,
      "exp": 4105,
      "▁唔好": 4106,
      "，而家": 4107,
      "ed▁up": 4108,
      "ask": 4109,
      "soon▁as▁": 4110,
      "▁Today▁": 4111,
      "▁then▁": 4112,
      "▁some▁": 4113,
      "▁must▁": 4114,
      "▁Hong▁Kong": 4115,
      "all▁": 4116,
      "if▁you": 4117,
      "▁there's▁": 4118,
      "今日": 4119,
      "▁a▁b": 4120,
      "und": 4121,
      "▁things▁": 4122,
      "▁G": 4123,
      "t▁of": 4124,
      "en't▁": 4125,
      "ich": 4126,
      "able▁": 4127,
      "▁should▁": 4128,
      "several": 4129,
      "ele": 4130,
      "lat": 4131,
      "rong": 4132,
      "say▁": 4133,
      "人哋": 4134,
      "話，": 4135,
      "ous▁": 4136,
      "find▁": 4137,
      "better": 4138,
      "ial": 4139,
      "job": 4140,
      "▁not▁": 4141,
      "ed▁in": 4142,
      "▁fac": 4143,
      "buy▁": 4144,
      "▁too▁": 4145,
      "plac": 4146,
      "completely▁": 4147,
      "Chin": 4148,
      "啊！": 4149,
      "梗係": 4150,
      "▁what▁": 4151,
      "but": 4152,
      "▁Some▁": 4153,
      "see▁": 4154,
      "for▁you": 4155,
      "s▁that▁": 4156,
      "out▁of": 4157,
      "no": 4158,
      "wear": 4159,
      "覺得": 4160,
      "ind▁": 4161,
      "e▁the": 4162,
      "▁There▁": 4163,
      "play": 4164,
      "said▁": 4165,
      "㗎！": 4166,
      "邊個": 4167,
      "ity▁": 4168,
      "beca": 4169,
      "▁I▁was▁": 4170,
      "▁the▁tim": 4171,
      "ib": 4172,
      "ment": 4173,
      "must▁": 4174,
      "what▁": 4175,
      "▁it.": 4176,
      "呢個": 4177,
      "喎。": 4178,
      "rest": 4179,
      "▁we▁": 4180,
      "e▁that▁": 4181,
      "usb": 4182,
      "become▁": 4183,
      "其實": 4184,
      "ition": 4185,
      "，但係": 4186,
      "Hong▁Kong": 4187,
      "ce▁": 4188,
      "ment▁": 4189,
      "onth": 4190,
      "around▁": 4191,
      "ett": 4192,
      "▁together": 4193,
      "again": 4194,
      "ext": 4195,
      "㗎？": 4196,
      "出嚟": 4197,
      "咗。": 4198,
      "rep": 4199,
      "▁want▁to▁": 4200,
      "▁people▁": 4201,
      "▁He▁was▁": 4202,
      "into": 4203,
      "cover": 4204,
      "s,▁": 4205,
      "tain": 4206,
      "was": 4207,
      "，係": 4208,
      "age▁": 4209,
      "▁comp": 4210,
      "give▁": 4211,
      "good▁": 4212,
      "ry": 4213,
      "us▁": 4214,
      "▁老": 4215,
      "嘢。": 4216,
      "女仔": 4217,
      "▁these▁": 4218,
      "▁three▁": 4219,
      "arg": 4220,
      "happ": 4221,
      "et.": 4222,
      "▁The▁b": 4223,
      "▁有啲": 4224,
      "help": 4225,
      "兩個": 4226,
      "架車": 4227,
      "▁tell": 4228,
      "▁do▁": 4229,
      "▁gu": 4230,
      "been▁": 4231,
      "ittle▁": 4232,
      "fer": 4233,
      "ful": 4234,
      "ix": 4235,
      "mer": 4236,
      "ven": 4237,
      "or▁": 4238,
      "▁a▁s": 4239,
      "ed▁and▁": 4240,
      "lear": 4241,
      "▁feel": 4242,
      "▁look": 4243,
      "whole▁": 4244,
      "▁As▁for": 4245,
      "ail": 4246,
      "▁te": 4247,
      "ine▁": 4248,
      "before▁": 4249,
      "careful": 4250,
      "everal": 4251,
      "e▁thing": 4252,
      "，不過": 4253,
      "▁琴": 4254,
      "唔使": 4255,
      "an▁a": 4256,
      "▁He▁has▁": 4257,
      "▁I'll": 4258,
      "ress": 4259,
      "each": 4260,
      "▁Just▁": 4261,
      "keep": 4262,
      "me": 4263,
      "many▁": 4264,
      "made▁": 4265,
      "ug": 4266,
      "way▁": 4267,
      "細路": 4268,
      "room": 4269,
      "▁Last▁": 4270,
      "big": 4271,
      "didn't▁": 4272,
      "hand": 4273,
      "such": 4274,
      "快啲": 4275,
      "食。": 4276,
      "red▁": 4277,
      "right": 4278,
      "acc": 4279,
      "▁go▁": 4280,
      "ometh": 4281,
      "a▁h": 4282,
      "boy": 4283,
      "low": 4284,
      "人。": 4285,
      "，冇": 4286,
      "enough": 4287,
      "▁mor": 4288,
      "▁Your": 4289,
      "body▁": 4290,
      "▁We▁": 4291,
      "udd": 4292,
      "ax": 4293,
      "ies▁": 4294,
      "▁one▁": 4295,
      "art▁": 4296,
      "red": 4297,
      "▁per": 4298,
      "▁when": 4299,
      "noth": 4300,
      "dif": 4301,
      "rit": 4302,
      "s?": 4303,
      "want▁to▁": 4304,
      "s▁with": 4305,
      "▁sa": 4306,
      "▁by▁": 4307,
      "e▁was▁": 4308,
      "money▁": 4309,
      "ly.": 4310,
      "po": 4311,
      "有冇": 4312,
      "erv": 4313,
      ",▁you": 4314,
      "out.": 4315,
      "a▁t": 4316,
      "pret": 4317,
      "wif": 4318,
      "呢度": 4319,
      "好似": 4320,
      "has": 4321,
      "reat": 4322,
      "▁I▁have▁": 4323,
      "▁br": 4324,
      "let▁": 4325,
      "▁All": 4326,
      "go▁to▁": 4327,
      "even▁": 4328,
      "aper": 4329,
      "hot": 4330,
      "頭先": 4331,
      "▁a▁m": 4332,
      "▁佢係": 4333,
      "very": 4334,
      "▁呢啲": 4335,
      "▁Do▁": 4336,
      "▁On": 4337,
      "▁Now": 4338,
      "e,▁and▁": 4339,
      "med": 4340,
      "唔會": 4341,
      "都要": 4342,
      "▁se": 4343,
      "▁at": 4344,
      "▁int": 4345,
      "▁them.": 4346,
      "e-": 4347,
      "every▁": 4348,
      "watch": 4349,
      "件事": 4350,
      "小心": 4351,
      "▁till": 4352,
      "rec": 4353,
      "▁con": 4354,
      "ots▁of": 4355,
      "ult": 4356,
      "ctor": 4357,
      "同我": 4358,
      "得好": 4359,
      "邊度": 4360,
      "▁about▁": 4361,
      "▁Ther": 4362,
      ",▁so▁it's▁": 4363,
      "ents▁": 4364,
      "abl": 4365,
      "augh": 4366,
      "busin": 4367,
      "ait": 4368,
      "din": 4369,
      "peop": 4370,
      "put▁": 4371,
      "ron": 4372,
      "y-": 4373,
      "▁條": 4374,
      "點解": 4375,
      "，仲": 4376,
      "eng": 4377,
      "▁sp": 4378,
      "▁peop": 4379,
      "going▁to▁": 4380,
      "d.": 4381,
      "night": 4382,
      "pay▁": 4383,
      "sleep": 4384,
      "出去": 4385,
      "喎！": 4386,
      "得。": 4387,
      "都好": 4388,
      "inter": 4389,
      "▁this": 4390,
      "ary▁": 4391,
      "omorrow": 4392,
      "stre": 4393,
      "should▁": 4394,
      "why▁": 4395,
      "I▁was▁": 4396,
      "▁v": 4397,
      "都有": 4398,
      "eli": 4399,
      "▁get▁": 4400,
      "▁who▁": 4401,
      "wants▁to▁": 4402,
      "d▁to▁": 4403,
      "fra": 4404,
      "y?": 4405,
      "學生": 4406,
      "應該": 4407,
      "水。": 4408,
      "都幾": 4409,
      "ons": 4410,
      "真係好": 4411,
      "play▁": 4412,
      "，我哋": 4413,
      "ousand▁": 4414,
      "▁money▁": 4415,
      "a▁w": 4416,
      "a▁d": 4417,
      "me▁to▁": 4418,
      "ost": 4419,
      "won": 4420,
      "walk": 4421,
      "▁other": 4422,
      "▁如果": 4423,
      "咁大": 4424,
      "幾個": 4425,
      "，要": 4426,
      "you're▁": 4427,
      "shir": 4428,
      "do▁you": 4429,
      "me.": 4430,
      "y're▁": 4431,
      "▁is": 4432,
      "大家": 4433,
      "reg": 4434,
      "▁cl": 4435,
      "ember": 4436,
      "▁I▁want▁to▁": 4437,
      "▁Just▁now": 4438,
      "og": 4439,
      "y!": 4440,
      "▁而家": 4441,
      "ers.": 4442,
      "for▁m": 4443,
      "▁The▁t": 4444,
      "olice▁": 4445,
      "ent▁to▁": 4446,
      "▁that▁he▁": 4447,
      "ought▁": 4448,
      "ccer": 4449,
      "because▁": 4450,
      "days▁": 4451,
      "e,": 4452,
      "fac": 4453,
      "hard": 4454,
      "rough": 4455,
      "sur": 4456,
      "▁an▁": 4457,
      "做嘢": 4458,
      "嗰陣": 4459,
      "ing▁on": 4460,
      "ent.": 4461,
      "▁to▁take▁": 4462,
      "▁呢間": 4463,
      "able": 4464,
      "▁trou": 4465,
      "first": 4466,
      "I▁don't▁": 4467,
      "▁其實": 4468,
      "its▁": 4469,
      "reas": 4470,
      "▁time.": 4471,
      "speak": 4472,
      "ester": 4473,
      "bor": 4474,
      "▁唔": 4475,
      "記得": 4476,
      "of▁the▁": 4477,
      "▁didn't▁": 4478,
      "▁from": 4479,
      "▁你要": 4480,
      "▁What": 4481,
      "amn": 4482,
      "rok": 4483,
      "▁him.": 4484,
      "years▁": 4485,
      "drink": 4486,
      "usband▁": 4487,
      "aur": 4488,
      "fre": 4489,
      "sw": 4490,
      "s,▁and▁": 4491,
      "school": 4492,
      "你。": 4493,
      "喇！": 4494,
      "晒。": 4495,
      "▁those▁": 4496,
      "it▁was▁": 4497,
      "never": 4498,
      "▁in▁the▁": 4499,
      "▁that's▁": 4500,
      "▁fact▁": 4501,
      "call": 4502,
      "did▁": 4503,
      "fam": 4504,
      "oin": 4505,
      "rac": 4506,
      "啱啱": 4507,
      "chang": 4508,
      "e▁will": 4509,
      "▁course▁": 4510,
      "Chinese▁": 4511,
      "s!": 4512,
      "▁quite▁": 4513,
      "▁tri": 4514,
      "in▁a": 4515,
      "▁to▁be▁": 4516,
      "▁am": 4517,
      "ush": 4518,
      "olic": 4519,
      "umber": 4520,
      "finish": 4521,
      "hous": 4522,
      "marri": 4523,
      "㗎喇。": 4524,
      "去。": 4525,
      "啊。": 4526,
      "知道": 4527,
      "▁so": 4528,
      "oman": 4529,
      "▁dis": 4530,
      "right▁": 4531,
      "urry▁": 4532,
      "up▁and▁": 4533,
      "ot▁of": 4534,
      "nex": 4535,
      "▁of▁": 4536,
      "first▁": 4537,
      "luck": 4538,
      "▁she▁": 4539,
      "rel": 4540,
      "str": 4541,
      "ing▁and▁": 4542,
      "ally": 4543,
      "▁down": 4544,
      "▁The▁p": 4545,
      "ion.": 4546,
      "exam": 4547,
      "▁琴晚": 4548,
      "▁There's▁": 4549,
      ",▁the▁": 4550,
      "iec": 4551,
      "kid": 4552,
      "someth": 4553,
      "ten": 4554,
      "ually▁": 4555,
      "一齊": 4556,
      "先至": 4557,
      "聽日": 4558,
      "one.": 4559,
      "one▁to▁": 4560,
      "ing▁w": 4561,
      "ing▁with": 4562,
      "you▁can": 4563,
      "stuff": 4564,
      "▁佢話": 4565,
      "fort": 4566,
      "lip": 4567,
      "need": 4568,
      "I've▁": 4569,
      "like▁that.": 4570,
      "undred▁": 4571,
      "▁Last▁night▁": 4572,
      "件衫": 4573,
      "可能": 4574,
      "淨係": 4575,
      "食飯": 4576,
      "y▁is▁": 4577,
      "ay.": 4578,
      "▁fir": 4579,
      "ure▁": 4580,
      "ently▁": 4581,
      "seem": 4582,
      "able.": 4583,
      "ing▁about▁": 4584,
      "cer": 4585,
      "cook": 4586,
      "gain": 4587,
      "lost▁": 4588,
      "ub": 4589,
      "▁阿": 4590,
      "呀？": 4591,
      "有人": 4592,
      "有個": 4593,
      "生意": 4594,
      "▁tra": 4595,
      "resp": 4596,
      "ed▁for": 4597,
      "ale▁": 4598,
      "iss": 4599,
      "lif": 4600,
      ",▁so▁you": 4601,
      "▁got▁": 4602,
      "▁As▁soon▁as▁": 4603,
      "▁Every": 4604,
      "left▁": 4605,
      "extrem": 4606,
      "ai": 4607,
      "bout": 4608,
      "ee": 4609,
      "lish": 4610,
      "won't▁": 4611,
      "y,▁": 4612,
      "▁le": 4613,
      "囉。": 4614,
      "on't": 4615,
      "he▁is▁": 4616,
      "ed▁my▁": 4617,
      "girlfriend▁": 4618,
      "▁how▁to▁": 4619,
      "cor": 4620,
      "▁very▁": 4621,
      "仔。": 4622,
      "老細": 4623,
      "電話": 4624,
      "inv": 4625,
      "init": 4626,
      "y▁and▁": 4627,
      "start": 4628,
      "▁come▁": 4629,
      "light": 4630,
      "earn": 4631,
      "eca": 4632,
      "raw": 4633,
      "said": 4634,
      "bre": 4635,
      "kill": 4636,
      "lots▁of": 4637,
      "pay": 4638,
      "s▁have▁": 4639,
      "it?": 4640,
      "▁ad": 4641,
      "▁me▁": 4642,
      "form": 4643,
      "▁我想": 4644,
      "▁young": 4645,
      "open": 4646,
      "es▁in": 4647,
      "▁girl": 4648,
      "door": 4649,
      "▁stud": 4650,
      "ousand▁dollar": 4651,
      "extremely▁": 4652,
      "high": 4653,
      "lf": 4654,
      "▁it's▁": 4655,
      "▁頭先": 4656,
      "呢間": 4657,
      "咗一": 4658,
      "e▁this▁": 4659,
      "ed▁him": 4660,
      "ing▁is▁": 4661,
      "older": 4662,
      "▁Every▁": 4663,
      "▁have▁to▁": 4664,
      "▁order": 4665,
      "bad": 4666,
      "ier": 4667,
      "pit": 4668,
      "喇，": 4669,
      "嚟。": 4670,
      "老公": 4671,
      "老豆": 4672,
      "ing?": 4673,
      "ess.": 4674,
      "▁could▁": 4675,
      "illeg": 4676,
      "es▁are▁": 4677,
      "show": 4678,
      "ship": 4679,
      "▁Who▁": 4680,
      "how▁can": 4681,
      "▁For": 4682,
      "blem": 4683,
      "▁There▁are▁": 4684,
      "restaur": 4685,
      "diffic": 4686,
      "both": 4687,
      "giv": 4688,
      "most▁": 4689,
      "part": 4690,
      "大佬": 4691,
      "好大": 4692,
      "就係": 4693,
      "幫我": 4694,
      "▁through": 4695,
      "▁the▁f": 4696,
      "▁a▁p": 4697,
      "stand": 4698,
      "buy": 4699,
      "girlfriend": 4700,
      "ister": 4701,
      "udden": 4702,
      "coll": 4703,
      "just": 4704,
      "vis": 4705,
      "好鍾意": 4706,
      "日日": 4707,
      "老婆": 4708,
      "，又": 4709,
      "▁several": 4710,
      "▁after": 4711,
      "ately▁": 4712,
      "▁Her": 4713,
      "▁you.": 4714,
      "▁At": 4715,
      "does▁": 4716,
      "ild": 4717,
      "wonder": 4718,
      "di": 4719,
      "run": 4720,
      "唔得": 4721,
      "唔鍾意": 4722,
      "啫。": 4723,
      "s▁on": 4724,
      "outh": 4725,
      "ed▁by": 4726,
      "▁bu": 4727,
      "rid": 4728,
      "acher": 4729,
      "▁you▁": 4730,
      "likes▁to▁": 4731,
      "eat.": 4732,
      "efinit": 4733,
      "nglish": 4734,
      "lease▁": 4735,
      "aughter": 4736,
      "gam": 4737,
      "my": 4738,
      "咩？": 4739,
      "女朋友": 4740,
      "條女": 4741,
      "醫生": 4742,
      "ing!": 4743,
      "you.": 4744,
      "▁a▁f": 4745,
      "stor": 4746,
      "stit": 4747,
      "▁car": 4748,
      "▁bo": 4749,
      "▁back": 4750,
      "▁Where▁": 4751,
      "▁She's▁": 4752,
      "▁off": 4753,
      "ump": 4754,
      "ance▁": 4755,
      "ienc": 4756,
      "ner": 4757,
      "says▁": 4758,
      "▁an": 4759,
      "做乜": 4760,
      "先。": 4761,
      "呢啲": 4762,
      "咗個": 4763,
      "嘅，": 4764,
      "差佬": 4765,
      "我。": 4766,
      "ing,▁so▁": 4767,
      "▁the▁d": 4768,
      "▁couldn't▁": 4769,
      "here.": 4770,
      "▁he's▁": 4771,
      "qual": 4772,
      "quick": 4773,
      "being▁": 4774,
      "▁this▁matter": 4775,
      "cont": 4776,
      "eap": 4777,
      "細路仔": 4778,
      "ble▁": 4779,
      "came▁": 4780,
      "kind▁": 4781,
      "s▁the▁": 4782,
      "ting▁": 4783,
      "vel": 4784,
      "▁us": 4785,
      "▁and": 4786,
      "▁over": 4787,
      "波士": 4788,
      "▁ten": 4789,
      "it!": 4790,
      "ed▁on": 4791,
      "▁boy": 4792,
      "▁today": 4793,
      "▁In▁fact▁": 4794,
      "▁I▁don't▁know": 4795,
      "e▁who▁": 4796,
      "efinitely▁": 4797,
      "BB": 4798,
      "I▁can't▁": 4799,
      "▁香港": 4800,
      "個仔": 4801,
      "嘅嘢": 4802,
      "工作": 4803,
      "幾多": 4804,
      "都會": 4805,
      "e▁tim": 4806,
      "all.": 4807,
      "▁hear": 4808,
      "irt": 4809,
      "road": 4810,
      "ount": 4811,
      "e▁than": 4812,
      "▁the▁mone": 4813,
      "pris": 4814,
      "for▁you▁to▁": 4815,
      "e,▁but▁": 4816,
      "full": 4817,
      "ies.": 4818,
      "vant": 4819,
      "㗎，": 4820,
      "吖？": 4821,
      "咗佢": 4822,
      "問題": 4823,
      "啲。": 4824,
      "噉，": 4825,
      "▁tomorrow": 4826,
      "▁gr": 4827,
      "up.": 4828,
      "en▁he▁": 4829,
      "shop": 4830,
      "ction": 4831,
      "ing▁so▁": 4832,
      "▁No▁": 4833,
      "▁a▁long": 4834,
      "ometim": 4835,
      "expens": 4836,
      "axi": 4837,
      "▁person": 4838,
      "▁brother": 4839,
      "▁into▁": 4840,
      "ee▁": 4841,
      "husband▁": 4842,
      "ma": 4843,
      "min": 4844,
      "month": 4845,
      "▁if": 4846,
      "唔夠": 4847,
      "攪到": 4848,
      "時間": 4849,
      "頭。": 4850,
      "s▁for": 4851,
      "▁say": 4852,
      "▁say▁": 4853,
      "ite▁": 4854,
      "stand▁": 4855,
      "▁what": 4856,
      "ower": 4857,
      "▁me.": 4858,
      "ict": 4859,
      "list": 4860,
      "rais": 4861,
      "morning": 4862,
      "makes▁": 4863,
      "▁there's▁no▁": 4864,
      "fraid▁": 4865,
      "I▁have▁": 4866,
      "book": 4867,
      "par": 4868,
      "得咁": 4869,
      "突然": 4870,
      "話佢": 4871,
      "錢。": 4872,
      "s▁is▁": 4873,
      "▁than": 4874,
      "enter": 4875,
      "ity.": 4876,
      "hair": 4877,
      "ed▁her": 4878,
      "al▁": 4879,
      "head": 4880,
      "sex": 4881,
      "about": 4882,
      "roll": 4883,
      "▁of▁the▁": 4884,
      "will▁be▁": 4885,
      "class": 4886,
      "▁things.": 4887,
      "I'll": 4888,
      "worth": 4889,
      "nois": 4890,
      "▁Do▁you": 4891,
      "kind▁of": 4892,
      "-t": 4893,
      "brok": 4894,
      "ious▁": 4895,
      "個女": 4896,
      "嘅人": 4897,
      "嘞。": 4898,
      "e▁two▁": 4899,
      ",▁but": 4900,
      "ed▁his▁": 4901,
      "ott": 4902,
      ",▁so▁he▁": 4903,
      "oper": 4904,
      "ung": 4905,
      "▁Al": 4906,
      "head▁": 4907,
      "▁You've▁": 4908,
      "▁呢度": 4909,
      "doctor": 4910,
      "be▁so▁": 4911,
      "ept▁": 4912,
      "ation.": 4913,
      "obile▁": 4914,
      "▁haven't▁": 4915,
      "a▁lot▁of": 4916,
      "▁guy": 4917,
      "urry▁up▁and▁": 4918,
      "stitut": 4919,
      "vantag": 4920,
      "fall": 4921,
      "同埋": 4922,
      "男友": 4923,
      "開始": 4924,
      "ous.": 4925,
      "arm": 4926,
      "▁sm": 4927,
      "atter": 4928,
      "leg": 4929,
      "irth": 4930,
      "▁pr": 4931,
      "amp": 4932,
      "sell": 4933,
      "▁呢條": 4934,
      "exper": 4935,
      "anger": 4936,
      "company▁": 4937,
      "a.": 4938,
      "couldn't▁": 4939,
      "h.": 4940,
      "ious": 4941,
      "last▁": 4942,
      "▁k": 4943,
      "▁咁": 4944,
      "▁our": 4945,
      "唔想": 4946,
      "囉！": 4947,
      "舒服": 4948,
      "開心": 4949,
      "en.": 4950,
      "ort▁": 4951,
      "▁some": 4952,
      "▁a▁c": 4953,
      "▁I▁had▁": 4954,
      "▁fri": 4955,
      "ongk": 4956,
      "then": 4957,
      "▁呢排": 4958,
      "▁which": 4959,
      "your▁": 4960,
      "clos": 4961,
      "cloth": 4962,
      "you▁need▁to▁": 4963,
      "▁said▁": 4964,
      "able▁to▁": 4965,
      "mov": 4966,
      "movi": 4967,
      "n't": 4968,
      "ove▁": 4969,
      "sal": 4970,
      "water": 4971,
      "▁睇": 4972,
      "▁really▁": 4973,
      "同你": 4974,
      "嗰個": 4975,
      "度。": 4976,
      "星期": 4977,
      "結婚": 4978,
      "英文": 4979,
      "on.": 4980,
      "around": 4981,
      ",▁it's▁": 4982,
      "ing▁d": 4983,
      "▁is▁so▁": 4984,
      "▁while▁": 4985,
      "▁I▁will": 4986,
      "▁今晚": 4987,
      "▁I▁really▁": 4988,
      "，好似": 4989,
      "ired▁": 4990,
      "▁turns▁": 4991,
      "e▁them": 4992,
      "into▁the▁": 4993,
      "ci": 4994,
      "what": 4995,
      "古惑": 4996,
      "唔記得": 4997,
      "嗰啲": 4998,
      "幾時": 4999,
      "知佢": 5000,
      "考試": 5001,
      "e▁in": 5002,
      "▁a▁h": 5003,
      "e▁they▁": 5004,
      "owl": 5005,
      "al.": 5006,
      "▁佢好": 5007,
      "all▁the▁tim": 5008,
      "usin": 5009,
      "▁pro": 5010,
      "es▁and▁": 5011,
      "▁they're▁": 5012,
      "▁is▁very▁": 5013,
      "no▁wonder": 5014,
      "rice▁": 5015,
      "oke▁": 5016,
      "boyfriend▁": 5017,
      "aut": 5018,
      "cle": 5019,
      "care▁": 5020,
      "▁j": 5021,
      "▁做": 5022,
      "▁are▁": 5023,
      "▁out▁": 5024,
      "▁not": 5025,
      "一次": 5026,
      "俾佢": 5027,
      "冇人": 5028,
      "司機": 5029,
      "氣。": 5030,
      "的士": 5031,
      "▁told▁": 5032,
      "▁tast": 5033,
      "▁thes": 5034,
      "ann": 5035,
      "arily▁": 5036,
      "itch": 5037,
      "is▁quite▁": 5038,
      "▁I▁can't▁": 5039,
      "▁佢喺": 5040,
      ",▁so▁don't▁": 5041,
      "idd": 5042,
      "upp": 5043,
      "ant.": 5044,
      ",▁and▁don't▁": 5045,
      "rap": 5046,
      "comm": 5047,
      "out▁to▁": 5048,
      "▁Of": 5049,
      "▁also▁": 5050,
      "▁You▁need▁to▁": 5051,
      "▁there▁are▁": 5052,
      "gotten": 5053,
      "▁twent": 5054,
      "wife▁": 5055,
      "medi": 5056,
      "bab": 5057,
      "bod": 5058,
      "ies": 5059,
      "oc": 5060,
      "uc": 5061,
      "ue▁": 5062,
      "一定": 5063,
      "冇乜": 5064,
      "吓。": 5065,
      "唔識": 5066,
      "警察": 5067,
      "▁thousand▁dollar": 5068,
      "ouse": 5069,
      "or.": 5070,
      "▁to▁get▁": 5071,
      "ing▁my▁": 5072,
      "isn't▁": 5073,
      "▁dri": 5074,
      "though": 5075,
      "ildr": 5076,
      "▁on▁the▁": 5077,
      "arket▁": 5078,
      "sider": 5079,
      "someone▁": 5080,
      "driver": 5081,
      "uddenly▁": 5082,
      ",▁as": 5083,
      "ball": 5084,
      "four": 5085,
      "number": 5086,
      "▁咪": 5087,
      "原來": 5088,
      "餐廳": 5089,
      "，個": 5090,
      "，梗係": 5091,
      "s▁were▁": 5092,
      "ener": 5093,
      "itu": 5094,
      "cheap": 5095,
      "▁gam": 5096,
      "unt": 5097,
      "ention": 5098,
      "▁You▁don't▁": 5099,
      "quite▁w": 5100,
      "knows▁": 5101,
      "know▁how▁to▁": 5102,
      "ult▁": 5103,
      "soccer": 5104,
      "▁今朝": 5105,
      "obody▁": 5106,
      "business▁": 5107,
      "illegal": 5108,
      "iver": 5109,
      "ract": 5110,
      "she's▁": 5111,
      "went▁": 5112,
      "▁r": 5113,
      "▁now": 5114,
      "噉樣": 5115,
      "因住": 5116,
      "男朋友": 5117,
      "細佬": 5118,
      "辛苦": 5119,
      "，啲": 5120,
      "inc": 5121,
      "order": 5122,
      "he▁has▁": 5123,
      "▁佢一": 5124,
      "immedi": 5125,
      "ely": 5126,
      "▁fron": 5127,
      "es▁of": 5128,
      "▁你咁": 5129,
      "▁We": 5130,
      "unch": 5131,
      "▁Are▁": 5132,
      "himself": 5133,
      "eather": 5134,
      "ought": 5135,
      "，佢哋": 5136,
      "anymor": 5137,
      "▁before▁": 5138,
      "▁ask": 5139,
      "phot": 5140,
      "appear": 5141,
      "shirt▁": 5142,
      "experienc": 5143,
      "cop": 5144,
      "ean": 5145,
      "ead": 5146,
      "gl": 5147,
      "hand▁": 5148,
      "hard▁": 5149,
      "mp": 5150,
      "y,▁and▁": 5151,
      "即刻": 5152,
      "讀書": 5153,
      "▁sister": 5154,
      "▁again": 5155,
      "sty": 5156,
      "▁The": 5157,
      ",▁it▁": 5158,
      "leav": 5159,
      "▁dr": 5160,
      "▁there.": 5161,
      "ive.": 5162,
      "，佢就": 5163,
      "ong▁Kong▁": 5164,
      "ustom": 5165,
      "money.": 5166,
      "▁money.": 5167,
      "have▁to▁": 5168,
      "▁It▁was▁": 5169,
      "a▁few": 5170,
      "▁I▁saw": 5171,
      "ometimes▁": 5172,
      "cess": 5173,
      "hang": 5174,
      "ili": 5175,
      "pass": 5176,
      "仲未": 5177,
      "到佢": 5178,
      "十幾": 5179,
      "去咗": 5180,
      "好唔": 5181,
      "差人": 5182,
      "買咗": 5183,
      "▁ter": 5184,
      "is▁so▁": 5185,
      "read▁": 5186,
      "stru": 5187,
      "▁we": 5188,
      "e▁talk": 5189,
      "ed?": 5190,
      "ed,▁so▁": 5191,
      "live▁": 5192,
      "rib": 5193,
      "road▁": 5194,
      "ect▁": 5195,
      "really▁quite▁": 5196,
      "ing▁at▁": 5197,
      "spaper": 5198,
      "▁Let": 5199,
      "▁Beca": 5200,
      "like▁that▁": 5201,
      "old.": 5202,
      "newspaper": 5203,
      "▁You▁are▁": 5204,
      "learn": 5205,
      "each▁other": 5206,
      "▁Although": 5207,
      "az": 5208,
      "a▁st": 5209,
      "dec": 5210,
      "father": 5211,
      "home": 5212,
      "sk": 5213,
      "sl": 5214,
      "uter": 5215,
      "ve": 5216,
      "▁like▁": 5217,
      "▁因為": 5218,
      "佢嘅": 5219,
      "個月": 5220,
      "報紙": 5221,
      "工。": 5222,
      "怪得": 5223,
      "男人": 5224,
      "畀你": 5225,
      "講嘢": 5226,
      "雖然": 5227,
      "電視": 5228,
      "，成日": 5229,
      "is▁very▁": 5230,
      "stock": 5231,
      "ing▁m": 5232,
      ",▁and▁so▁": 5233,
      "，唔使": 5234,
      "suit": 5235,
      "caus": 5236,
      "everyth": 5237,
      "anything.": 5238,
      "▁Rec": 5239,
      "▁如果你": 5240,
      "'r": 5241,
      "English": 5242,
      "cal": 5243,
      "deal": 5244,
      "dition": 5245,
      "fast": 5246,
      "gan": 5247,
      "hj": 5248,
      "his": 5249,
      "hur": 5250,
      "ile": 5251,
      "kick": 5252,
      "以為": 5253,
      "啦，": 5254,
      "嚟講": 5255,
      "幾日": 5256,
      "有好多": 5257,
      "聲。": 5258,
      "▁took": 5259,
      "▁app": 5260,
      "ome.": 5261,
      "▁To▁": 5262,
      "ing▁p": 5263,
      "ing▁up": 5264,
      "her.": 5265,
      "ice.": 5266,
      "allow": 5267,
      "usp": 5268,
      "is▁the▁": 5269,
      "ire▁": 5270,
      "▁you're▁": 5271,
      "▁With": 5272,
      "ospit": 5273,
      "so▁much": 5274,
      "and▁then": 5275,
      "willing▁to▁": 5276,
      "looks▁": 5277,
      "▁dollar": 5278,
      "good.": 5279,
      "▁always▁": 5280,
      "onsib": 5281,
      "reason": 5282,
      "ait▁": 5283,
      "dist": 5284,
      "daughter": 5285,
      "ek": 5286,
      "far": 5287,
      "hundred▁": 5288,
      "may▁": 5289,
      "o'": 5290,
      "put": 5291,
      "sick": 5292,
      "scar": 5293,
      "ual": 5294,
      "yet▁": 5295,
      "▁係": 5296,
      "做。": 5297,
      "同學": 5298,
      "巴士": 5299,
      "畀佢": 5300,
      "返屋企": 5301,
      "銀行": 5302,
      "間屋": 5303,
      "阿媽": 5304,
      "reat▁": 5305,
      "▁about": 5306,
      "ated▁": 5307,
      "▁water": 5308,
      ",▁\"": 5309,
      "ed▁me▁": 5310,
      "▁che": 5311,
      "▁much": 5312,
      "▁better": 5313,
      "imm": 5314,
      ",▁she▁": 5315,
      "▁hand": 5316,
      "becom": 5317,
      "e▁were▁": 5318,
      "▁is▁quite▁": 5319,
      "be▁careful": 5320,
      "comfort": 5321,
      "has▁been": 5322,
      "look▁for": 5323,
      "▁take▁the▁": 5324,
      "small": 5325,
      "▁今日我": 5326,
      "ure.": 5327,
      "a▁good▁": 5328,
      "▁play": 5329,
      "▁more▁": 5330,
      "▁Are▁you": 5331,
      "dish": 5332,
      "damn": 5333,
      "o.": 5334,
      "poss": 5335,
      "仔，": 5336,
      "出街": 5337,
      "同事": 5338,
      "咗，": 5339,
      "唔見": 5340,
      "數。": 5341,
      "畀我": 5342,
      "睇吓": 5343,
      "舖頭": 5344,
      "ing▁that▁": 5345,
      "arr": 5346,
      "rew": 5347,
      "▁a▁g": 5348,
      "of▁course▁": 5349,
      "▁man": 5350,
      "▁definitely▁": 5351,
      "▁St": 5352,
      "without▁": 5353,
      "outsid": 5354,
      "▁the▁boss▁": 5355,
      "都唔知": 5356,
      "▁try": 5357,
      "okay": 5358,
      "ortun": 5359,
      "eyes▁": 5360,
      "▁team": 5361,
      "did▁you": 5362,
      "hjong": 5363,
      "cha": 5364,
      "cas": 5365,
      "could▁": 5366,
      "fell": 5367,
      "fight": 5368,
      "hor": 5369,
      "hospit": 5370,
      "ik": 5371,
      "mother": 5372,
      "rather": 5373,
      "ser": 5374,
      "sum": 5375,
      "今晚": 5376,
      "係個": 5377,
      "係好": 5378,
      "噃！": 5379,
      "好。": 5380,
      "本書": 5381,
      "都未": 5382,
      "ine.": 5383,
      "ing▁it▁": 5384,
      "▁my": 5385,
      "▁many▁": 5386,
      "elt▁": 5387,
      "▁half": 5388,
      "anton": 5389,
      "ift": 5390,
      "one's▁": 5391,
      "ainl": 5392,
      "clock": 5393,
      "conven": 5394,
      "work.": 5395,
      ",▁so▁the▁": 5396,
      "乜嘢啊？": 5397,
      "arriv": 5398,
      "import": 5399,
      "well.": 5400,
      "出嚟。": 5401,
      "▁Let's▁": 5402,
      "aid▁": 5403,
      "clear": 5404,
      "hen": 5405,
      "kn": 5406,
      "pric": 5407,
      "s,": 5408,
      "wait": 5409,
      "▁K": 5410,
      "▁隻": 5411,
      "▁人哋": 5412,
      "個樣": 5413,
      "去邊度": 5414,
      "呢？": 5415,
      "啲人": 5416,
      "後生": 5417,
      "有乜": 5418,
      "犀利": 5419,
      "話要": 5420,
      "過。": 5421,
      "▁ten▁": 5422,
      "in.": 5423,
      "onight": 5424,
      "aren't▁": 5425,
      "you▁to▁": 5426,
      "you▁w": 5427,
      ",▁or": 5428,
      "▁big": 5429,
      "▁but▁": 5430,
      "quest": 5431,
      "best": 5432,
      "entr": 5433,
      "▁You▁should▁": 5434,
      "rob": 5435,
      "shar": 5436,
      "▁str": 5437,
      "▁stuff": 5438,
      "match": 5439,
      "▁In▁the▁": 5440,
      "consider": 5441,
      "▁今次": 5442,
      "ound.": 5443,
      "▁go▁to▁": 5444,
      "▁going▁to▁": 5445,
      "prov": 5446,
      "opportun": 5447,
      "left": 5448,
      "▁These▁days▁": 5449,
      "regn": 5450,
      "I▁don't▁know": 5451,
      "next▁": 5452,
      "古惑仔": 5453,
      "o'clock": 5454,
      "bad▁": 5455,
      "eb": 5456,
      "eag": 5457,
      "eign": 5458,
      "pain": 5459,
      "ry.": 5460,
      "sat": 5461,
      "出奇": 5462,
      "吖！": 5463,
      "百蚊": 5464,
      "細個": 5465,
      "，成": 5466,
      "another": 5467,
      "ings▁": 5468,
      "▁son": 5469,
      "▁I▁can": 5470,
      "at▁the▁": 5471,
      "▁That": 5472,
      "ing▁his▁": 5473,
      "ing▁off": 5474,
      "▁佢想": 5475,
      "▁busin": 5476,
      "chick": 5477,
      "cheat": 5478,
      "rip": 5479,
      "eth": 5480,
      "▁give▁": 5481,
      "▁你哋": 5482,
      ",▁and▁it▁": 5483,
      "▁呢件事": 5484,
      "▁is▁really▁": 5485,
      "emper": 5486,
      "a▁very▁": 5487,
      "ood.": 5488,
      "ress▁": 5489,
      "saw": 5490,
      "▁This": 5491,
      "let's▁": 5492,
      "year.": 5493,
      "day.": 5494,
      "younger": 5495,
      "▁Why▁are▁you": 5496,
      "'ll▁be▁": 5497,
      "arge▁": 5498,
      "▁The▁boss▁": 5499,
      "e▁things▁": 5500,
      "street": 5501,
      "▁first": 5502,
      "quickly▁": 5503,
      "▁No▁matter": 5504,
      "Mom": 5505,
      "bought▁": 5506,
      "eve▁": 5507,
      "eight": 5508,
      "gin": 5509,
      "hit▁": 5510,
      "ian": 5511,
      "ior": 5512,
      "les": 5513,
      "law": 5514,
      "meal": 5515,
      "som": 5516,
      "slow": 5517,
      "woman": 5518,
      "▁噉": 5519,
      "▁架車": 5520,
      "三個": 5521,
      "以前": 5522,
      "係我": 5523,
      "到。": 5524,
      "咋。": 5525,
      "單車": 5526,
      "幫你": 5527,
      "時候": 5528,
      "機會": 5529,
      "腳。": 5530,
      "隻手": 5531,
      "ord": 5532,
      "▁school": 5533,
      "▁Is▁": 5534,
      "ator": 5535,
      "atur": 5536,
      "e▁tak": 5537,
      "▁我同": 5538,
      "▁fact": 5539,
      "▁He▁said▁": 5540,
      "ide▁": 5541,
      ",▁but▁he▁": 5542,
      "suff": 5543,
      "ew▁Y": 5544,
      "a▁big": 5545,
      "▁Please▁": 5546,
      "▁嗰個": 5547,
      "place▁": 5548,
      "▁people": 5549,
      "surpris": 5550,
      "iece▁of": 5551,
      "break": 5552,
      "restaurant▁": 5553,
      "listen": 5554,
      "conveni": 5555,
      ",▁then▁": 5556,
      "dress": 5557,
      "fun": 5558,
      "gone▁": 5559,
      "mad": 5560,
      "rush": 5561,
      "wash": 5562,
      "wrong": 5563,
      "▁just▁": 5564,
      "叫我": 5565,
      "喺呢度": 5566,
      "好耐": 5567,
      "老師": 5568,
      "，因為": 5569,
      "only": 5570,
      "one▁who▁": 5571,
      "ing▁t": 5572,
      "inger": 5573,
      "orough": 5574,
      "▁the▁whole▁": 5575,
      "you▁still": 5576,
      "ream": 5577,
      "▁to▁him": 5578,
      "▁I▁think": 5579,
      "ing▁b": 5580,
      "ing▁of": 5581,
      "ass▁": 5582,
      "otect": 5583,
      "▁He▁doesn't▁": 5584,
      "ently": 5585,
      "▁that▁I": 5586,
      "▁today▁": 5587,
      "econ": 5588,
      "ild▁": 5589,
      "e▁of▁the▁": 5590,
      "▁trick": 5591,
      ",▁as▁he▁": 5592,
      "▁turned▁": 5593,
      "students▁": 5594,
      "driv": 5595,
      "▁plac": 5596,
      "e▁their": 5597,
      "▁said": 5598,
      "people.": 5599,
      "next": 5600,
      "responsib": 5601,
      "▁order▁to▁": 5602,
      "visit▁": 5603,
      "▁guys▁": 5604,
      "ivers": 5605,
      "beli": 5606,
      "co": 5607,
      "five▁": 5608,
      "few": 5609,
      "lou": 5610,
      "le▁to▁": 5611,
      "less": 5612,
      "pleas": 5613,
      "sn": 5614,
      "▁un": 5615,
      "▁ear": 5616,
      "今朝": 5617,
      "係噉": 5618,
      "天氣": 5619,
      "女友": 5620,
      "少少": 5621,
      "就會": 5622,
      "政府": 5623,
      "隔籬": 5624,
      "電腦": 5625,
      "ing,▁and▁": 5626,
      "had": 5627,
      "you▁have▁": 5628,
      "▁I▁hear": 5629,
      "ing▁around▁": 5630,
      "ed,▁": 5631,
      "use▁the▁": 5632,
      "isf": 5633,
      "▁我聽": 5634,
      "acter": 5635,
      ",▁so▁I": 5636,
      ",▁so▁why▁": 5637,
      "set▁": 5638,
      "▁呢隻": 5639,
      "while▁": 5640,
      "▁why▁": 5641,
      "can▁be▁": 5642,
      "▁Our": 5643,
      "bles": 5644,
      "▁I'm▁not▁": 5645,
      "▁doing▁": 5646,
      "return": 5647,
      "▁How▁can": 5648,
      "▁a▁little▁": 5649,
      "feels▁": 5650,
      "▁Some▁people▁": 5651,
      "▁people.": 5652,
      "esterday▁": 5653,
      "examin": 5654,
      "difficult": 5655,
      "care▁of": 5656,
      "style▁": 5657,
      "'d▁": 5658,
      "eacher": 5659,
      "occ": 5660,
      "pick": 5661,
      "▁每": 5662,
      "人，": 5663,
      "咗好多": 5664,
      "噃。": 5665,
      "幾好": 5666,
      "我嘅": 5667,
      "我就": 5668,
      "方便": 5669,
      "為咗": 5670,
      "第二": 5671,
      "起身": 5672,
      "ince▁": 5673,
      "onight▁": 5674,
      "aracter": 5675,
      "▁sal": 5676,
      "itic": 5677,
      "▁the▁car": 5678,
      "you▁don't▁": 5679,
      "▁I▁am": 5680,
      "stick": 5681,
      "▁would▁": 5682,
      "ed▁m": 5683,
      "ed▁from": 5684,
      "of▁them": 5685,
      "▁by": 5686,
      "▁bec": 5687,
      "oot": 5688,
      "light▁": 5689,
      "quar": 5690,
      "unk": 5691,
      "ident": 5692,
      "build": 5693,
      "olv": 5694,
      "ular": 5695,
      "▁the▁past▁": 5696,
      "▁the▁police▁": 5697,
      "▁her.": 5698,
      "▁Be▁": 5699,
      "▁Chin": 5700,
      "how▁to▁": 5701,
      "guy▁": 5702,
      "ollow": 5703,
      "▁cours": 5704,
      "or▁not": 5705,
      "▁Nowad": 5706,
      "autom": 5707,
      "annoy": 5708,
      "▁Of▁course▁": 5709,
      "ituation": 5710,
      "immediately▁": 5711,
      "satisf": 5712,
      "bit": 5713,
      "draw": 5714,
      "een": 5715,
      "food▁": 5716,
      "gust": 5717,
      "home▁": 5718,
      "knew": 5719,
      "less▁": 5720,
      "sn't▁": 5721,
      "ubl": 5722,
      "where▁": 5723,
      "▁out": 5724,
      "▁雖然": 5725,
      "㗎啦。": 5726,
      "今次": 5727,
      "做到": 5728,
      "入便": 5729,
      "十蚊": 5730,
      "嘛。": 5731,
      "多啲": 5732,
      "學校": 5733,
      "得閒": 5734,
      "男仔": 5735,
      "睇。": 5736,
      "結果": 5737,
      "，呢": 5738,
      "it▁to▁": 5739,
      "is▁not▁": 5740,
      "at.": 5741,
      "irt▁": 5742,
      "ets▁": 5743,
      ",▁so▁it▁": 5744,
      "▁你唔好": 5745,
      "advantag": 5746,
      "▁Some": 5747,
      "▁Several": 5748,
      "necess": 5749,
      "come▁to▁": 5750,
      "▁Don't": 5751,
      "s▁to▁be▁": 5752,
      "you▁know": 5753,
      "▁he▁was▁": 5754,
      "sub": 5755,
      "away▁": 5756,
      "ance.": 5757,
      "▁money": 5758,
      "aught": 5759,
      "ize▁": 5760,
      "soon▁as": 5761,
      "problem": 5762,
      "prostitut": 5763,
      "got▁to▁": 5764,
      "elect": 5765,
      "job.": 5766,
      "tainly▁": 5767,
      "happen": 5768,
      "medic": 5769,
      "should▁be▁": 5770,
      "▁triad▁": 5771,
      "▁friend": 5772,
      "▁front▁of": 5773,
      "cle▁": 5774,
      "cam": 5775,
      "cut▁": 5776,
      "fe": 5777,
      "gg": 5778,
      "house": 5779,
      "lin": 5780,
      "nment▁": 5781,
      "nobody▁": 5782,
      "oy▁": 5783,
      "oor": 5784,
      "oil": 5785,
      "serv": 5786,
      "to": 5787,
      "vi": 5788,
      "▁U": 5789,
      "▁兩": 5790,
      "▁食": 5791,
      "▁around▁": 5792,
      "▁點解": 5793,
      "你哋": 5794,
      "千蚊": 5795,
      "同啲": 5796,
      "吖。": 5797,
      "咗啲": 5798,
      "咗幾": 5799,
      "唔啱": 5800,
      "嘅事": 5801,
      "搵到": 5802,
      "有幾": 5803,
      "通常": 5804,
      "飛機": 5805,
      "，噉": 5806,
      "，如果": 5807,
      "▁tea": 5808,
      "inal": 5809,
      "ing▁this▁": 5810,
      "ordin": 5811,
      "▁serv": 5812,
      "is▁really▁": 5813,
      "▁to▁go▁": 5814,
      "▁a▁wh": 5815,
      "ath": 5816,
      "star": 5817,
      "stop": 5818,
      "strong": 5819,
      "start▁": 5820,
      "ed▁at▁": 5821,
      "ed▁me▁to▁": 5822,
      "▁cr": 5823,
      "▁bre": 5824,
      "▁Hey": 5825,
      "ooth": 5826,
      "as▁soon▁as▁": 5827,
      "▁fin": 5828,
      "idenc": 5829,
      "aby▁": 5830,
      "quite▁t": 5831,
      "raz": 5832,
      "exc": 5833,
      "ange▁": 5834,
      "card": 5835,
      "▁I▁would▁": 5836,
      "no▁matter": 5837,
      "you▁are▁": 5838,
      "▁only▁": 5839,
      "，唔怪得": 5840,
      "▁the▁same▁": 5841,
      "▁When▁you": 5842,
      "▁If▁you▁don't▁": 5843,
      "phone▁": 5844,
      "about▁it.": 5845,
      "ignor": 5846,
      "understand▁": 5847,
      "pretty▁": 5848,
      "finished▁": 5849,
      "fully▁": 5850,
      "ongkong": 5851,
      "▁trying▁to▁": 5852,
      "ew▁Year": 5853,
      "oroughly▁": 5854,
      "-m": 5855,
      "des": 5856,
      "naught": 5857,
      "soup": 5858,
      "turn": 5859,
      "▁大": 5860,
      "一陣": 5861,
      "人工": 5862,
      "佢好": 5863,
      "係咪": 5864,
      "個都": 5865,
      "先得。": 5866,
      "去睇": 5867,
      "單嘢": 5868,
      "喺香港": 5869,
      "場。": 5870,
      "時我": 5871,
      "最好": 5872,
      "話我": 5873,
      "錢，": 5874,
      "，咪": 5875,
      "s▁in▁the▁": 5876,
      "s▁who▁": 5877,
      "erk": 5878,
      "▁thre": 5879,
      "ing▁as▁": 5880,
      "▁a▁d": 5881,
      "▁afraid▁": 5882,
      "▁I▁feel": 5883,
      "ed▁into▁": 5884,
      "ing▁from": 5885,
      "led": 5886,
      "leave▁": 5887,
      "▁He▁t": 5888,
      "▁hor": 5889,
      "▁hour": 5890,
      "bur": 5891,
      "▁You▁must▁": 5892,
      "e▁we▁": 5893,
      "plain": 5894,
      "▁without▁": 5895,
      "a▁new": 5896,
      "ively▁": 5897,
      "don't▁you": 5898,
      "，唔係": 5899,
      "looking▁for": 5900,
      "istak": 5901,
      "rich": 5902,
      "▁that.": 5903,
      "▁Be": 5904,
      "everyone▁": 5905,
      "▁After▁he▁": 5906,
      "▁Today": 5907,
      "oup▁of": 5908,
      "usband": 5909,
      "prett": 5910,
      "hasn't▁": 5911,
      "▁see▁": 5912,
      "▁first▁": 5913,
      "▁travel": 5914,
      "ierc": 5915,
      "▁buy": 5916,
      "突然間": 5917,
      "ildren": 5918,
      "hospital": 5919,
      "eagu": 5920,
      "I▁had▁": 5921,
      "bit▁": 5922,
      "done▁": 5923,
      "gang": 5924,
      "ious.": 5925,
      "little▁": 5926,
      "oon": 5927,
      "pec": 5928,
      "park": 5929,
      "▁聽": 5930,
      "使乜": 5931,
      "做得": 5932,
      "功課": 5933,
      "叫佢": 5934,
      "唔少": 5935,
      "嗰度": 5936,
      "嘅！": 5937,
      "好想": 5938,
      "媽咪": 5939,
      "心機": 5940,
      "打波": 5941,
      "美國": 5942,
      "an▁in": 5943,
      "enj": 5944,
      "argu": 5945,
      "arrest": 5946,
      "had▁to▁": 5947,
      "you?": 5948,
      "rev": 5949,
      "▁I▁b": 5950,
      "ate.": 5951,
      "omp": 5952,
      "steal": 5953,
      "e▁there▁": 5954,
      "ing▁f": 5955,
      "ically▁": 5956,
      "issu": 5957,
      "ooli": 5958,
      "eless": 5959,
      "irty▁": 5960,
      "at▁all": 5961,
      "ried▁": 5962,
      "ether": 5963,
      "▁He▁had▁": 5964,
      "unhapp": 5965,
      "heav": 5966,
      "uper": 5967,
      "up▁with": 5968,
      "▁Sometimes▁": 5969,
      "▁is▁not▁": 5970,
      "▁Mom": 5971,
      "ing▁at": 5972,
      ",▁but▁I": 5973,
      "yourself": 5974,
      "e▁then": 5975,
      "e▁three▁": 5976,
      "▁your▁": 5977,
      "will▁": 5978,
      "▁She▁is▁": 5979,
      "▁him▁to▁": 5980,
      "▁does": 5981,
      "a▁bit▁": 5982,
      "back▁to▁": 5983,
      "▁People▁": 5984,
      "someone▁to▁": 5985,
      "▁the▁cop": 5986,
      "way.": 5987,
      "egg": 5988,
      "attention": 5989,
      "hard▁to▁": 5990,
      "older▁sister": 5991,
      "veget": 5992,
      "ainland▁": 5993,
      "suffer": 5994,
      ".▁I": 5995,
      ".▁It's▁": 5996,
      "I▁can": 5997,
      "cold": 5998,
      "deat": 5999,
      "dev": 6000,
      "e,▁as▁": 6001,
      "found▁": 6002,
      "fect": 6003,
      "gave▁": 6004,
      "hold": 6005,
      "ied▁": 6006,
      "ject": 6007,
      "rol": 6008,
      "sitt": 6009,
      "supp": 6010,
      "suddenly▁": 6011,
      "wr": 6012,
      "wer": 6013,
      "writ": 6014,
      "y,": 6015,
      "▁好": 6016,
      "▁對": 6017,
      "乜都": 6018,
      "你咁": 6019,
      "佢就": 6020,
      "十年": 6021,
      "呢件事": 6022,
      "咗我": 6023,
      "咗喇。": 6024,
      "地方": 6025,
      "萬蚊": 6026,
      "返嚟": 6027,
      "門口": 6028,
      "麻雀": 6029,
      "ouch": 6030,
      "anqu": 6031,
      "ingly▁": 6032,
      "▁the▁other": 6033,
      "relat": 6034,
      "stall": 6035,
      "stup": 6036,
      "▁walk": 6037,
      "ing▁you": 6038,
      "ing▁in▁the▁": 6039,
      "▁meal": 6040,
      "▁movi": 6041,
      "▁month": 6042,
      "▁佢成日": 6043,
      "ed!": 6044,
      "ed,": 6045,
      "edd": 6046,
      "us.": 6047,
      "▁day": 6048,
      "▁days▁": 6049,
      "▁help": 6050,
      "riv": 6051,
      "acau": 6052,
      "▁to▁t": 6053,
      "▁they": 6054,
      "dog": 6055,
      "eck": 6056,
      "ily.": 6057,
      "▁stock": 6058,
      "plan": 6059,
      "igar": 6060,
      "icket": 6061,
      "ept": 6062,
      "spec": 6063,
      "your▁b": 6064,
      "▁shop": 6065,
      "▁Ch": 6066,
      "▁Don't▁you": 6067,
      ",▁so▁there's▁no▁": 6068,
      "critic": 6069,
      "back.": 6070,
      "disgust": 6071,
      "都冇用": 6072,
      "，點知": 6073,
      "repar": 6074,
      "meric": 6075,
      "born": 6076,
      "family▁": 6077,
      "▁At▁the▁": 6078,
      "iddle▁": 6079,
      "▁driver": 6080,
      "loud": 6081,
      "birth": 6082,
      "cold▁": 6083,
      "catch": 6084,
      "du": 6085,
      "dep": 6086,
      "hold▁": 6087,
      "lov": 6088,
      "pen": 6089,
      "wait▁": 6090,
      "▁間": 6091,
      "▁if▁you": 6092,
      "▁聽日": 6093,
      "一樣": 6094,
      "你嘅": 6095,
      "佢唔": 6096,
      "佢講": 6097,
      "到我": 6098,
      "呢排": 6099,
      "嘢，": 6100,
      "夜晚": 6101,
      "女人": 6102,
      "揸車": 6103,
      "旅行": 6104,
      "社會": 6105,
      "過嚟": 6106,
      "靚。": 6107,
      "insid": 6108,
      "erect": 6109,
      "▁thoroughly▁": 6110,
      "enef": 6111,
      "▁the▁door": 6112,
      "▁to▁have▁": 6113,
      "▁want": 6114,
      "▁wear": 6115,
      "▁watch": 6116,
      "ed▁it▁": 6117,
      "ing▁her": 6118,
      "ing▁out▁": 6119,
      "▁cer": 6120,
      "▁佢俾人": 6121,
      "▁Hong▁Kong▁": 6122,
      "ed▁that▁": 6123,
      "ist▁": 6124,
      "ot.": 6125,
      ",▁so▁how▁can": 6126,
      "es▁on": 6127,
      "add": 6128,
      "▁At▁": 6129,
      "hell": 6130,
      "▁Yesterday▁": 6131,
      "▁You▁can": 6132,
      "secon": 6133,
      "ific": 6134,
      "ilk": 6135,
      "one-": 6136,
      "▁This▁morn": 6137,
      "▁When▁": 6138,
      "▁with▁": 6139,
      "angu": 6140,
      "ing▁all": 6141,
      "do▁it▁": 6142,
      "▁tran": 6143,
      "，唔知": 6144,
      "▁they▁are▁": 6145,
      "getting▁": 6146,
      "go▁out▁": 6147,
      "▁doing": 6148,
      "cap": 6149,
      "drug": 6150,
      ",▁so▁that's▁": 6151,
      "▁the▁water": 6152,
      "▁If▁you▁want▁to▁": 6153,
      "person.": 6154,
      "e▁too▁": 6155,
      ",▁then▁you": 6156,
      "▁the▁time▁": 6157,
      "，係唔係": 6158,
      "differ": 6159,
      "▁One▁": 6160,
      "rece": 6161,
      "▁The▁two▁": 6162,
      "invit": 6163,
      "▁boyfriend▁": 6164,
      "▁a▁long▁tim": 6165,
      "▁these▁thing": 6166,
      "▁twenty▁": 6167,
      "▁Recently▁": 6168,
      "'d▁better": 6169,
      "▁Nowadays▁": 6170,
      "boss▁": 6171,
      "borrow": 6172,
      "lock": 6173,
      "mark": 6174,
      "oint": 6175,
      "prom": 6176,
      "pull": 6177,
      "pregn": 6178,
      "sist": 6179,
      "six": 6180,
      "tim": 6181,
      "▁將": 6182,
      "世界": 6183,
      "住個": 6184,
      "唔可以": 6185,
      "好難": 6186,
      "幫手": 6187,
      "或者": 6188,
      "決定": 6189,
      "波。": 6190,
      "琴晚": 6191,
      "落地": 6192,
      "落雨": 6193,
      "頭髮": 6194,
      "食得": 6195,
      "，話": 6196,
      "▁temper": 6197,
      "▁though": 6198,
      "▁sw": 6199,
      "ither": 6200,
      "ity▁to▁": 6201,
      "half": 6202,
      "he▁had▁": 6203,
      "really": 6204,
      "oment▁": 6205,
      "stopp": 6206,
      "▁TV": 6207,
      "of▁": 6208,
      "along": 6209,
      "es,▁": 6210,
      "▁make▁": 6211,
      "is.": 6212,
      "▁我唔": 6213,
      "▁he": 6214,
      "▁The▁young": 6215,
      "▁gett": 6216,
      "osition": 6217,
      "near": 6218,
      "seen": 6219,
      "see▁the▁": 6220,
      "ager": 6221,
      "ago▁": 6222,
      "ily": 6223,
      "has▁become▁": 6224,
      "ploy": 6225,
      "have▁any▁": 6226,
      "have▁been": 6227,
      "ing▁about": 6228,
      "▁there▁was▁": 6229,
      "you▁ar": 6230,
      "都唔識": 6231,
      "company": 6232,
      "▁My▁husband▁": 6233,
      "▁有個": 6234,
      "succ": 6235,
      "years.": 6236,
      "ffic": 6237,
      "cau": 6238,
      "grad": 6239,
      "selv": 6240,
      "a▁car": 6241,
      "ired": 6242,
      "anything▁": 6243,
      "remember": 6244,
      "attract": 6245,
      "▁two": 6246,
      "▁There▁is▁": 6247,
      "▁together▁with": 6248,
      "▁teacher": 6249,
      "mean": 6250,
      "▁more▁than": 6251,
      "▁cont": 6252,
      "ength": 6253,
      "night.": 6254,
      "street▁": 6255,
      "fraid": 6256,
      "change▁": 6257,
      "▁琴晚我": 6258,
      "▁頭先我": 6259,
      "myself": 6260,
      "▁Because▁": 6261,
      "suitable▁": 6262,
      "okay?": 6263,
      "best▁th": 6264,
      "▁Be▁careful": 6265,
      "▁finish": 6266,
      "igarett": 6267,
      "TV": 6268,
      "aid": 6269,
      "afraid▁": 6270,
      "cut": 6271,
      "del": 6272,
      "dem": 6273,
      "ey▁": 6274,
      "ief": 6275,
      "lic": 6276,
      "los": 6277,
      "late▁": 6278,
      "oi": 6279,
      "ris": 6280,
      "rop": 6281,
      "s,▁but▁": 6282,
      "ward": 6283,
      "▁請": 6284,
      "▁大家": 6285,
      "位。": 6286,
      "住我": 6287,
      "做生意": 6288,
      "前面": 6289,
      "咁耐": 6290,
      "咗三": 6291,
      "太太": 6292,
      "家姐": 6293,
      "我唔": 6294,
      "晒啲": 6295,
      "澳門": 6296,
      "緊要": 6297,
      "芝士": 6298,
      "說話": 6299,
      "酒店": 6300,
      "需要": 6301,
      "飯。": 6302,
      "，喺": 6303,
      "，想": 6304,
      "，有啲": 6305,
      "，可能": 6306,
      "▁taxi": 6307,
      "▁thos": 6308,
      "orc": 6309,
      "▁the▁g": 6310,
      "you▁can't▁": 6311,
      "▁a▁w": 6312,
      "▁well": 6313,
      "e▁tr": 6314,
      "ed▁you": 6315,
      "ed▁off": 6316,
      "▁call": 6317,
      "▁cook": 6318,
      "▁佢俾": 6319,
      "▁佢嘅": 6320,
      "▁Have▁": 6321,
      "all▁of": 6322,
      "character": 6323,
      "▁我一": 6324,
      "aybe▁": 6325,
      "▁fl": 6326,
      "▁The▁w": 6327,
      "▁gang": 6328,
      "▁good": 6329,
      "▁good▁": 6330,
      "beat": 6331,
      "befor": 6332,
      "univers": 6333,
      "oss.": 6334,
      "urr": 6335,
      "▁to▁tell": 6336,
      ",▁and▁now": 6337,
      "▁last▁": 6338,
      "very▁much": 6339,
      "rog": 6340,
      "ould▁you": 6341,
      "▁This▁morning": 6342,
      "angry": 6343,
      "▁time▁to▁": 6344,
      "soci": 6345,
      "clud": 6346,
      "▁It's▁not▁": 6347,
      "▁try▁to▁": 6348,
      "▁Those▁": 6349,
      "money": 6350,
      "▁has▁been": 6351,
      "flat▁": 6352,
      "a▁look": 6353,
      "protect": 6354,
      "oundrel": 6355,
      "▁taken": 6356,
      "▁their▁b": 6357,
      "week": 6358,
      "air▁of": 6359,
      "rug": 6360,
      "boy▁": 6361,
      "e▁when": 6362,
      "ment.": 6363,
      "▁completely▁": 6364,
      "▁琴日": 6365,
      "nothing▁": 6366,
      "poor": 6367,
      "▁cloth": 6368,
      "for▁me▁to▁": 6369,
      "▁Every▁day▁": 6370,
      "mahjong": 6371,
      "classmat": 6372,
      "▁drink": 6373,
      "distric": 6374,
      "antones": 6375,
      "▁That's▁": 6376,
      "automobile▁": 6377,
      "ublic": 6378,
      "ooligan": 6379,
      "▁doesn't▁": 6380,
      "a▁sh": 6381,
      "danger": 6382,
      "hone▁": 6383,
      "hurry▁up▁and▁": 6384,
      "mall": 6385,
      "me!": 6386,
      "nic": 6387,
      "nam": 6388,
      "oes▁": 6389,
      "ren": 6390,
      "sof": 6391,
      "sit▁": 6392,
      "swe": 6393,
      "susp": 6394,
      "ys": 6395,
      "▁any▁": 6396,
      "中文": 6397,
      "仲係": 6398,
      "仲有": 6399,
      "住。": 6400,
      "你唔": 6401,
      "佢，": 6402,
      "冇得": 6403,
      "大學": 6404,
      "廁所": 6405,
      "掂。": 6406,
      "搵人": 6407,
      "次次": 6408,
      "正一": 6409,
      "生日": 6410,
      "睇佢": 6411,
      "睇到": 6412,
      "等我": 6413,
      "經理": 6414,
      "衰仔": 6415,
      "返工": 6416,
      "醫院": 6417,
      "，會": 6418,
      "，都": 6419,
      "，因住": 6420,
      "inn": 6421,
      "in▁Hong▁Kong": 6422,
      "▁throw": 6423,
      "an.": 6424,
      "enu": 6425,
      "arrog": 6426,
      "▁sex": 6427,
      "omen": 6428,
      "▁where▁": 6429,
      "▁were▁": 6430,
      "▁Tomorrow": 6431,
      "ing▁him": 6432,
      "▁佢冇": 6433,
      "▁佢講": 6434,
      "forc": 6435,
      "for▁the▁": 6436,
      "format": 6437,
      "ical": 6438,
      "ed,▁and▁": 6439,
      "▁我今日": 6440,
      ",▁so▁what▁": 6441,
      "▁你唔": 6442,
      "behin": 6443,
      "unn": 6444,
      "ungr": 6445,
      "▁hasn't▁": 6446,
      "ader": 6447,
      "▁Sh": 6448,
      "▁that▁you": 6449,
      "do.": 6450,
      "ilm": 6451,
      "exer": 6452,
      "ounc": 6453,
      "，我真係": 6454,
      "emp": 6455,
      "emale▁": 6456,
      "employ": 6457,
      "it's▁not▁": 6458,
      "more▁than": 6459,
      "event": 6460,
      "e▁this": 6461,
      "don't▁know": 6462,
      "▁In▁the▁past▁": 6463,
      "▁the▁polic": 6464,
      "▁try▁": 6465,
      "▁有人": 6466,
      "I▁went▁to▁": 6467,
      "▁being▁": 6468,
      ",▁and▁then": 6469,
      "，所以我": 6470,
      "▁had▁better": 6471,
      "a▁fri": 6472,
      "like▁that?": 6473,
      "▁along": 6474,
      "▁What▁are▁you": 6475,
      "▁喺香港": 6476,
      "scold": 6477,
      "▁its▁": 6478,
      "loan": 6479,
      "drive▁": 6480,
      "▁有啲人": 6481,
      "redit▁": 6482,
      "▁into": 6483,
      "people": 6484,
      "house▁": 6485,
      "runn": 6486,
      "all▁the▁time.": 6487,
      "▁appear": 6488,
      "examination": 6489,
      "-style▁": 6490,
      "I▁s": 6491,
      "aff": 6492,
      "ble.": 6493,
      "def": 6494,
      "don't": 6495,
      "eet": 6496,
      "ie▁": 6497,
      "join": 6498,
      "kept▁": 6499,
      "led▁": 6500,
      "oan": 6501,
      "piec": 6502,
      "r.": 6503,
      "rat": 6504,
      "sha": 6505,
      "ten▁": 6506,
      "ycle▁": 6507,
      "▁乜": 6508,
      "▁成": 6509,
      "▁攞": 6510,
      "▁無": 6511,
      "▁here▁": 6512,
      "係佢": 6513,
      "價錢": 6514,
      "喺屋企": 6515,
      "好少": 6516,
      "幾耐": 6517,
      "底。": 6518,
      "最近": 6519,
      "機。": 6520,
      "水，": 6521,
      "然後": 6522,
      "畀錢": 6523,
      "笑。": 6524,
      "行到": 6525,
      "行街": 6526,
      "要小心": 6527,
      "，打": 6528,
      "，都係": 6529,
      "s▁up": 6530,
      "inut": 6531,
      "ers▁are▁": 6532,
      "d▁of": 6533,
      "one▁w": 6534,
      "ing,▁": 6535,
      "it▁turns▁": 6536,
      "ed▁so▁": 6537,
      "ing▁on▁the▁": 6538,
      "alu": 6539,
      "es,": 6540,
      "▁mak": 6541,
      "▁佢唔": 6542,
      "▁我喺": 6543,
      ",▁so▁of▁course▁": 6544,
      "became▁": 6545,
      "buck": 6546,
      "heard▁": 6547,
      "now.": 6548,
      "ably▁": 6549,
      "doing▁": 6550,
      "en▁in": 6551,
      "▁inv": 6552,
      "which": 6553,
      "known": 6554,
      "going▁": 6555,
      "▁the▁ball": 6556,
      "▁show": 6557,
      "e▁offic": 6558,
      "do▁it.": 6559,
      "▁your▁f": 6560,
      "鍾意食": 6561,
      "concer": 6562,
      "▁個仔": 6563,
      "▁I▁know": 6564,
      "not▁to▁": 6565,
      "▁Let▁": 6566,
      "ealth": 6567,
      "I▁will": 6568,
      "I▁want▁to▁": 6569,
      "ground▁": 6570,
      "ground.": 6571,
      "drunk": 6572,
      "friends.": 6573,
      "▁the▁weather": 6574,
      "who▁would▁": 6575,
      "can't▁be▁": 6576,
      "啲嘢。": 6577,
      "ured▁": 6578,
      "I▁really▁": 6579,
      "easily▁": 6580,
      "▁too▁much": 6581,
      "see▁if": 6582,
      "give▁me▁": 6583,
      "▁老公": 6584,
      "▁佢係個": 6585,
      "put▁on": 6586,
      "嗰陣時": 6587,
      "first.": 6588,
      "▁soccer": 6589,
      "kids▁": 6590,
      "eek": 6591,
      "anymore.": 6592,
      "hundred▁dollar": 6593,
      "comfortable.": 6594,
      "possib": 6595,
      "quarrel": 6596,
      "electric": 6597,
      "ainland▁Chin": 6598,
      "cis": 6599,
      "craz": 6600,
      "dom": 6601,
      "eight▁": 6602,
      "fix": 6603,
      "ge▁": 6604,
      "iel": 6605,
      "lack": 6606,
      "lum": 6607,
      "later": 6608,
      "lose▁": 6609,
      "natur": 6610,
      "s'": 6611,
      "se.": 6612,
      "wher": 6613,
      "zh": 6614,
      "▁三": 6615,
      "▁上": 6616,
      "▁天": 6617,
      "▁舊": 6618,
      "㗎咋。": 6619,
      "一聲": 6620,
      "今年": 6621,
      "係唔係": 6622,
      "十二": 6623,
      "咗去": 6624,
      "我一": 6625,
      "我會": 6626,
      "我都": 6627,
      "搵唔到": 6628,
      "普通": 6629,
      "發現": 6630,
      "股票": 6631,
      "落去": 6632,
      "試過": 6633,
      "車。": 6634,
      "運動": 6635,
      "面。": 6636,
      "ense": 6637,
      "ing,": 6638,
      "ory▁": 6639,
      "▁soup": 6640,
      "requ": 6641,
      "▁Is": 6642,
      "omach": 6643,
      "▁Tonight▁": 6644,
      "ed▁over": 6645,
      "▁made▁": 6646,
      "▁佢有": 6647,
      "▁book": 6648,
      "▁beca": 6649,
      "les▁": 6650,
      "ed▁to": 6651,
      "use▁of": 6652,
      "▁我有": 6653,
      "▁我諗": 6654,
      "lipp": 6655,
      ",▁so▁how": 6656,
      "it▁will": 6657,
      "▁fall": 6658,
      "es▁for": 6659,
      "▁The▁m": 6660,
      "▁The▁car": 6661,
      "ly▁and▁": 6662,
      "▁He▁s": 6663,
      "▁He▁wants▁to▁": 6664,
      "ide": 6665,
      "he's": 6666,
      "olut": 6667,
      "▁You▁have▁": 6668,
      "▁to▁talk": 6669,
      "likes▁": 6670,
      "en▁up": 6671,
      "ility▁": 6672,
      "▁While▁": 6673,
      "card▁": 6674,
      "▁for▁m": 6675,
      "go.": 6676,
      "go▁to▁the▁": 6677,
      "▁there▁is▁": 6678,
      "▁In▁fact": 6679,
      "just▁now": 6680,
      "▁My▁boyfriend▁": 6681,
      "se▁rac": 6682,
      "have▁the▁": 6683,
      "▁befor": 6684,
      "好多人": 6685,
      "▁taking▁": 6686,
      "smart": 6687,
      "good▁to▁": 6688,
      ",▁and▁the▁": 6689,
      "guy": 6690,
      "▁嗰啲": 6691,
      "▁time▁I": 6692,
      "when▁you": 6693,
      "▁Get▁": 6694,
      "elebr": 6695,
      "wasn't▁": 6696,
      "▁do▁you": 6697,
      "boyfriend": 6698,
      "▁seem": 6699,
      "years▁old.": 6700,
      "一齊去": 6701,
      "girlfriend.": 6702,
      "唔得閒": 6703,
      "▁gambl": 6704,
      "▁Someone▁": 6705,
      "caught▁": 6706,
      "bar": 6707,
      "bank": 6708,
      "bowl": 6709,
      "gre": 6710,
      "hungr": 6711,
      "mouth": 6712,
      "pant": 6713,
      "sign": 6714,
      "slip": 6715,
      "want▁": 6716,
      "yp": 6717,
      "▁know": 6718,
      "▁邊個": 6719,
      "▁快啲": 6720,
      "依家": 6721,
      "做乜嘢啊？": 6722,
      "兄弟": 6723,
      "入嚟": 6724,
      "出便": 6725,
      "千祈": 6726,
      "口。": 6727,
      "咖啡": 6728,
      "唔切": 6729,
      "啊，": 6730,
      "問我": 6731,
      "啫？": 6732,
      "噉嘅": 6733,
      "就要": 6734,
      "工人": 6735,
      "幫佢": 6736,
      "幾年": 6737,
      "意思": 6738,
      "我，": 6739,
      "收屘": 6740,
      "服務": 6741,
      "清楚": 6742,
      "瞓。": 6743,
      "路。": 6744,
      "雞。": 6745,
      "鬼佬": 6746,
      "，做": 6747,
      "𠻹。": 6748,
      "▁touch": 6749,
      "inj": 6750,
      "in▁this▁": 6751,
      "er▁to▁": 6752,
      "orm": 6753,
      "arch": 6754,
      "are▁the▁": 6755,
      "ity": 6756,
      "▁the▁th": 6757,
      "real": 6758,
      "reli": 6759,
      "▁act": 6760,
      "▁acc": 6761,
      "▁I▁didn't▁": 6762,
      "step": 6763,
      "e▁ther": 6764,
      "e▁turn": 6765,
      "ed▁p": 6766,
      "es!": 6767,
      "▁market▁": 6768,
      "▁mean": 6769,
      "▁佢咁": 6770,
      "charg": 6771,
      "▁我要": 6772,
      "▁hous": 6773,
      "ety▁": 6774,
      "▁felt▁": 6775,
      "▁The▁girl": 6776,
      "▁你做": 6777,
      "▁你想": 6778,
      "beat▁": 6779,
      "bus▁": 6780,
      "bull": 6781,
      "adm": 6782,
      "▁An": 6783,
      "▁Ar": 6784,
      "age.": 6785,
      "him▁to▁": 6786,
      "perform": 6787,
      "ement▁": 6788,
      "it's▁quite▁": 6789,
      "gover": 6790,
      "your▁f": 6791,
      "ummer": 6792,
      "e▁of▁": 6793,
      "▁yourself": 6794,
      "，你唔好": 6795,
      "▁She▁has▁": 6796,
      "compan": 6797,
      "▁Oh": 6798,
      "▁I▁need▁to▁": 6799,
      "group▁of": 6800,
      "▁Could▁you": 6801,
      "people▁who▁": 6802,
      "a▁per": 6803,
      "she▁was▁": 6804,
      "▁have▁the▁": 6805,
      "flat": 6806,
      "a▁little▁": 6807,
      "▁so▁much": 6808,
      "avor": 6809,
      "▁How▁come▁": 6810,
      "a▁meal": 6811,
      "oppos": 6812,
      "▁a▁very▁": 6813,
      "公司嘅": 6814,
      "study▁": 6815,
      "would▁be▁": 6816,
      "▁They▁are▁": 6817,
      "understand": 6818,
      "against▁": 6819,
      "many▁people▁": 6820,
      "right?": 6821,
      "accept▁": 6822,
      "point": 6823,
      "pretend": 6824,
      "▁troubles": 6825,
      "seems▁": 6826,
      "▁buy▁": 6827,
      "whatever": 6828,
      "knows▁how▁to▁": 6829,
      "increas": 6830,
      "photo": 6831,
      "▁They're▁": 6832,
      "struction": 6833,
      "後生仔": 6834,
      "question": 6835,
      "entral": 6836,
      "considered▁": 6837,
      "▁first.": 6838,
      "▁No▁matter▁how": 6839,
      "exercis": 6840,
      "af": 6841,
      "afraid": 6842,
      "cent▁": 6843,
      "custom": 6844,
      "dark": 6845,
      "eed": 6846,
      "fish": 6847,
      "fool": 6848,
      "fierc": 6849,
      "ger": 6850,
      "gar": 6851,
      "hic": 6852,
      "hour": 6853,
      "ially▁": 6854,
      "jerk": 6855,
      "kin": 6856,
      "kind": 6857,
      "pat": 6858,
      "pres": 6859,
      "polic": 6860,
      "rad": 6861,
      "sound": 6862,
      "wall": 6863,
      "went▁to▁": 6864,
      "yet": 6865,
      "▁講": 6866,
      "▁以前": 6867,
      "二十": 6868,
      "佢會": 6869,
      "個頭": 6870,
      "冇錢": 6871,
      "咗你": 6872,
      "啤酒": 6873,
      "大聲": 6874,
      "容易": 6875,
      "屎𦡆": 6876,
      "希望": 6877,
      "平時": 6878,
      "戲。": 6879,
      "手提": 6880,
      "時，": 6881,
      "最後": 6882,
      "條繩": 6883,
      "死人": 6884,
      "深圳": 6885,
      "父母": 6886,
      "申請": 6887,
      "行山": 6888,
      "見過": 6889,
      "辦法": 6890,
      "鎖匙": 6891,
      "門。": 6892,
      "食，": 6893,
      "馬。": 6894,
      "點鐘": 6895,
      "，邊個": 6896,
      "，攪到": 6897,
      "▁ti": 6898,
      "▁tonight": 6899,
      "t▁and▁": 6900,
      "inch": 6901,
      "orn": 6902,
      "ord▁": 6903,
      "orter": 6904,
      "has▁to▁": 6905,
      "you've▁": 6906,
      "▁to▁my▁": 6907,
      "e▁that": 6908,
      "ing▁he▁": 6909,
      "es?": 6910,
      "▁may▁": 6911,
      "▁marri": 6912,
      "▁member": 6913,
      "ed▁this▁": 6914,
      "iss▁": 6915,
      "▁did▁": 6916,
      "▁drug": 6917,
      "elop": 6918,
      "▁put▁": 6919,
      "▁phot": 6920,
      "hear": 6921,
      "▁long": 6922,
      "roblem": 6923,
      "▁stand": 6924,
      "▁This▁matter": 6925,
      "，我都": 6926,
      "ulat": 6927,
      "ult.": 6928,
      "utt": 6929,
      "▁foreign": 6930,
      "▁the▁back": 6931,
      "▁It's": 6932,
      "▁your▁m": 6933,
      "ing▁to▁do▁": 6934,
      "ationship": 6935,
      "▁the▁two▁": 6936,
      "▁It's▁really▁": 6937,
      "▁今年": 6938,
      "computer": 6939,
      "▁the▁most▁": 6940,
      "get▁marri": 6941,
      "▁Thes": 6942,
      "香港人": 6943,
      "成日都": 6944,
      "▁rel": 6945,
      "young▁h": 6946,
      "prof": 6947,
      "having▁": 6948,
      "▁When▁I▁was▁": 6949,
      "，真係好": 6950,
      "smell": 6951,
      "▁How▁much": 6952,
      "a▁movi": 6953,
      "▁number": 6954,
      "▁up.": 6955,
      "indow": 6956,
      "▁work.": 6957,
      "a▁girl": 6958,
      "▁it?": 6959,
      "，不如": 6960,
      "leep.": 6961,
      "之後就": 6962,
      "undred": 6963,
      "▁together.": 6964,
      "ful.": 6965,
      "▁looking▁for": 6966,
      "estern": 6967,
      "▁唔該": 6968,
      "e▁will▁be▁": 6969,
      "life.": 6970,
      "▁leav": 6971,
      "started▁": 6972,
      "▁someone▁": 6973,
      "ongkok": 6974,
      "▁twenty-": 6975,
      "bably▁": 6976,
      "body.": 6977,
      "ribly▁": 6978,
      "each▁other.": 6979,
      "▁myself": 6980,
      "robber": 6981,
      "▁Chinese▁": 6982,
      "view": 6983,
      "▁break": 6984,
      "burn": 6985,
      "concern": 6986,
      "千祈唔好": 6987,
      ",▁I'm": 6988,
      "Ch": 6989,
      "I▁d": 6990,
      "a▁young": 6991,
      "bag": 6992,
      "ct▁": 6993,
      "cat": 6994,
      "count": 6995,
      "celebr": 6996,
      "dar": 6997,
      "dat": 6998,
      "div": 6999,
      "deb": 7000,
      "fill": 7001,
      "hel": 7002,
      "last": 7003,
      "langu": 7004,
      "miss": 7005,
      "mobile▁": 7006,
      "move▁": 7007,
      "please▁": 7008,
      "sy": 7009,
      "sing": 7010,
      "sent": 7011,
      "ther": 7012,
      "▁本": 7013,
      "▁要": 7014,
      "▁out.": 7015,
      "▁波士": 7016,
      "乾淨": 7017,
      "人家": 7018,
      "仔女": 7019,
      "份人": 7020,
      "你都": 7021,
      "佢一": 7022,
      "兩隻": 7023,
      "分鐘": 7024,
      "同個": 7025,
      "咁好": 7026,
      "唔舒服": 7027,
      "啲錢": 7028,
      "喺邊度": 7029,
      "嘅時候": 7030,
      "好好": 7031,
      "好有": 7032,
      "定係": 7033,
      "年。": 7034,
      "得㗎。": 7035,
      "成個": 7036,
      "手。": 7037,
      "拍拖": 7038,
      "撞到": 7039,
      "旺角": 7040,
      "有一": 7041,
      "着。": 7042,
      "聽到": 7043,
      "肚餓": 7044,
      "認真": 7045,
      "走咗": 7046,
      "身體": 7047,
      "s▁at▁": 7048,
      "s▁will": 7049,
      "s▁from": 7050,
      "ing,▁but▁": 7051,
      "▁su": 7052,
      "you▁must▁": 7053,
      "▁ab": 7054,
      "▁a▁st": 7055,
      "ster": 7056,
      "▁wait": 7057,
      "ing▁back": 7058,
      "▁match": 7059,
      "▁佢真係": 7060,
      "▁佢個人": 7061,
      "ed▁till": 7062,
      "is▁to▁": 7063,
      "che": 7064,
      "▁我睇": 7065,
      "▁我唔知": 7066,
      "▁hop": 7067,
      "▁home": 7068,
      "liqu": 7069,
      "▁you've▁": 7070,
      "eter": 7071,
      "etwe": 7072,
      "▁pass": 7073,
      "▁fell": 7074,
      "▁four": 7075,
      "▁The▁h": 7076,
      "▁The▁whole▁": 7077,
      "▁giv": 7078,
      "unwilling▁to▁": 7079,
      "▁hair": 7080,
      "heal": 7081,
      "heel": 7082,
      "▁You▁can't▁": 7083,
      "and.": 7084,
      "out▁and▁": 7085,
      "if▁I": 7086,
      "iful": 7087,
      "know▁that▁": 7088,
      "plic": 7089,
      "，我唔": 7090,
      "，我就": 7091,
      "▁with▁my▁": 7092,
      "▁for▁": 7093,
      "going": 7094,
      "▁times▁": 7095,
      "▁the▁bo": 7096,
      "▁the▁boss": 7097,
      "▁short": 7098,
      "ivit": 7099,
      "oodlum": 7100,
      "do▁you▁": 7101,
      "▁the▁teacher": 7102,
      "conf": 7103,
      "s▁of▁the▁": 7104,
      "▁tru": 7105,
      "▁Or": 7106,
      "▁As▁soon▁as": 7107,
      "artment▁": 7108,
      "▁Even": 7109,
      "▁English": 7110,
      "，但我": 7111,
      "news▁": 7112,
      "money▁to▁": 7113,
      ",▁so▁then": 7114,
      "crow": 7115,
      "doesn't▁matter": 7116,
      "a▁long": 7117,
      "pract": 7118,
      "side▁": 7119,
      "▁I've▁been": 7120,
      "retty▁": 7121,
      "▁their▁": 7122,
      "everybody▁": 7123,
      "▁Why▁do▁you": 7124,
      "▁Why▁did▁you": 7125,
      "says": 7126,
      "e▁to▁the▁": 7127,
      "afterno": 7128,
      "wanted▁to▁": 7129,
      "study": 7130,
      "lost": 7131,
      "▁You're▁so▁": 7132,
      "living▁": 7133,
      "之後，就": 7134,
      "▁a▁big": 7135,
      "for▁you.": 7136,
      "again.": 7137,
      "，係咪": 7138,
      "▁As▁for▁this▁": 7139,
      "let▁me▁": 7140,
      "▁All▁of": 7141,
      ",▁so▁it's▁really▁": 7142,
      "people▁to▁": 7143,
      "▁this▁tim": 7144,
      "ary▁school": 7145,
      "street.": 7146,
      "▁你要小心": 7147,
      "strang": 7148,
      "▁There's▁no▁": 7149,
      "▁As▁soon▁as▁he▁": 7150,
      "▁Everyone▁": 7151,
      "▁呢條友": 7152,
      "movie▁": 7153,
      "chicken": 7154,
      "econom": 7155,
      "difficult▁to▁": 7156,
      "death": 7157,
      "writt": 7158,
      "rivate▁": 7159,
      "receiv": 7160,
      "delic": 7161,
      "formation": 7162,
      "I▁couldn't▁": 7163,
      "cur": 7164,
      "cum": 7165,
      "cream": 7166,
      "dare▁": 7167,
      "definitely▁": 7168,
      "dict": 7169,
      "eed▁": 7170,
      "eam": 7171,
      "hom": 7172,
      "ibl": 7173,
      "ile.": 7174,
      "laz": 7175,
      "many": 7176,
      "mix": 7177,
      "member": 7178,
      "nons": 7179,
      "pack": 7180,
      "peak": 7181,
      "sett": 7182,
      "wast": 7183,
      "y's▁": 7184,
      "▁V": 7185,
      "▁坐": 7186,
      "▁唔使": 7187,
      "▁keep": 7188,
      "▁為咗": 7189,
      "一啲": 7190,
      "上嚟": 7191,
      "中環": 7192,
      "人都": 7193,
      "仲唔": 7194,
      "佬。": 7195,
      "係你": 7196,
      "全部": 7197,
      "參加": 7198,
      "叫你": 7199,
      "咯。": 7200,
      "問佢": 7201,
      "啲細路仔": 7202,
      "嚟㗎。": 7203,
      "嚟呢度": 7204,
      "塊面": 7205,
      "媽媽": 7206,
      "字。": 7207,
      "就得": 7208,
      "已經": 7209,
      "師傅": 7210,
      "意。": 7211,
      "慢慢": 7212,
      "方法": 7213,
      "早啲": 7214,
      "朝早": 7215,
      "檔。": 7216,
      "畀我。": 7217,
      "眼。": 7218,
      "瞓覺": 7219,
      "禮拜": 7220,
      "股市": 7221,
      "講得": 7222,
      "身。": 7223,
      "車，": 7224,
      "食完": 7225,
      "骨。": 7226,
      "，實": 7227,
      "，睇": 7228,
      "，大家": 7229,
      "𡃁仔": 7230,
      "▁treat": 7231,
      "s▁as▁": 7232,
      "s▁his▁": 7233,
      "onc": 7234,
      "area": 7235,
      "▁sid": 7236,
      "▁sell": 7237,
      "▁the▁girl": 7238,
      "hai": 7239,
      "reck": 7240,
      "▁a▁t": 7241,
      "▁away": 7242,
      "ates▁": 7243,
      "ed▁as▁": 7244,
      "ed▁for▁": 7245,
      "of▁cours": 7246,
      "es▁the▁": 7247,
      "▁custom": 7248,
      "▁me?": 7249,
      "here▁to▁": 7250,
      "lep": 7251,
      "▁Hurry▁up▁and▁": 7252,
      "us▁to▁": 7253,
      "check": 7254,
      "oob": 7255,
      "oot▁": 7256,
      "▁我見到": 7257,
      "▁我覺得": 7258,
      "▁hard▁": 7259,
      "▁husband▁": 7260,
      "▁you▁to▁": 7261,
      "opin": 7262,
      "▁gl": 7263,
      "▁Well": 7264,
      "up!": 7265,
      "▁呢啲嘢": 7266,
      "if▁he▁": 7267,
      "ifty▁": 7268,
      "▁offic": 7269,
      "one▁of": 7270,
      "him?": 7271,
      "▁This▁year": 7272,
      "ed▁to▁be▁": 7273,
      "utter": 7274,
      "eaten": 7275,
      "▁It▁turns▁": 7276,
      "do▁it": 7277,
      "▁your▁b": 7278,
      "，你就": 7279,
      "close▁": 7280,
      "▁the▁toi": 7281,
      "just▁like▁": 7282,
      "▁It's▁so▁": 7283,
      "result▁": 7284,
      "ight.": 7285,
      "complet": 7286,
      "▁things": 7287,
      "▁the▁man": 7288,
      "▁the▁movi": 7289,
      "▁My▁girlfriend▁": 7290,
      "sav": 7291,
      "▁Ex": 7292,
      "ard.": 7293,
      "▁the▁sam": 7294,
      "▁Not▁": 7295,
      "▁Can": 7296,
      "▁Don't▁be▁": 7297,
      "a▁ch": 7298,
      "乜嘢事": 7299,
      "▁Put": 7300,
      "avo": 7301,
      "goods.": 7302,
      "，唔好咁": 7303,
      "一個月": 7304,
      "▁嗰個人": 7305,
      "scoundrel": 7306,
      "down.": 7307,
      "▁will▁be▁": 7308,
      "making▁": 7309,
      "playing▁": 7310,
      "repair": 7311,
      "▁老細": 7312,
      "room.": 7313,
      "hand.": 7314,
      "right.": 7315,
      "ritor": 7316,
      "let▁him": 7317,
      "business": 7318,
      "▁條女": 7319,
      "interest": 7320,
      "interest▁": 7321,
      "▁this▁time▁": 7322,
      "shirt": 7323,
      "face▁": 7324,
      "▁trouble▁": 7325,
      "▁What's▁": 7326,
      "fortun": 7327,
      "bad.": 7328,
      "given": 7329,
      "colleagu": 7330,
      "▁boy▁": 7331,
      "iously▁": 7332,
      "clothes▁": 7333,
      "▁We're▁": 7334,
      "experienced▁": 7335,
      "▁Hey!": 7336,
      "crowd": 7337,
      "!\"": 7338,
      ",▁w": 7339,
      ",▁they▁": 7340,
      ",▁what▁": 7341,
      ",▁I'll": 7342,
      "-p": 7343,
      "00": 7344,
      "Americ": 7345,
      "Hong▁Kong▁": 7346,
      "Hongkong": 7347,
      "a▁do": 7348,
      "bed▁": 7349,
      "bal": 7350,
      "bas": 7351,
      "cus": 7352,
      "cost": 7353,
      "duc": 7354,
      "eer": 7355,
      "fig": 7356,
      "food": 7357,
      "fail": 7358,
      "felt▁": 7359,
      "follow": 7360,
      "hot▁": 7361,
      "jor": 7362,
      "paid▁": 7363,
      "rank": 7364,
      "scr": 7365,
      "skill": 7366,
      "vo": 7367,
      "ven▁": 7368,
      "went": 7369,
      "wouldn't▁": 7370,
      "▁點": 7371,
      "▁真係": 7372,
      "▁use▁": 7373,
      "▁an▁a": 7374,
      "▁件衫": 7375,
      "▁原來": 7376,
      "一百": 7377,
      "上下": 7378,
      "乜。": 7379,
      "你要": 7380,
      "佢都唔": 7381,
      "冠軍": 7382,
      "到一": 7383,
      "古力": 7384,
      "唔住": 7385,
      "唔同": 7386,
      "嚟搵": 7387,
      "地鐵": 7388,
      "坐喺度": 7389,
      "埋啲": 7390,
      "寫字": 7391,
      "打個": 7392,
      "搵個": 7393,
      "有錢": 7394,
      "未啊？": 7395,
      "朱古力": 7396,
      "死。": 7397,
      "波，": 7398,
      "當然": 7399,
      "瞓唔": 7400,
      "第一次": 7401,
      "結咗": 7402,
      "蘋果": 7403,
      "蛋糕": 7404,
      "行路": 7405,
      "識講": 7406,
      "豬肉": 7407,
      "鄉下": 7408,
      "酒樓": 7409,
      "銀包": 7410,
      "間公司": 7411,
      "餐。": 7412,
      "鹹濕": 7413,
      "麻煩": 7414,
      "黑社會": 7415,
      "點算": 7416,
      "，大": 7417,
      "，然後": 7418,
      "s▁and": 7419,
      "s▁on▁the▁": 7420,
      "in▁such": 7421,
      "includ": 7422,
      "ort▁of": 7423,
      "▁sur": 7424,
      "▁someth": 7425,
      "he▁didn't▁": 7426,
      "▁to▁her": 7427,
      "▁I▁still": 7428,
      "▁went▁": 7429,
      "e▁tod": 7430,
      "▁Take▁": 7431,
      "▁Two▁": 7432,
      "ed▁into": 7433,
      "ing▁money▁": 7434,
      "es,▁and▁": 7435,
      "▁came▁": 7436,
      "oose▁": 7437,
      "▁damn": 7438,
      "▁我係": 7439,
      "▁我而家": 7440,
      "▁我同佢": 7441,
      "▁我啱啱": 7442,
      "▁his": 7443,
      "▁hundred▁": 7444,
      "asion": 7445,
      "asn't▁": 7446,
      "acation": 7447,
      "▁you▁can": 7448,
      "▁part": 7449,
      "it▁makes▁": 7450,
      "▁get": 7451,
      "▁gave▁": 7452,
      "bear": 7453,
      "▁As": 7454,
      "urb": 7455,
      "ambo": 7456,
      "▁So▁": 7457,
      "need▁": 7458,
      "neck": 7459,
      "▁You▁b": 7460,
      "aged▁": 7461,
      "▁this▁morn": 7462,
      "short": 7463,
      "shouldn't▁": 7464,
      "▁in▁this▁": 7465,
      "quite▁like▁to▁": 7466,
      "when▁he▁": 7467,
      "has▁been▁": 7468,
      "ounter": 7469,
      "▁When▁he▁": 7470,
      "it's▁really▁": 7471,
      "▁white▁": 7472,
      ",▁but▁I▁don't▁know": 7473,
      "▁for▁me.": 7474,
      "▁times": 7475,
      "a▁k": 7476,
      "▁the▁bank": 7477,
      "▁shark": 7478,
      "e▁thousand▁dollar": 7479,
      "▁the▁train": 7480,
      "▁In▁order▁to▁": 7481,
      "，唔會": 7482,
      "compet": 7483,
      "fine.": 7484,
      "black": 7485,
      "go▁out▁to▁": 7486,
      "▁do?": 7487,
      "suck": 7488,
      "s▁are▁quite▁": 7489,
      "ing▁some▁": 7490,
      "▁here.": 7491,
      "away.": 7492,
      ",▁so▁they▁": 7493,
      "cross": 7494,
      "floor": 7495,
      "a▁lot▁": 7496,
      "▁been": 7497,
      "smok": 7498,
      "smart▁": 7499,
      "izz": 7500,
      "ers▁have▁": 7501,
      "discover": 7502,
      "有啲人": 7503,
      ",▁I▁think": 7504,
      "student": 7505,
      "gotten▁": 7506,
      "love▁": 7507,
      "left.": 7508,
      "ed▁up.": 7509,
      "▁computer": 7510,
      "▁老豆": 7511,
      "▁teeth": 7512,
      "▁att": 7513,
      "▁at▁the▁": 7514,
      "▁about▁it.": 7515,
      "business.": 7516,
      "▁speak": 7517,
      "sleep.": 7518,
      "elieve▁": 7519,
      "ogn": 7520,
      "▁trouble": 7521,
      "▁其實我": 7522,
      "called▁": 7523,
      "famili": 7524,
      "▁The▁police▁": 7525,
      "certainly▁": 7526,
      "▁another": 7527,
      "expensiv": 7528,
      "broke▁": 7529,
      "開心。": 7530,
      "clean": 7531,
      "mpion": 7532,
      "decid": 7533,
      "sharp": 7534,
      "opportunity▁to▁": 7535,
      "convenient.": 7536,
      "▁I▁heard▁": 7537,
      "▁become▁": 7538,
      "同啲朋友": 7539,
      "▁servic": 7540,
      "attention▁to▁": 7541,
      "government▁": 7542,
      "▁Ordin": 7543,
      "opinion": 7544,
      "amboo▁": 7545,
      "New▁Year": 7546,
      "bel": 7547,
      "bill": 7548,
      "by.": 7549,
      "dou": 7550,
      "e,▁he▁": 7551,
      "fut": 7552,
      "fight▁": 7553,
      "fact": 7554,
      "gone▁to▁": 7555,
      "hum": 7556,
      "home.": 7557,
      "husband": 7558,
      "laugh": 7559,
      "prepar": 7560,
      "rand": 7561,
      "squ": 7562,
      "took": 7563,
      "▁新": 7564,
      "▁畀": 7565,
      "▁old▁": 7566,
      "㗎喎。": 7567,
      "事。": 7568,
      "佢都": 7569,
      "先生": 7570,
      "出咗": 7571,
      "到個": 7572,
      "十五": 7573,
      "危險": 7574,
      "去邊": 7575,
      "呢條": 7576,
      "周圍": 7577,
      "咁上下": 7578,
      "咗喇": 7579,
      "嘅？": 7580,
      "嘍。": 7581,
      "嚴重": 7582,
      "埋一": 7583,
      "完全": 7584,
      "就唔好": 7585,
      "幾個人": 7586,
      "打交": 7587,
      "打電話": 7588,
      "擔心": 7589,
      "會唔會": 7590,
      "活動": 7591,
      "滯。": 7592,
      "玩。": 7593,
      "痛。": 7594,
      "着數": 7595,
      "街。": 7596,
      "裏面": 7597,
      "西裝": 7598,
      "要去": 7599,
      "試吓": 7600,
      "話唔": 7601,
      "警方": 7602,
      "豆腐": 7603,
      "買嘢": 7604,
      "長。": 7605,
      "間房": 7606,
      "，亦": 7607,
      "，俾": 7608,
      "t▁is▁": 7609,
      "▁thin": 7610,
      "▁thousand▁": 7611,
      "▁thirt": 7612,
      "on▁": 7613,
      "ense▁": 7614,
      "ings.": 7615,
      "▁says▁": 7616,
      "▁she's▁": 7617,
      "ite.": 7618,
      "haw": 7619,
      "rely▁": 7620,
      "rect": 7621,
      "ate▁the▁": 7622,
      "stair": 7623,
      "▁coll": 7624,
      "▁me!": 7625,
      "▁minut": 7626,
      "▁mainland▁Chin": 7627,
      "▁佢啲": 7628,
      "▁佢食": 7629,
      "forth": 7630,
      "▁bill": 7631,
      "ed▁t": 7632,
      "usually▁": 7633,
      "▁dif": 7634,
      "▁head": 7635,
      "▁health": 7636,
      "▁you?": 7637,
      "▁par": 7638,
      "it▁for": 7639,
      "▁The▁th": 7640,
      "▁你話": 7641,
      "▁He▁didn't▁": 7642,
      "unar": 7643,
      "idea": 7644,
      "▁A▁f": 7645,
      "▁You'r": 7646,
      "doing": 7647,
      "agre": 7648,
      "sho": 7649,
      "▁start": 7650,
      "who": 7651,
      "raph": 7652,
      "has▁no▁": 7653,
      "my▁boyfriend▁": 7654,
      "▁Which": 7655,
      "▁Mr.": 7656,
      "▁Do": 7657,
      "eats▁": 7658,
      "eating▁": 7659,
      "others▁": 7660,
      "can▁I": 7661,
      "sport": 7662,
      "over▁and▁": 7663,
      "a▁v": 7664,
      "soak": 7665,
      "e▁off": 7666,
      "▁your▁w": 7667,
      "，唔該": 7668,
      "ctop": 7669,
      "▁Ori": 7670,
      "rice.": 7671,
      "block": 7672,
      "need▁to▁be▁": 7673,
      "ession": 7674,
      "ready▁": 7675,
      "grow": 7676,
      "eat▁it.": 7677,
      "crim": 7678,
      "，好多": 7679,
      "doesn't▁know": 7680,
      "good-": 7681,
      "▁going▁": 7682,
      ",▁and▁they▁": 7683,
      "ized▁": 7684,
      "▁From": 7685,
      "ashion": 7686,
      "▁all▁of": 7687,
      "▁all▁the▁tim": 7688,
      "ways": 7689,
      "ense.": 7690,
      "，點算": 7691,
      "expos": 7692,
      "▁Hong▁Kong.": 7693,
      "ugg": 7694,
      "▁condition": 7695,
      "▁trouble.": 7696,
      "fresh": 7697,
      "▁discover": 7698,
      "high.": 7699,
      "▁a▁few": 7700,
      "▁the▁money▁": 7701,
      "expensive.": 7702,
      "minut": 7703,
      "▁睇佢": 7704,
      "ocol": 7705,
      "▁今朝我": 7706,
      "▁we'll": 7707,
      "chap": 7708,
      "▁business": 7709,
      "▁give▁you": 7710,
      "▁earth": 7711,
      "necessar": 7712,
      "stupid": 7713,
      ",▁so▁that's▁why▁": 7714,
      "hone▁call": 7715,
      "▁because▁": 7716,
      "a▁person": 7717,
      "health": 7718,
      "!▁I've▁": 7719,
      ",▁I▁": 7720,
      ",▁we▁": 7721,
      "Cantones": 7722,
      "Dad▁": 7723,
      "I▁didn't▁": 7724,
      "Qu": 7725,
      "TR": 7726,
      "breat": 7727,
      "cool": 7728,
      "dad▁": 7729,
      "fast▁": 7730,
      "fift": 7731,
      "hop": 7732,
      "jump": 7733,
      "kitch": 7734,
      "long▁": 7735,
      "mistak": 7736,
      "norm": 7737,
      "sold▁": 7738,
      "simp": 7739,
      "▁去": 7740,
      "▁打": 7741,
      "▁唔係": 7742,
      "▁大佬": 7743,
      "份工": 7744,
      "佢做": 7745,
      "佢？": 7746,
      "個星期": 7747,
      "個個都": 7748,
      "借錢": 7749,
      "先得": 7750,
      "公園": 7751,
      "其他": 7752,
      "冷氣": 7753,
      "利是": 7754,
      "呢張": 7755,
      "呢啲嘢": 7756,
      "周身": 7757,
      "咁高": 7758,
      "唔去": 7759,
      "唔多": 7760,
      "啩。": 7761,
      "嚟，": 7762,
      "嚟嘅。": 7763,
      "地下": 7764,
      "埋。": 7765,
      "多數": 7766,
      "就冇": 7767,
      "就走": 7768,
      "幾大": 7769,
      "情况": 7770,
      "我冇": 7771,
      "我同": 7772,
      "我！": 7773,
      "時時": 7774,
      "正。": 7775,
      "準備": 7776,
      "煙。": 7777,
      "爸爸": 7778,
      "牛肉": 7779,
      "特別": 7780,
      "球員": 7781,
      "發覺": 7782,
      "皮。": 7783,
      "經濟": 7784,
      "花生": 7785,
      "荷包": 7786,
      "行。": 7787,
      "衫。": 7788,
      "親。": 7789,
      "話，我": 7790,
      "話，你": 7791,
      "跑步": 7792,
      "跟住": 7793,
      "轉頭": 7794,
      "過去": 7795,
      "都打": 7796,
      "開會": 7797,
      "高興": 7798,
      "，食": 7799,
      "，今日": 7800,
      "，淨係": 7801,
      "，結果": 7802,
      "e▁on": 7803,
      "▁tall": 7804,
      "▁tong": 7805,
      "er▁": 7806,
      "▁thirty▁": 7807,
      "ongh": 7808,
      "one▁with": 7809,
      "arn": 7810,
      "▁she▁was▁": 7811,
      "it's": 7812,
      "▁the▁matter": 7813,
      "you'll": 7814,
      "he▁will": 7815,
      "he▁would▁": 7816,
      "▁to▁you": 7817,
      "▁to▁me.": 7818,
      "ately": 7819,
      "▁Ter": 7820,
      ",▁okay?": 7821,
      "ed▁out▁": 7822,
      "ed▁in▁the▁": 7823,
      "ing▁down": 7824,
      "espec": 7825,
      "forgotten": 7826,
      "her▁": 7827,
      "▁boss▁": 7828,
      "ed▁two▁": 7829,
      "ed▁their": 7830,
      "all▁the▁": 7831,
      "usel": 7832,
      "ise▁": 7833,
      "is▁that▁": 7834,
      "chop": 7835,
      "▁daughter": 7836,
      "▁我好": 7837,
      "▁hea": 7838,
      "otorc": 7839,
      "acr": 7840,
      "▁you▁have▁": 7841,
      ",▁so▁let's▁": 7842,
      "▁park": 7843,
      "▁fun": 7844,
      "▁food▁": 7845,
      "▁flat": 7846,
      "▁find▁": 7847,
      "es▁his▁": 7848,
      "▁The▁c": 7849,
      "behav": 7850,
      "▁He▁likes▁to▁": 7851,
      "ident▁": 7852,
      "amoun": 7853,
      "▁Since▁": 7854,
      "neigh": 7855,
      "so▁many▁": 7856,
      "▁los": 7857,
      "e▁what▁": 7858,
      "en▁and▁": 7859,
      "ago.": 7860,
      "▁of▁my▁": 7861,
      "▁of▁your": 7862,
      "ilit": 7863,
      "▁and▁forth": 7864,
      "when▁": 7865,
      "exact": 7866,
      "▁This▁kind▁of": 7867,
      "▁This▁shirt▁": 7868,
      "have▁enough": 7869,
      "▁Macau": 7870,
      "▁Dur": 7871,
      "▁with▁his▁": 7872,
      "utom": 7873,
      "angry▁": 7874,
      "end.": 7875,
      "endure▁": 7876,
      ",▁but▁it's▁": 7877,
      "umbre": 7878,
      "▁I▁won't▁": 7879,
      "e▁thes": 7880,
      "conc": 7881,
      "▁the▁past": 7882,
      "▁the▁pric": 7883,
      "end▁of": 7884,
      "▁things▁that▁": 7885,
      "looked▁": 7886,
      "save▁": 7887,
      "▁does▁": 7888,
      "▁Each": 7889,
      ",▁as▁he's▁": 7890,
      "still▁not▁": 7891,
      "▁Nobody▁": 7892,
      "ance▁to▁": 7893,
      "cry": 7894,
      "，好唔好": 7895,
      "唔到。": 7896,
      "friends▁": 7897,
      "▁He's▁really▁": 7898,
      "back▁h": 7899,
      "▁the▁way▁": 7900,
      "disappear": 7901,
      "rained▁": 7902,
      "e▁to▁take▁": 7903,
      "都冇。": 7904,
      "▁or▁not": 7905,
      "uffer": 7906,
      "I'm▁not▁": 7907,
      "urely▁": 7908,
      "▁He▁is▁so▁": 7909,
      "▁such▁a▁long▁tim": 7910,
      "▁charg": 7911,
      "▁play▁": 7912,
      "asket": 7913,
      "say▁anyth": 7914,
      "ity▁of": 7915,
      "was▁the▁": 7916,
      "▁company": 7917,
      "lower": 7918,
      "▁when▁you": 7919,
      "a▁taxi": 7920,
      "得好犀利": 7921,
      "▁ve": 7922,
      "▁I▁want▁to▁buy▁": 7923,
      "▁Just▁now▁I▁saw": 7924,
      "for▁me.": 7925,
      "▁呢間舖頭": 7926,
      "school.": 7927,
      "Chinese▁character": 7928,
      "house.": 7929,
      "something": 7930,
      "▁阿媽": 7931,
      "▁traffic": 7932,
      "respon": 7933,
      "ed▁himself": 7934,
      "gambl": 7935,
      "▁and▁then": 7936,
      "▁today?": 7937,
      "▁the▁money.": 7938,
      "▁tomorrow.": 7939,
      "▁a▁long▁time.": 7940,
      "▁Do▁you▁think": 7941,
      "ottom": 7942,
      "▁smok": 7943,
      "quite▁want▁to▁": 7944,
      "▁Recently": 7945,
      "important": 7946,
      "knock": 7947,
      "細個嗰陣時": 7948,
      "▁Is▁it▁": 7949,
      "believ": 7950,
      "believe▁": 7951,
      "advantage▁of": 7952,
      "enjoy▁": 7953,
      "vegetable": 7954,
      "develop": 7955,
      "you▁are!": 7956,
      "behind▁": 7957,
      "▁無論": 7958,
      "▁Origin": 7959,
      "onghu": 7960,
      "neighbor": 7961,
      "umbrell": 7962,
      "I▁must▁": 7963,
      "aim": 7964,
      "ahjong": 7965,
      "bought": 7966,
      "ce": 7967,
      "chat": 7968,
      "fle": 7969,
      "fus": 7970,
      "gear": 7971,
      "gard": 7972,
      "genc": 7973,
      "hik": 7974,
      "i.": 7975,
      "jack": 7976,
      "land": 7977,
      "lick": 7978,
      "mon": 7979,
      "most": 7980,
      "rar": 7981,
      "rim": 7982,
      "situation": 7983,
      "solut": 7984,
      "y▁that▁": 7985,
      "yell": 7986,
      "zz": 7987,
      "▁以": 7988,
      "▁先": 7989,
      "▁冇": 7990,
      "▁得": 7991,
      "▁車": 7992,
      "▁公司": 7993,
      "▁every▁": 7994,
      "▁幫我": 7995,
      "▁Qu": 7996,
      "一個人": 7997,
      "下晝": 7998,
      "不如": 7999,
      "之前": 8000,
      "住喺": 8001,
      "你，": 8002,
      "佢冇": 8003,
      "使唔使": 8004,
      "係一": 8005,
      "俾個": 8006,
      "做法": 8007,
      "先，": 8008,
      "兩日": 8009,
      "出聲": 8010,
      "勤力": 8011,
      "去飲": 8012,
      "同佢哋": 8013,
      "味。": 8014,
      "哋。": 8015,
      "唔掂": 8016,
      "唔落": 8017,
      "唔小心": 8018,
      "喎，": 8019,
      "嗰間": 8020,
      "嗰個人": 8021,
      "嘅人。": 8022,
      "士。": 8023,
      "外國": 8024,
      "好快": 8025,
      "幾次": 8026,
      "張枱": 8027,
      "得佢": 8028,
      "應承": 8029,
      "成績": 8030,
      "打到": 8031,
      "搵緊": 8032,
      "日本": 8033,
      "明星": 8034,
      "條路": 8035,
      "正常": 8036,
      "水喉": 8037,
      "沖涼": 8038,
      "用。": 8039,
      "睇戲": 8040,
      "簡單": 8041,
      "紙。": 8042,
      "細蚊": 8043,
      "老母": 8044,
      "耳窿": 8045,
      "裝修": 8046,
      "請你": 8047,
      "識得": 8048,
      "負責": 8049,
      "走去": 8050,
      "返學": 8051,
      "退休": 8052,
      "都可以": 8053,
      "除咗": 8054,
      "隻狗": 8055,
      "電影": 8056,
      "霸王": 8057,
      "麻麻": 8058,
      "點會": 8059,
      "點啊？": 8060,
      "！你": 8061,
      "e▁for": 8062,
      "▁tip": 8063,
      "▁teach": 8064,
      "in▁my▁": 8065,
      "in▁front▁of": 8066,
      "▁thick": 8067,
      "▁thought▁": 8068,
      "answ": 8069,
      "ing▁the▁m": 8070,
      "or▁so▁": 8071,
      "arant": 8072,
      "you▁should▁": 8073,
      "▁to▁buy▁": 8074,
      "▁to▁Hong▁Kong": 8075,
      "▁a▁re": 8076,
      "▁away▁": 8077,
      "▁I▁haven't▁": 8078,
      "at▁this▁": 8079,
      "stol": 8080,
      "stra": 8081,
      "station": 8082,
      "stomach": 8083,
      "▁wor": 8084,
      "▁was": 8085,
      "ed▁some▁": 8086,
      "of▁m": 8087,
      "ing▁l": 8088,
      "▁cam": 8089,
      "▁coff": 8090,
      "▁mov": 8091,
      "▁佢經已": 8092,
      "▁bag": 8093,
      "lean": 8094,
      "edly▁": 8095,
      "is▁too▁": 8096,
      "childr": 8097,
      "elve▁": 8098,
      "▁我個": 8099,
      "▁hit▁": 8100,
      "▁high": 8101,
      "ass.": 8102,
      "iron": 8103,
      "otel": 8104,
      "rist": 8105,
      "riad▁": 8106,
      "▁paper": 8107,
      "▁fre": 8108,
      "▁food": 8109,
      "▁five▁": 8110,
      "es▁have▁": 8111,
      "▁你成日": 8112,
      "▁你唔使": 8113,
      "are▁not▁": 8114,
      "are▁you▁": 8115,
      "bump": 8116,
      "▁had": 8117,
      "urp": 8118,
      "olk": 8119,
      "up▁in": 8120,
      "nowad": 8121,
      "search": 8122,
      ",▁and▁he▁": 8123,
      "▁呢套": 8124,
      "▁呢件衫": 8125,
      "e▁work": 8126,
      "▁of▁his▁": 8127,
      "shopp": 8128,
      "be▁in": 8129,
      "be▁more▁": 8130,
      "has▁already▁": 8131,
      "唔好咁": 8132,
      "▁Mongkok": 8133,
      "e▁the▁t": 8134,
      "▁Dad▁": 8135,
      "ell.": 8136,
      "angry.": 8137,
      "odel": 8138,
      "ent▁and▁": 8139,
      "▁who": 8140,
      "▁whether": 8141,
      "goes▁": 8142,
      "evidenc": 8143,
      "can▁you": 8144,
      "your▁m": 8145,
      "inks▁": 8146,
      "▁the▁bl": 8147,
      "▁the▁book": 8148,
      "▁the▁boss.": 8149,
      "e▁than▁": 8150,
      "no▁use▁": 8151,
      "，你仲": 8152,
      "▁In▁Hong▁Kong": 8153,
      "condition": 8154,
      "construction": 8155,
      "old▁f": 8156,
      "end▁of▁the▁": 8157,
      "gets▁": 8158,
      "▁them?": 8159,
      "▁the▁middle▁": 8160,
      "▁I'm▁s": 8161,
      "▁that▁they▁": 8162,
      "ing▁sex": 8163,
      "I▁work": 8164,
      "cause▁": 8165,
      "still▁hasn't▁": 8166,
      "▁BB": 8167,
      "ew▁Ter": 8168,
      "▁New▁Year": 8169,
      "okay.": 8170,
      "away": 8171,
      "assage▁": 8172,
      "itted▁": 8173,
      "▁Don't▁be▁so▁": 8174,
      "a▁comp": 8175,
      "crack": 8176,
      ",▁he▁was▁": 8177,
      "▁has▁become▁": 8178,
      "▁takes▁": 8179,
      "▁taking▁a": 8180,
      "，真係唔": 8181,
      "▁How▁many▁": 8182,
      "everywhere▁": 8183,
      "佢哋。": 8184,
      "probably▁": 8185,
      ",▁I▁don't▁": 8186,
      "rub": 8187,
      "box": 8188,
      "，有時": 8189,
      "by▁the▁": 8190,
      "make▁a▁": 8191,
      "living.": 8192,
      "▁children": 8193,
      "all▁over": 8194,
      "elephone▁": 8195,
      "see▁a▁movi": 8196,
      "whole▁body▁": 8197,
      "big.": 8198,
      "accept": 8199,
      "▁Do▁you▁": 8200,
      "▁Only▁": 8201,
      ",▁so▁it's▁no▁wonder": 8202,
      "a▁woman": 8203,
      "▁class": 8204,
      "▁Everybody▁": 8205,
      "▁我想買": 8206,
      "restaurant": 8207,
      "difficult▁": 8208,
      "difficult.": 8209,
      "▁through▁the▁": 8210,
      "collect": 8211,
      "▁this▁matter.": 8212,
      "entertain": 8213,
      "的士司機": 8214,
      "▁again.": 8215,
      "▁terribly▁": 8216,
      "stock▁market▁": 8217,
      "ing▁mach": 8218,
      "fast.": 8219,
      "arrang": 8220,
      "▁business▁": 8221,
      "occasion": 8222,
      "方便。": 8223,
      "building": 8224,
      "or▁not?": 8225,
      "satisfi": 8226,
      "▁I▁would▁like▁to▁": 8227,
      "no▁matter▁how": 8228,
      "▁He▁took": 8229,
      "▁Before▁": 8230,
      "reveal": 8231,
      "societ": 8232,
      "enuine▁": 8233,
      "eventually▁": 8234,
      "it▁turns▁out▁": 8235,
      "▁Let▁me▁": 8236,
      "naturally▁": 8237,
      "etween": 8238,
      "結咗婚": 8239,
      "ew▁Territor": 8240,
      "-w": 8241,
      "-up": 8242,
      "19": 8243,
      "Lunar": 8244,
      "New▁Territor": 8245,
      "be▁t": 8246,
      "cu": 8247,
      "did": 8248,
      "dur": 8249,
      "dirt": 8250,
      "ez": 8251,
      "e,▁and": 8252,
      "fron": 8253,
      "ge": 8254,
      "hire▁": 8255,
      "kiss": 8256,
      "ld▁": 8257,
      "lac": 8258,
      "me?": 8259,
      "mudd": 8260,
      "male▁": 8261,
      "pork": 8262,
      "pock": 8263,
      "ran": 8264,
      "rup": 8265,
      "sim": 8266,
      "s,▁then": 8267,
      "super": 8268,
      "ted▁": 8269,
      "valu": 8270,
      "▁人": 8271,
      "▁等": 8272,
      "▁落": 8273,
      "▁陳": 8274,
      "▁anyth": 8275,
      "▁years▁": 8276,
      "▁like▁that.": 8277,
      "▁因住": 8278,
      "▁差人": 8279,
      "▁警方": 8280,
      "一路": 8281,
      "不留": 8282,
      "五十": 8283,
      "人嘅": 8284,
      "仆街": 8285,
      "仲好": 8286,
      "你做": 8287,
      "佢咁": 8288,
      "係冇": 8289,
      "即係": 8290,
      "可唔可以": 8291,
      "合格": 8292,
      "唔肯": 8293,
      "唧？": 8294,
      "喺街": 8295,
      "坐喺": 8296,
      "多。": 8297,
      "夠膽": 8298,
      "大話": 8299,
      "女。": 8300,
      "定。": 8301,
      "對我": 8302,
      "小學": 8303,
      "幾鍾意": 8304,
      "度，": 8305,
      "廣東": 8306,
      "得個": 8307,
      "得唔得": 8308,
      "想去": 8309,
      "意見": 8310,
      "掛住": 8311,
      "搵食": 8312,
      "料。": 8313,
      "新界": 8314,
      "日我": 8315,
      "會喺": 8316,
      "業主": 8317,
      "樣嘢": 8318,
      "櫃桶": 8319,
      "片。": 8320,
      "理。": 8321,
      "琴日": 8322,
      "生咗": 8323,
      "番啲": 8324,
      "病咗": 8325,
      "發生": 8326,
      "究竟": 8327,
      "肯定": 8328,
      "行埋": 8329,
      "街市": 8330,
      "衰人": 8331,
      "記者": 8332,
      "返到": 8333,
      "過咗": 8334,
      "阿蛇": 8335,
      "隻腳": 8336,
      "電單車": 8337,
      "！我": 8338,
      "，講": 8339,
      "，邊": 8340,
      "，原來": 8341,
      "？你": 8342,
      "𠻹！": 8343,
      "in▁his▁": 8344,
      "in▁re": 8345,
      "ers": 8346,
      "er▁brother": 8347,
      "▁thank": 8348,
      "▁sc": 8349,
      "▁suddenly▁": 8350,
      "its.": 8351,
      "itud": 8352,
      "▁the▁hell": 8353,
      "ham": 8354,
      "▁to▁his▁": 8355,
      "▁to▁eat▁": 8356,
      "▁to▁look▁for": 8357,
      "▁air": 8358,
      "▁a▁sh": 8359,
      "▁a▁girl": 8360,
      "▁I▁have▁to▁": 8361,
      "atic": 8362,
      "ate▁with": 8363,
      "stic": 8364,
      "▁Tak": 8365,
      ",▁don't▁": 8366,
      ",▁how": 8367,
      "ed▁on▁the▁": 8368,
      "ald": 8369,
      "almost▁": 8370,
      "▁cha": 8371,
      "▁could": 8372,
      "▁me▁to▁": 8373,
      "▁佢個": 8374,
      "▁佢做": 8375,
      "▁佢鍾意": 8376,
      "foreign": 8377,
      "▁birth": 8378,
      "▁Hongkong": 8379,
      "edic": 8380,
      "ed▁to▁the▁": 8381,
      "all▁d": 8382,
      "used▁": 8383,
      "is!": 8384,
      "children": 8385,
      "else▁": 8386,
      "▁我都": 8387,
      "▁我真係": 8388,
      "▁我鍾意": 8389,
      "▁hard": 8390,
      "asp": 8391,
      "at▁all.": 8392,
      "act▁": 8393,
      ",▁so▁we▁": 8394,
      "▁fam": 8395,
      "▁film": 8396,
      "es▁were▁": 8397,
      "▁The▁Hong▁Kong": 8398,
      "▁The▁doctor": 8399,
      "▁The▁cop": 8400,
      "▁The▁best▁th": 8401,
      "▁gover": 8402,
      "▁gets▁": 8403,
      "▁你去": 8404,
      "▁你啲": 8405,
      "▁你有": 8406,
      "unluck": 8407,
      "▁had▁to▁": 8408,
      "heart": 8409,
      "▁Speak": 8410,
      "▁You▁want▁to▁": 8411,
      "▁to▁take▁the▁": 8412,
      ",▁and▁it's▁": 8413,
      "▁呢單": 8414,
      "▁呢種": 8415,
      "oulder": 8416,
      "earli": 8417,
      "▁lots▁of": 8418,
      "en▁are▁": 8419,
      "shout": 8420,
      "▁stick": 8421,
      "▁step": 8422,
      "one?": 8423,
      "exha": 8424,
      "with▁": 8425,
      "with▁his▁": 8426,
      "▁This▁is▁": 8427,
      "have▁you": 8428,
      "▁Did▁": 8429,
      "emb": 8430,
      "it's▁no▁wonder": 8431,
      "carry▁": 8432,
      "ender": 8433,
      "▁whole▁": 8434,
      "umb": 8435,
      "umbl": 8436,
      "a▁job": 8437,
      "so▁that▁": 8438,
      "▁I▁went▁": 8439,
      "effor": 8440,
      "do▁anyth": 8441,
      "class▁": 8442,
      "anyone▁": 8443,
      "都唔會": 8444,
      "▁the▁park": 8445,
      "▁It's▁quite▁": 8446,
      "▁trad": 8447,
      "result": 8448,
      "▁on▁earth": 8449,
      "aster": 8450,
      "▁things,▁so▁": 8451,
      "▁them▁to▁": 8452,
      "▁themselv": 8453,
      "girls▁": 8454,
      "▁My▁son": 8455,
      "▁I▁like▁to▁": 8456,
      "some▁people▁": 8457,
      "had▁been": 8458,
      "▁有時": 8459,
      "blow": 8460,
      "▁If▁he▁": 8461,
      "▁I'm▁now": 8462,
      "▁Look": 8463,
      "▁that▁the▁": 8464,
      "from▁the▁": 8465,
      "I▁won't▁": 8466,
      "come▁and▁": 8467,
      "action": 8468,
      "grown": 8469,
      "newly▁": 8470,
      "a▁cop": 8471,
      "cru": 8472,
      "，好難": 8473,
      "s▁in▁this▁": 8474,
      ",▁he▁then": 8475,
      "唔係好": 8476,
      "▁啲細路仔": 8477,
      "▁talking▁about▁": 8478,
      "▁the▁way": 8479,
      "smooth": 8480,
      "irect": 8481,
      "irector": 8482,
      "a▁small": 8483,
      "▁asleep.": 8484,
      "▁night": 8485,
      "weak": 8486,
      "dollars.": 8487,
      "already": 8488,
      "▁His▁father": 8489,
      "自己嘅": 8490,
      "about▁it?": 8491,
      "e▁together": 8492,
      "同佢講": 8493,
      "screw": 8494,
      "▁I▁don't▁want▁to▁": 8495,
      "boil": 8496,
      "worn": 8497,
      "imposs": 8498,
      "long.": 8499,
      "are▁you▁go": 8500,
      "▁chang": 8501,
      "easy▁": 8502,
      "▁plan": 8503,
      "apan": 8504,
      "▁twelve▁": 8505,
      "▁Give▁": 8506,
      "en't▁you": 8507,
      "against": 8508,
      "▁company▁": 8509,
      "give▁you": 8510,
      "▁老婆": 8511,
      "▁these▁several": 8512,
      "meet": 8513,
      "hotel": 8514,
      "engag": 8515,
      "ogg": 8516,
      "face.": 8517,
      "speaks▁": 8518,
      "▁Whatever": 8519,
      "▁What's": 8520,
      "ing▁water": 8521,
      "食飯。": 8522,
      "life▁": 8523,
      "correct": 8524,
      "▁advantag": 8525,
      "▁Who▁would▁": 8526,
      "partic": 8527,
      "store▁": 8528,
      "says▁he▁": 8529,
      "control": 8530,
      "major": 8531,
      "▁what▁to▁": 8532,
      "parents▁": 8533,
      "al▁est": 8534,
      "broken": 8535,
      "一定要": 8536,
      "▁You▁are▁so▁": 8537,
      "hurt▁": 8538,
      "immig": 8539,
      "antonese▁": 8540,
      "▁strength": 8541,
      "provid": 8542,
      "▁This▁time▁": 8543,
      "responsible▁": 8544,
      "▁我聽人哋": 8545,
      "▁Un": 8546,
      "enjoy": 8547,
      "unhappy.": 8548,
      "criticiz": 8549,
      "loudly▁": 8550,
      "▁certainly▁": 8551,
      "second": 8552,
      "second▁": 8553,
      "ification": 8554,
      "different▁": 8555,
      "promis": 8556,
      "▁head▁": 8557,
      "see▁the▁doctor": 8558,
      "company's▁": 8559,
      "afraid▁of": 8560,
      "e▁trou": 8561,
      "▁Have▁you": 8562,
      "employe": 8563,
      "a▁friend▁": 8564,
      "▁appearanc": 8565,
      "zhou": 8566,
      "▁Is▁there▁": 8567,
      "slipper": 8568,
      "▁relationship": 8569,
      "sentenc": 8570,
      "avoid▁": 8571,
      "familiar": 8572,
      "▁Ordinarily▁": 8573,
      "ctopus▁": 8574,
      "▁all▁the▁time.": 8575,
      "old▁folk": 8576,
      ",▁when": 8577,
      "-in": 8578,
      ".▁He▁": 8579,
      "I▁got▁": 8580,
      "Macau": 8581,
      "MTR": 8582,
      "bother": 8583,
      "cour": 8584,
      "cash": 8585,
      "chas": 8586,
      "dig": 8587,
      "deli": 8588,
      "finger": 8589,
      "fiel": 8590,
      "gener": 8591,
      "ible": 8592,
      "key": 8593,
      "less.": 8594,
      "men": 8595,
      "mar": 8596,
      "mis": 8597,
      "main": 8598,
      "milk": 8599,
      "maybe▁": 8600,
      "nal": 8601,
      "nood": 8602,
      "port": 8603,
      "ring": 8604,
      "ram": 8605,
      "rag": 8606,
      "rent▁": 8607,
      "rimp": 8608,
      "s▁to▁take▁": 8609,
      "yester": 8610,
      "zhen": 8611,
      "▁喂": 8612,
      "▁嘩": 8613,
      "▁就": 8614,
      "▁班": 8615,
      "▁用": 8616,
      "▁like▁that": 8617,
      "▁room": 8618,
      "▁小心": 8619,
      "▁醫生": 8620,
      "▁around": 8621,
      "三文": 8622,
      "不過": 8623,
      "伙記": 8624,
      "住條": 8625,
      "你！": 8626,
      "佢喺": 8627,
      "佢，佢": 8628,
      "佢啦。": 8629,
      "俾我": 8630,
      "做完": 8631,
      "傾偈": 8632,
      "入去": 8633,
      "入面": 8634,
      "八達": 8635,
      "勢。": 8636,
      "又係": 8637,
      "同我哋": 8638,
      "同女朋友": 8639,
      "呢區": 8640,
      "呢隻": 8641,
      "咗好耐": 8642,
      "咩！": 8643,
      "唔起": 8644,
      "唔過": 8645,
      "唔錯": 8646,
      "唔順": 8647,
      "唯有": 8648,
      "啦啦": 8649,
      "啲，": 8650,
      "啲啦！": 8651,
      "喺個": 8652,
      "地。": 8653,
      "地產": 8654,
      "好過": 8655,
      "將啲": 8656,
      "就有": 8657,
      "尾。": 8658,
      "巴閉": 8659,
      "幫襯": 8660,
      "年紀": 8661,
      "廚房": 8662,
      "得一": 8663,
      "得太": 8664,
      "得啊？": 8665,
      "感覺": 8666,
      "懷疑": 8667,
      "我做": 8668,
      "所謂": 8669,
      "揸住": 8670,
      "搬屋": 8671,
      "搭的士": 8672,
      "放咗": 8673,
      "放工": 8674,
      "新聞": 8675,
      "有三": 8676,
      "有得": 8677,
      "條友": 8678,
      "梳化": 8679,
      "比較": 8680,
      "泊車": 8681,
      "減肥": 8682,
      "濕濕": 8683,
      "牌。": 8684,
      "生活": 8685,
      "畀人": 8686,
      "知我": 8687,
      "竟然": 8688,
      "第一": 8689,
      "精神": 8690,
      "老人家": 8691,
      "自然": 8692,
      "茶。": 8693,
      "茶餐廳": 8694,
      "落去。": 8695,
      "血。": 8696,
      "裇衫": 8697,
      "要求": 8698,
      "講。": 8699,
      "講我": 8700,
      "貨。": 8701,
      "酒吧": 8702,
      "開。": 8703,
      "陣間": 8704,
      "面前": 8705,
      "黑色": 8706,
      "點幾": 8707,
      "點樣": 8708,
      "，出": 8709,
      "，最": 8710,
      "，每": 8711,
      "，一個": 8712,
      "，其實": 8713,
      "？我": 8714,
      "e▁him": 8715,
      "▁top": 8716,
      "▁tid": 8717,
      "▁tough": 8718,
      "▁tight": 8719,
      "▁train": 8720,
      "▁ticket": 8721,
      "in▁": 8722,
      "in▁s": 8723,
      "in▁that▁": 8724,
      "infl": 8725,
      "▁thing▁": 8726,
      "▁thro": 8727,
      "once▁": 8728,
      "onstr": 8729,
      "env": 8730,
      "ary.": 8731,
      "▁sick": 8732,
      "is▁it▁": 8733,
      "he▁can": 8734,
      "▁to▁make▁": 8735,
      "▁to▁earn": 8736,
      "▁I▁must▁": 8737,
      "▁I▁ask": 8738,
      "ated.": 8739,
      "stay▁": 8740,
      "stuck": 8741,
      "▁wif": 8742,
      ",▁because▁": 8743,
      ",▁yet▁": 8744,
      "oward▁": 8745,
      "ing▁for▁": 8746,
      "ing▁nois": 8747,
      "alse▁": 8748,
      "es▁that▁": 8749,
      "▁cas": 8750,
      "▁count": 8751,
      "▁most▁": 8752,
      "▁佢打": 8753,
      "▁佢用": 8754,
      "▁佢而家": 8755,
      "▁佢啱啱": 8756,
      "▁佢老豆": 8757,
      "for▁a▁m": 8758,
      "▁bl": 8759,
      "vert": 8760,
      "imb": 8761,
      "imsum": 8762,
      "all▁s": 8763,
      "▁deal": 8764,
      "▁我去": 8765,
      "ass▁of": 8766,
      "ird▁": 8767,
      "otter": 8768,
      "ries▁": 8769,
      "ripp": 8770,
      ",▁so▁now": 8771,
      ",▁so▁you▁need▁to▁": 8772,
      "illn": 8773,
      "▁polic": 8774,
      "▁The▁shirt▁": 8775,
      "akes▁": 8776,
      "▁你噉": 8777,
      "le▁and▁": 8778,
      "▁He▁said": 8779,
      "unable▁to▁": 8780,
      "osquit": 8781,
      "build▁": 8782,
      "his▁wife▁": 8783,
      "up?": 8784,
      "▁Young": 8785,
      "then▁": 8786,
      "antly▁": 8787,
      "▁to▁turn": 8788,
      "▁呢件": 8789,
      "▁呢部": 8790,
      "▁呢個人": 8791,
      "▁呢幾日": 8792,
      "▁lost▁": 8793,
      "▁and▁don't▁": 8794,
      "shut▁": 8795,
      "▁in▁a": 8796,
      "▁inter": 8797,
      "▁start▁": 8798,
      "raid": 8799,
      "was▁quite▁": 8800,
      "come.": 8801,
      "with▁him": 8802,
      "▁Who": 8803,
      "▁Maybe▁": 8804,
      "▁with▁him": 8805,
      "ends▁": 8806,
      "go▁to": 8807,
      "▁there▁were▁": 8808,
      "other▁people▁": 8809,
      "evil": 8810,
      "spent▁": 8811,
      "▁shirt▁": 8812,
      "，你要": 8813,
      "don't▁you▁": 8814,
      "ous!": 8815,
      "▁In▁this▁": 8816,
      "intend": 8817,
      "都唔使": 8818,
      "s▁of▁your": 8819,
      "▁She▁was▁": 8820,
      "▁She▁said▁": 8821,
      "find": 8822,
      "▁Ok": 8823,
      "istic": 8824,
      "ble▁to▁": 8825,
      "get▁off": 8826,
      "▁that!": 8827,
      "▁that?": 8828,
      "▁Then": 8829,
      "▁Thos": 8830,
      "s▁are▁very▁": 8831,
      "ing▁some": 8832,
      "▁here!": 8833,
      "caff": 8834,
      "朋友。": 8835,
      "▁the▁sid": 8836,
      "▁the▁situation": 8837,
      "like▁to": 8838,
      "off.": 8839,
      "awn": 8840,
      "awfully▁": 8841,
      "dropp": 8842,
      "ly!": 8843,
      "a▁problem": 8844,
      "crash": 8845,
      "▁has▁been▁": 8846,
      "days.": 8847,
      "▁beer": 8848,
      "e▁is▁very▁": 8849,
      "▁When▁I": 8850,
      "▁When▁will": 8851,
      "ire.": 8852,
      "ers▁who▁": 8853,
      "e,▁so▁he▁": 8854,
      "▁no": 8855,
      "discus": 8856,
      "▁佢哋兩個": 8857,
      "more▁and▁": 8858,
      "boy▁is▁": 8859,
      "咁多嘢": 8860,
      "a▁good": 8861,
      "▁He▁is▁very▁": 8862,
      "ed▁by▁some": 8863,
      "manag": 8864,
      "I▁know": 8865,
      "if▁you▁don't▁": 8866,
      "able▁and▁": 8867,
      "eleph": 8868,
      "find▁someone▁to▁": 8869,
      "▁face▁": 8870,
      "▁telling▁": 8871,
      "merely▁": 8872,
      "before▁I": 8873,
      "made▁me▁": 8874,
      "▁Last▁night": 8875,
      "，冇人": 8876,
      "▁morn": 8877,
      "s▁without▁": 8878,
      "poin": 8879,
      "hot.": 8880,
      "every▁day▁": 8881,
      "aiter": 8882,
      "都幾好": 8883,
      "do▁you▁think": 8884,
      "Chinese▁New▁Year": 8885,
      "married▁": 8886,
      "▁soon": 8887,
      "▁The▁pric": 8888,
      "needs▁to▁": 8889,
      "certain": 8890,
      ",▁so▁you'd▁better": 8891,
      "eez": 8892,
      "lots▁of▁people▁": 8893,
      "▁addict": 8894,
      "好大雨": 8895,
      "▁the▁food▁": 8896,
      "gamble▁": 8897,
      "▁boil": 8898,
      "▁today.": 8899,
      "工作。": 8900,
      "e▁time▁": 8901,
      "問題。": 8902,
      ",▁so▁he▁really▁": 8903,
      "fallen": 8904,
      "▁proper": 8905,
      "▁kn": 8906,
      "your▁own": 8907,
      "number▁": 8908,
      "▁You▁don't▁need▁to▁": 8909,
      "細佬哥": 8910,
      "▁We've▁": 8911,
      "▁They": 8912,
      "好唔舒服": 8913,
      "vehic": 8914,
      "▁如果你想": 8915,
      "hurri": 8916,
      "▁dollars.": 8917,
      "be▁careful▁of": 8918,
      "henzhen": 8919,
      "knif": 8920,
      "younger▁brother": 8921,
      "dressed▁up": 8922,
      "next▁to▁": 8923,
      "or▁not.": 8924,
      "together": 8925,
      "ordinary▁": 8926,
      "ordinarily▁": 8927,
      "excit": 8928,
      "▁horse▁rac": 8929,
      "pretty.": 8930,
      "▁months▁": 8931,
      "rench": 8932,
      "▁Any": 8933,
      "young▁hooligan": 8934,
      "undred▁thousand▁dollar": 8935,
      "reckless": 8936,
      "lept▁": 8937,
      "ocolate▁": 8938,
      "especially▁": 8939,
      "otorcycle▁": 8940,
      "asketball": 8941,
      "細蚊仔": 8942,
      "Lunar▁New▁Year": 8943,
      "effort▁": 8944,
      "八達通": 8945,
      ".▁After": 8946,
      "I▁think": 8947,
      "I▁am": 8948,
      "a▁half": 8949,
      "best▁": 8950,
      "benef": 8951,
      "cup": 8952,
      "camp": 8953,
      "dick": 8954,
      "dirty▁": 8955,
      "ee.": 8956,
      "ead▁": 8957,
      "eed.": 8958,
      "e,▁I": 8959,
      "either": 8960,
      "fur": 8961,
      "fair": 8962,
      "foot": 8963,
      "female▁": 8964,
      "hung": 8965,
      "io": 8966,
      "ju": 8967,
      "mom": 8968,
      "o-": 8969,
      "power": 8970,
      "piece▁of": 8971,
      "round": 8972,
      "s▁t": 8973,
      "song": 8974,
      "siz": 8975,
      "uri": 8976,
      "ware▁": 8977,
      "ward▁": 8978,
      "weather": 8979,
      "▁前": 8980,
      "▁張": 8981,
      "▁死": 8982,
      "▁no▁": 8983,
      "▁new": 8984,
      "▁even": 8985,
      "▁out▁of": 8986,
      "▁警察": 8987,
      "▁間屋": 8988,
      "亂咁": 8989,
      "你好": 8990,
      "佢係": 8991,
      "佢個": 8992,
      "佢！": 8993,
      "侍應": 8994,
      "係用": 8995,
      "係香港": 8996,
      "做乜嘢": 8997,
      "做嘢。": 8998,
      "公仔": 8999,
      "凍到": 9000,
      "到你": 9001,
      "呢件衫": 9002,
      "咗兩": 9003,
      "咗咁耐": 9004,
      "唔出": 9005,
      "唔畀": 9006,
      "啲女仔": 9007,
      "喺呢間": 9008,
      "嘅貨": 9009,
      "嘅話，": 9010,
      "嘅地方": 9011,
      "嘢！": 9012,
      "噉！": 9013,
      "嚟做": 9014,
      "嚟嘅": 9015,
      "嚟越": 9016,
      "四個": 9017,
      "四粒": 9018,
      "埋我": 9019,
      "大細": 9020,
      "大鑊": 9021,
      "好啲": 9022,
      "家人": 9023,
      "對方": 9024,
      "小姐": 9025,
      "就去": 9026,
      "就好": 9027,
      "居民": 9028,
      "工程": 9029,
      "成功": 9030,
      "我屋企": 9031,
      "房。": 9032,
      "手指": 9033,
      "打過": 9034,
      "投資": 9035,
      "接受": 9036,
      "搵佢": 9037,
      "本地": 9038,
      "條褲": 9039,
      "機場": 9040,
      "求其": 9041,
      "火車": 9042,
      "熱天": 9043,
      "玻璃": 9044,
      "班人": 9045,
      "番。": 9046,
      "知唔知": 9047,
      "禮物": 9048,
      "籃球": 9049,
      "興趣": 9050,
      "行李": 9051,
      "話你": 9052,
      "諗住": 9053,
      "講乜。": 9054,
      "買樓": 9055,
      "越嚟越": 9056,
      "身材": 9057,
      "邊。": 9058,
      "錯咗": 9059,
      "電。": 9060,
      "靚女": 9061,
      "頸。": 9062,
      "飲。": 9063,
      "，咁": 9064,
      "，真": 9065,
      "，俾人": 9066,
      "▁typ": 9067,
      "s▁or": 9068,
      "s▁you": 9069,
      "s▁like▁that": 9070,
      "in▁p": 9071,
      "in▁l": 9072,
      "in▁fact▁": 9073,
      "ers▁to▁": 9074,
      "one▁that▁": 9075,
      "ing,▁as▁": 9076,
      "ing▁to▁the▁": 9077,
      "orig": 9078,
      "▁sn": 9079,
      "▁the▁h": 9080,
      "▁the▁doctor": 9081,
      "you!": 9082,
      "you▁will": 9083,
      "▁to▁eat.": 9084,
      "▁a▁ch": 9085,
      "stole▁": 9086,
      "▁way▁": 9087,
      "e▁take▁": 9088,
      "ed▁all": 9089,
      "ed▁out▁of": 9090,
      "of▁my▁": 9091,
      "often": 9092,
      "owlo": 9093,
      "ing▁c": 9094,
      "ing▁it": 9095,
      "ing▁around": 9096,
      "ing▁nons": 9097,
      "al▁p": 9098,
      "escap": 9099,
      "▁clear": 9100,
      "▁matter": 9101,
      "for▁s": 9102,
      "here,▁so▁": 9103,
      "▁both": 9104,
      "▁brok": 9105,
      "lead": 9106,
      "lead▁": 9107,
      "les▁of": 9108,
      "▁Hav": 9109,
      "icy": 9110,
      "is▁there▁": 9111,
      "isn't": 9112,
      "chem": 9113,
      "chew": 9114,
      "▁dat": 9115,
      "elon": 9116,
      "▁我冇": 9117,
      "▁我好鍾意": 9118,
      "▁我唔想": 9119,
      "as▁the▁": 9120,
      "ird": 9121,
      "▁po": 9122,
      "▁pay▁": 9123,
      "as▁a▁": 9124,
      "it▁is▁": 9125,
      "ops▁": 9126,
      "opular": 9127,
      "▁The▁water": 9128,
      "▁The▁automobile▁": 9129,
      "▁你講": 9130,
      "▁你應該": 9131,
      "▁你幾時": 9132,
      "▁Wow": 9133,
      "qui": 9134,
      "beef": 9135,
      "beach": 9136,
      "are▁we▁": 9137,
      "▁He▁and▁": 9138,
      "▁He▁work": 9139,
      "uncomfortable.": 9140,
      "ide.": 9141,
      "▁happ": 9142,
      "adv": 9143,
      "add▁": 9144,
      "▁Ad": 9145,
      "he'll": 9146,
      "ure▁is▁": 9147,
      "olog": 9148,
      "up▁the▁": 9149,
      "among": 9150,
      "ents.": 9151,
      "e▁to▁eat▁": 9152,
      "▁Sha": 9153,
      "▁You▁better": 9154,
      "separ": 9155,
      ",▁and▁after": 9156,
      "ander": 9157,
      "early▁": 9158,
      "▁later": 9159,
      "▁love▁": 9160,
      "likely▁": 9161,
      "ooker": 9162,
      "ago": 9163,
      "agaz": 9164,
      "▁this▁way▁": 9165,
      "▁this▁book": 9166,
      "▁in▁such": 9167,
      "comes▁": 9168,
      "ext▁": 9169,
      "with▁him.": 9170,
      "know▁what▁": 9171,
      "knowled": 9172,
      "ount▁": 9173,
      "my▁girlfriend▁": 9174,
      "persu": 9175,
      "▁This▁even": 9176,
      "▁This▁shop": 9177,
      "，我諗": 9178,
      "▁Many▁": 9179,
      "ing▁ab": 9180,
      "car.": 9181,
      "ended▁": 9182,
      ",▁but▁now": 9183,
      "▁forc": 9184,
      "other▁people": 9185,
      "spend▁": 9186,
      "fright": 9187,
      "▁the▁bill": 9188,
      "▁shar": 9189,
      "club": 9190,
      "ously▁": 9191,
      "s▁of▁": 9192,
      "▁his▁own": 9193,
      "▁trous": 9194,
      "resign": 9195,
      "▁She▁wants▁to▁": 9196,
      "estor": 9197,
      "obv": 9198,
      "▁things▁to▁": 9199,
      "finally▁": 9200,
      "girl.": 9201,
      "look▁at▁": 9202,
      "▁My▁bab": 9203,
      "▁Other": 9204,
      "sauc": 9205,
      "go▁on": 9206,
      "suit▁": 9207,
      "▁Even▁": 9208,
      "s▁are▁really▁": 9209,
      "ing▁so": 9210,
      "ing▁sp": 9211,
      "I▁would▁": 9212,
      "▁her▁": 9213,
      "caf": 9214,
      "a▁bar": 9215,
      "grab": 9216,
      "▁Next▁": 9217,
      "assag": 9218,
      "▁return": 9219,
      "ly?": 9220,
      "▁thinking▁about▁": 9221,
      "▁money▁to▁": 9222,
      "ound▁of": 9223,
      "▁I've▁got▁": 9224,
      "▁I've▁already▁": 9225,
      "everywher": 9226,
      "ossip": 9227,
      "guess": 9228,
      "▁If▁you▁have▁": 9229,
      "we're▁": 9230,
      "we'll": 9231,
      "somewhat▁": 9232,
      "▁His▁wife▁": 9233,
      "▁all▁the▁": 9234,
      "▁a▁year": 9235,
      "▁喺呢間": 9236,
      "busy": 9237,
      "remain": 9238,
      "board▁": 9239,
      "word": 9240,
      "worry▁": 9241,
      "咁多人": 9242,
      "▁at▁all": 9243,
      "impress": 9244,
      "▁I▁see▁": 9245,
      "▁I▁said▁": 9246,
      "lives▁": 9247,
      "，點解": 9248,
      "apart": 9249,
      "expect": 9250,
      "▁唔好咁": 9251,
      "▁Grand": 9252,
      "but▁to▁": 9253,
      "because▁the▁": 9254,
      "what▁he▁": 9255,
      "report": 9256,
      "▁guy▁": 9257,
      "or▁qual": 9258,
      "right!": 9259,
      "enough.": 9260,
      "▁perform": 9261,
      "▁when▁I▁was▁": 9262,
      "has▁the▁": 9263,
      "even▁if▁you": 9264,
      "▁at▁this▁": 9265,
      "every▁day": 9266,
      "同我講": 9267,
      "engage▁": 9268,
      "▁vacation": 9269,
      "都幾鍾意": 9270,
      "幾個月": 9271,
      "do▁you▁want▁to▁": 9272,
      "able?": 9273,
      "first▁time▁": 9274,
      "years▁old": 9275,
      "race.": 9276,
      "▁of▁us▁": 9277,
      "lucky▁": 9278,
      "lost▁his▁": 9279,
      "▁阿仔": 9280,
      "▁trap": 9281,
      "respect": 9282,
      "▁As▁soon▁as▁I": 9283,
      "ai▁P": 9284,
      "▁leader": 9285,
      "involv": 9286,
      "lightly▁": 9287,
      "▁study": 9288,
      "older▁brother": 9289,
      "pitiful": 9290,
      "gives▁": 9291,
      "girlfriend's▁": 9292,
      "日日都": 9293,
      "ed▁by▁the▁": 9294,
      "▁you▁ar": 9295,
      "▁boys▁": 9296,
      "▁I▁don't▁know▁why▁": 9297,
      "幾多錢": 9298,
      "▁grad": 9299,
      "ed▁her▁": 9300,
      "operation": 9301,
      "▁prof": 9302,
      "ituation.": 9303,
      "leave.": 9304,
      "passed▁": 9305,
      "唔見咗": 9306,
      "▁a▁good▁": 9307,
      "hors": 9308,
      "important▁": 9309,
      "leftover": 9310,
      "▁Why▁are▁you▁so▁": 9311,
      "surprise▁": 9312,
      "listen▁to▁": 9313,
      "econd": 9314,
      "necessarily▁": 9315,
      "▁triad▁societ": 9316,
      "came▁to▁": 9317,
      "feet▁": 9318,
      "▁afraid▁of": 9319,
      "bit▁of": 9320,
      "anquet▁": 9321,
      "stupid▁": 9322,
      "duct": 9323,
      "depend": 9324,
      "erection": 9325,
      "promot": 9326,
      "▁control": 9327,
      "▁頭先我見到": 9328,
      "I▁saw": 9329,
      "ideo▁": 9330,
      "▁a▁very▁long": 9331,
      "kinds▁of": 9332,
      "held▁": 9333,
      "▁Even▁though": 9334,
      "retty▁girl": 9335,
      "afternoon": 9336,
      "寫字樓": 9337,
      "▁health.": 9338,
      "，好唔好？": 9339,
      "▁veget": 9340,
      "▁Originally": 9341,
      "exhaust": 9342,
      "frighten": 9343,
      ",▁that▁": 9344,
      ",▁there's▁": 9345,
      "Central": 9346,
      "S.": 9347,
      "a▁and▁": 9348,
      "bish": 9349,
      "cher": 9350,
      "cent": 9351,
      "cunn": 9352,
      "den": 9353,
      "ei": 9354,
      "een▁": 9355,
      "e,▁so": 9356,
      "eous▁": 9357,
      "fired▁": 9358,
      "foot▁": 9359,
      "fifty▁": 9360,
      "gun": 9361,
      "game▁": 9362,
      "great": 9363,
      "gossip": 9364,
      "io▁": 9365,
      "ject▁": 9366,
      "lan": 9367,
      "lor": 9368,
      "lad": 9369,
      "lass": 9370,
      "line▁": 9371,
      "m.": 9372,
      "may": 9373,
      "nar": 9374,
      "ner.": 9375,
      "pot": 9376,
      "press": 9377,
      "police▁": 9378,
      "ral": 9379,
      "rent": 9380,
      "sour": 9381,
      "uang": 9382,
      "win": 9383,
      "wich": 9384,
      "y,▁but▁": 9385,
      "yph": 9386,
      "▁噚": 9387,
      "▁架": 9388,
      "▁細": 9389,
      "▁話": 9390,
      "▁like▁to▁": 9391,
      "▁天氣": 9392,
      "三日": 9393,
      "九龍": 9394,
      "交通": 9395,
      "令我": 9396,
      "仲要": 9397,
      "估唔到": 9398,
      "住啲": 9399,
      "你個": 9400,
      "你就": 9401,
      "係邊個": 9402,
      "保險": 9403,
      "傢俬": 9404,
      "冇咁": 9405,
      "冇幾耐": 9406,
      "到好": 9407,
      "力。": 9408,
      "十八": 9409,
      "同大": 9410,
      "呢行": 9411,
      "呢本書": 9412,
      "味道": 9413,
      "咁快": 9414,
      "咗成": 9415,
      "咪得": 9416,
      "唔入": 9417,
      "唔敢": 9418,
      "唔要": 9419,
      "唱歌": 9420,
      "啲乜嘢": 9421,
      "喺我": 9422,
      "嘅，你": 9423,
      "嘅嘢。": 9424,
      "嘞！": 9425,
      "嘢做": 9426,
      "嚇到": 9427,
      "嚟香港": 9428,
      "地盤": 9429,
      "埲牆": 9430,
      "場，": 9431,
      "大廈": 9432,
      "好易": 9433,
      "妹妹": 9434,
      "安全": 9435,
      "家。": 9436,
      "對佢": 9437,
      "工仔": 9438,
      "幫我哋": 9439,
      "影相": 9440,
      "後屘": 9441,
      "手機": 9442,
      "排我": 9443,
      "搵你。": 9444,
      "攞到": 9445,
      "放假": 9446,
      "文件": 9447,
      "新鮮": 9448,
      "會去": 9449,
      "枝筆": 9450,
      "條菜": 9451,
      "條街": 9452,
      "比賽": 9453,
      "污糟": 9454,
      "牀。": 9455,
      "牛奶": 9456,
      "理由": 9457,
      "甩。": 9458,
      "畀番": 9459,
      "皮膚": 9460,
      "相當": 9461,
      "眼鏡": 9462,
      "睇電視": 9463,
      "知。": 9464,
      "算係": 9465,
      "經常": 9466,
      "老虎": 9467,
      "自動": 9468,
      "落好大雨": 9469,
      "螺絲": 9470,
      "行為": 9471,
      "要用": 9472,
      "話係": 9473,
      "證據": 9474,
      "賺錢": 9475,
      "起嚟": 9476,
      "起上嚟": 9477,
      "跌落": 9478,
      "長嘅": 9479,
      "雜誌": 9480,
      "雞蛋": 9481,
      "雪糕": 9482,
      "震。": 9483,
      "音樂": 9484,
      "頭，": 9485,
      "食到": 9486,
      "黑幫": 9487,
      "點做": 9488,
      "，攞": 9489,
      "，用": 9490,
      "，快啲": 9491,
      "，做乜": 9492,
      "e▁my▁": 9493,
      "▁treat▁": 9494,
      "s▁he▁": 9495,
      "s▁per": 9496,
      "information": 9497,
      "▁than▁": 9498,
      "on▁my▁": 9499,
      "on▁his▁": 9500,
      "ore▁": 9501,
      "ara": 9502,
      "arat": 9503,
      "are▁t": 9504,
      "▁sist": 9505,
      "▁saw": 9506,
      "▁sign": 9507,
      "▁sleep": 9508,
      "ital": 9509,
      "▁the▁work": 9510,
      "hap": 9511,
      "is▁still": 9512,
      "you▁b": 9513,
      "you▁want▁to▁": 9514,
      "you▁say▁": 9515,
      "he▁was": 9516,
      "▁I▁got▁": 9517,
      "ato▁": 9518,
      "▁word": 9519,
      "and▁p": 9520,
      ",▁how▁can": 9521,
      "ed▁your": 9522,
      "ed▁about▁": 9523,
      "ed▁down": 9524,
      "ed▁into▁the▁": 9525,
      "ing▁over": 9526,
      "ing▁me▁": 9527,
      "al▁number": 9528,
      "always": 9529,
      "▁care▁": 9530,
      "▁credit▁": 9531,
      "▁might▁": 9532,
      "▁mark": 9533,
      "▁male▁": 9534,
      "▁佢買咗": 9535,
      "▁佢講嘢": 9536,
      "▁佢呢排": 9537,
      "▁佢份人": 9538,
      "for▁d": 9539,
      "forget": 9540,
      "her?": 9541,
      "here?": 9542,
      "▁bab": 9543,
      "▁bott": 9544,
      "led.": 9545,
      "lehead": 9546,
      "leader": 9547,
      "▁Hurry▁": 9548,
      "icial": 9549,
      "icycle▁": 9550,
      "ime▁": 9551,
      "usic": 9552,
      "uses▁": 9553,
      "iss.": 9554,
      "▁di": 9555,
      "▁des": 9556,
      "▁dist": 9557,
      "ely.": 9558,
      "elper": 9559,
      ",▁some▁": 9560,
      "▁我會": 9561,
      "▁hurry▁up▁and▁": 9562,
      "▁husband": 9563,
      "ghost": 9564,
      "irrit": 9565,
      "lid": 9566,
      "lig": 9567,
      "lid▁": 9568,
      "rific": 9569,
      "▁you▁should▁": 9570,
      "▁pay": 9571,
      "▁prom": 9572,
      "it▁and▁": 9573,
      "it▁so▁": 9574,
      "▁follow": 9575,
      "es▁with": 9576,
      "▁The▁boy▁": 9577,
      "▁got": 9578,
      "▁你個": 9579,
      "▁你咪": 9580,
      "le▁of": 9581,
      "begin": 9582,
      "▁He▁got▁": 9583,
      "unci": 9584,
      "unreason": 9585,
      "▁Americ": 9586,
      "heard": 9587,
      "urs": 9588,
      "oler": 9589,
      "olor": 9590,
      "e▁to▁be▁": 9591,
      "sec": 9592,
      "seat": 9593,
      "▁that▁he▁was▁": 9594,
      "▁to▁the▁p": 9595,
      ",▁and▁it▁was▁": 9596,
      "and-": 9597,
      "andwich": 9598,
      "do?": 9599,
      "▁little▁": 9600,
      "e▁wor": 9601,
      "e▁would▁": 9602,
      "like▁this": 9603,
      "agg": 9604,
      "rov": 9605,
      "rostitut": 9606,
      "▁of▁m": 9607,
      "▁offer": 9608,
      "ilt": 9609,
      "ility.": 9610,
      "▁and▁p": 9611,
      "shoulder": 9612,
      "▁station": 9613,
      "▁is▁always▁": 9614,
      "whil": 9615,
      "was▁so▁": 9616,
      "explain": 9617,
      "but▁still": 9618,
      "with▁the▁": 9619,
      "with▁my▁": 9620,
      "my▁hair": 9621,
      "ply": 9622,
      "plant": 9623,
      "，我點": 9624,
      "have▁a▁b": 9625,
      "▁Most▁": 9626,
      "our▁b": 9627,
      "odd▁": 9628,
      "ing▁a▁b": 9629,
      "ing▁a▁p": 9630,
      "carry": 9631,
      "▁when▁he▁": 9632,
      "goes▁to▁": 9633,
      "eating.": 9634,
      "▁there": 9635,
      "▁there▁to▁": 9636,
      "udg": 9637,
      "so.": 9638,
      "▁I▁want": 9639,
      "▁the▁br": 9640,
      "▁the▁big": 9641,
      "▁sho": 9642,
      "▁my▁son": 9643,
      "effect": 9644,
      "e▁of▁this▁": 9645,
      "an▁un": 9646,
      "climb": 9647,
      "▁the▁pr": 9648,
      "old▁man": 9649,
      "astic": 9650,
      "▁he▁has▁": 9651,
      "▁he▁will": 9652,
      "▁they▁were▁": 9653,
      "▁him?": 9654,
      "urnit": 9655,
      "▁the▁meal": 9656,
      "▁個女仔": 9657,
      "▁個細路仔": 9658,
      "▁個BB": 9659,
      "ist.": 9660,
      "▁I▁just▁": 9661,
      "▁有冇": 9662,
      "▁I'm▁": 9663,
      "he's▁really▁": 9664,
      "，但佢": 9665,
      "letter": 9666,
      "s▁are▁all▁": 9667,
      "actually▁": 9668,
      "▁the▁sc": 9669,
      "▁By▁": 9670,
      "offer": 9671,
      "people▁are▁": 9672,
      "a▁piece▁of": 9673,
      "money,▁so▁": 9674,
      "money?": 9675,
      "aught▁": 9676,
      "friend.": 9677,
      "side.": 9678,
      "have▁th": 9679,
      "▁He's▁not▁": 9680,
      "▁He's▁always▁": 9681,
      "even▁though": 9682,
      "▁talk▁about▁": 9683,
      "▁talking▁about": 9684,
      "▁the▁wrong": 9685,
      "goods▁": 9686,
      "every▁time▁": 9687,
      "on▁the▁street▁": 9688,
      "a▁matter": 9689,
      "▁night▁": 9690,
      "othel": 9691,
      "guy▁is▁": 9692,
      "a▁flat": 9693,
      "ice▁cream": 9694,
      "▁If▁you're▁": 9695,
      "somebody▁": 9696,
      "raining▁": 9697,
      ",▁I▁then": 9698,
      "phys": 9699,
      "we▁can": 9700,
      "air▁condition": 9701,
      "ruth": 9702,
      "saying.": 9703,
      "，一邊": 9704,
      "▁the▁cas": 9705,
      "student▁": 9706,
      "busy▁": 9707,
      "way▁to▁": 9708,
      "ully▁": 9709,
      ",▁then▁I'll": 9710,
      "boast": 9711,
      "，有乜": 9712,
      "down▁on": 9713,
      "咁多錢": 9714,
      "▁it!": 9715,
      "long▁a": 9716,
      "brand▁": 9717,
      "easy▁to▁": 9718,
      "之後，": 9719,
      "well-": 9720,
      "▁a▁bit.": 9721,
      "elev": 9722,
      "Chines": 9723,
      "wearing▁": 9724,
      "player": 9725,
      "said▁he▁": 9726,
      "becaus": 9727,
      "must▁have▁": 9728,
      "，但係我": 9729,
      "extra": 9730,
      "give▁him": 9731,
      "▁The▁baby▁": 9732,
      "▁Last▁year": 9733,
      "▁go▁out▁": 9734,
      "enough▁to▁": 9735,
      "nothing": 9736,
      "recogn": 9737,
      "▁people▁to▁": 9738,
      "play▁mahjong": 9739,
      "regard": 9740,
      "regular": 9741,
      "ograph": 9742,
      "swimm": 9743,
      "something▁": 9744,
      "ing▁about▁it.": 9745,
      "ubborn": 9746,
      "▁Every▁tim": 9747,
      "won't▁be▁": 9748,
      "▁Who▁is▁": 9749,
      "restaurant.": 9750,
      "collap": 9751,
      "visit": 9752,
      "▁At▁this▁": 9753,
      "▁you▁are▁": 9754,
      "▁back.": 9755,
      "做乜啊？": 9756,
      "e▁time▁to▁": 9757,
      "sexual": 9758,
      "▁small": 9759,
      "legs▁": 9760,
      "salary▁": 9761,
      "▁睇你": 9762,
      "what's": 9763,
      "▁problem": 9764,
      "▁not▁to▁": 9765,
      "▁driv": 9766,
      "，個個都": 9767,
      "energ": 9768,
      "until": 9769,
      "appearanc": 9770,
      "cops▁": 9771,
      "▁term": 9772,
      "struct": 9773,
      "calm": 9774,
      "becoming▁": 9775,
      "becomes▁": 9776,
      "arrass": 9777,
      "outside▁": 9778,
      "meal.": 9779,
      "some▁thing": 9780,
      "convenient▁": 9781,
      "▁I▁heard": 9782,
      "set▁up": 9783,
      "▁friends.": 9784,
      "servic": 9785,
      "strongly▁": 9786,
      "▁crash": 9787,
      "support▁": 9788,
      "anquet": 9789,
      "edding▁b": 9790,
      "▁days▁ago▁": 9791,
      "夜晚黑": 9792,
      "▁When▁he▁was▁": 9793,
      "▁doing▁things▁": 9794,
      "market": 9795,
      "pregnant▁": 9796,
      "▁getting▁": 9797,
      "gradu": 9798,
      "university▁": 9799,
      "university.": 9800,
      "protection": 9801,
      "classmates▁": 9802,
      "sweet▁": 9803,
      "▁sexual": 9804,
      "affair": 9805,
      "▁舊年": 9806,
      "e▁there's▁": 9807,
      "language▁": 9808,
      "mobile▁phone▁": 9809,
      "ing▁back▁and▁forth": 9810,
      "delicious.": 9811,
      "食完飯": 9812,
      "decided▁to▁": 9813,
      "husband's▁": 9814,
      "▁differ": 9815,
      "▁A▁few": 9816,
      "，點算啊？": 9817,
      "useless▁": 9818,
      "exactly▁": 9819,
      "onghua": 9820,
      "yellow": 9821,
      "answer": 9822,
      "▁classmat": 9823,
      "embarrass": 9824,
      "al▁estate▁": 9825,
      "immigr": 9826,
      "▁Okay": 9827,
      ",▁I've▁": 9828,
      ",▁who▁": 9829,
      ",▁which": 9830,
      ",▁why▁": 9831,
      "-hand▁": 9832,
      "10": 9833,
      "C.": 9834,
      "EL": 9835,
      "ID": 9836,
      "IN": 9837,
      "I▁feel": 9838,
      "I▁get▁": 9839,
      "Sun": 9840,
      "Un": 9841,
      "Western": 9842,
      "You": 9843,
      "ahead▁": 9844,
      "boo": 9845,
      "bit.": 9846,
      "bott": 9847,
      "be▁too▁": 9848,
      "cow": 9849,
      "cak": 9850,
      "crip": 9851,
      "don": 9852,
      "dest": 9853,
      "e's": 9854,
      "equal": 9855,
      "fat▁": 9856,
      "fake▁": 9857,
      "gut": 9858,
      "hus": 9859,
      "hid": 9860,
      "hib": 9861,
      "ias": 9862,
      "jogg": 9863,
      "k.": 9864,
      "kid▁": 9865,
      "le▁the▁": 9866,
      "litt": 9867,
      "larg": 9868,
      "lunch": 9869,
      "ni": 9870,
      "ox": 9871,
      "ole": 9872,
      "pa": 9873,
      "past": 9874,
      "position": 9875,
      "rul": 9876,
      "rud": 9877,
      "sister": 9878,
      "sometimes▁": 9879,
      "vom": 9880,
      "vill": 9881,
      "vent": 9882,
      "wo": 9883,
      "wok": 9884,
      "would": 9885,
      "wai": 9886,
      "where.": 9887,
      "women": 9888,
      "y▁thousand▁dollar": 9889,
      "zer": 9890,
      "▁下": 9891,
      "▁正": 9892,
      "▁白": 9893,
      "▁開": 9894,
      "▁any": 9895,
      "▁eat▁": 9896,
      "▁唔知": 9897,
      "▁梗係": 9898,
      "▁差佬": 9899,
      "▁男友": 9900,
      "▁媽咪": 9901,
      "㗎喇！": 9902,
      "一年": 9903,
      "一條": 9904,
      "一邊": 9905,
      "上。": 9906,
      "中學": 9907,
      "乜咁": 9908,
      "事，": 9909,
      "你一": 9910,
      "你仲": 9911,
      "你去": 9912,
      "你都唔": 9913,
      "保護": 9914,
      "個鐘": 9915,
      "借啲": 9916,
      "做嘅。": 9917,
      "做唔到": 9918,
      "傾吓": 9919,
      "兩個人": 9920,
      "出門口": 9921,
      "博士": 9922,
      "又冇": 9923,
      "又唔": 9924,
      "友。": 9925,
      "叫做": 9926,
      "叻。": 9927,
      "吓佢": 9928,
      "吖嘛。": 9929,
      "呀！": 9930,
      "呢部": 9931,
      "呢單嘢": 9932,
      "周街": 9933,
      "命。": 9934,
      "咁熱": 9935,
      "咁細": 9936,
      "哥。": 9937,
      "啦？": 9938,
      "啩？": 9939,
      "啲朋友": 9940,
      "喐。": 9941,
      "喐手": 9942,
      "喺佢": 9943,
      "喺嗰度": 9944,
      "嗌交": 9945,
      "嗰隻": 9946,
      "嗰頭": 9947,
      "嘅一": 9948,
      "囉，": 9949,
      "囉？": 9950,
      "囡囡": 9951,
      "堂。": 9952,
      "場波": 9953,
      "多多": 9954,
      "夠鐘": 9955,
      "大耳窿": 9956,
      "太多": 9957,
      "好平": 9958,
      "好睇": 9959,
      "好靚": 9960,
      "好高": 9961,
      "孤寒": 9962,
      "小販": 9963,
      "就可以": 9964,
      "就即刻": 9965,
      "屋。": 9966,
      "差唔多": 9967,
      "得人": 9968,
      "得罪": 9969,
      "心。": 9970,
      "成身": 9971,
      "戲院": 9972,
      "手錶": 9973,
      "打開": 9974,
      "拘捕": 9975,
      "提款": 9976,
      "搭棚": 9977,
      "搵食。": 9978,
      "早就": 9979,
      "早餐": 9980,
      "明白": 9981,
      "時俾人": 9982,
      "晚晚": 9983,
      "書。": 9984,
      "會有": 9985,
      "有五": 9986,
      "根本": 9987,
      "油。": 9988,
      "游水": 9989,
      "爛咗": 9990,
      "牙。": 9991,
      "牛扒": 9992,
      "環境": 9993,
      "生。": 9994,
      "畀你。": 9995,
      "相信": 9996,
      "着住": 9997,
      "私家": 9998,
      "笑到": 9999,
      "第日": 10000,
      "老鼠": 10001,
      "耳仔": 10002,
      "聲噉": 10003,
      "菲林": 10004,
      "落咗": 10005,
      "蚊。": 10006,
      "表演": 10007,
      "袋。": 10008,
      "西瓜": 10009,
      "要做": 10010,
      "親戚": 10011,
      "話自己": 10012,
      "議員": 10013,
      "貴。": 10014,
      "買個": 10015,
      "費。": 10016,
      "賣。": 10017,
      "起咗": 10018,
      "跌落地": 10019,
      "路，": 10020,
      "輸咗": 10021,
      "返嚟。": 10022,
      "返工。": 10023,
      "間中": 10024,
      "阻住": 10025,
      "附近": 10026,
      "離婚": 10027,
      "難。": 10028,
      "頂。": 10029,
      "頂唔順": 10030,
      "風球": 10031,
      "食咗": 10032,
      "食煙": 10033,
      "食過": 10034,
      "飲到": 10035,
      "飲杯": 10036,
      "餅。": 10037,
      "馬，": 10038,
      "鬼！": 10039,
      "麵包": 10040,
      "，以": 10041,
      "，只": 10042,
      "，對": 10043,
      "，搵": 10044,
      "，可以": 10045,
      "，覺得": 10046,
      "，應該": 10047,
      "，或者": 10048,
      "，千祈唔好": 10049,
      "𠺢嘛。": 10050,
      "e▁star": 10051,
      "s▁p": 10052,
      "s▁so▁": 10053,
      "s▁quite▁": 10054,
      "ins": 10055,
      "in▁b": 10056,
      "inally▁": 10057,
      "in▁your": 10058,
      "inner": 10059,
      "▁threat": 10060,
      "anch": 10061,
      "y▁has▁": 10062,
      "ones▁": 10063,
      "ench": 10064,
      "enior": 10065,
      "ing▁their": 10066,
      "ing▁work": 10067,
      "ing▁too▁": 10068,
      "orry": 10069,
      "▁set▁": 10070,
      "▁skill": 10071,
      "▁suffer": 10072,
      "▁the▁st": 10073,
      "▁the▁driver": 10074,
      "request": 10075,
      "▁to▁find▁": 10076,
      "▁to▁see▁": 10077,
      "▁able▁to▁": 10078,
      "▁I▁get▁": 10079,
      "▁I▁couldn't▁": 10080,
      "▁I▁hop": 10081,
      "ated": 10082,
      "stead": 10083,
      "▁won't▁": 10084,
      "▁wash": 10085,
      "▁woman": 10086,
      "▁week": 10087,
      "▁Tell": 10088,
      ",▁right?": 10089,
      "ed▁out": 10090,
      "ed▁person": 10091,
      "ed▁several": 10092,
      "ow-": 10093,
      "ing▁it.": 10094,
      "also": 10095,
      "▁ca": 10096,
      "▁cal": 10097,
      "▁cold▁": 10098,
      "▁cut▁": 10099,
      "▁mother": 10100,
      "▁佢坐": 10101,
      "▁佢對": 10102,
      "▁佢會": 10103,
      "▁佢生": 10104,
      "▁佢做嘢": 10105,
      "for-": 10106,
      "for▁his▁": 10107,
      "former": 10108,
      "for▁several": 10109,
      "for▁a▁wh": 10110,
      "▁bank": 10111,
      "▁boob": 10112,
[...]
